{
  "version": "1.0",
  "truncation": null,
  "padding": null,
  "added_tokens": [
    {
      "id": 0,
      "content": "<PAD>",
      "single_word": false,
      "lstrip": false,
      "rstrip": false,
      "normalized": false,
      "special": true
    },
    {
      "id": 1,
      "content": "<BOS>",
      "single_word": false,
      "lstrip": false,
      "rstrip": false,
      "normalized": false,
      "special": true
    },
    {
      "id": 2,
      "content": "<EOS>",
      "single_word": false,
      "lstrip": false,
      "rstrip": false,
      "normalized": false,
      "special": true
    },
    {
      "id": 3,
      "content": "<UNK>",
      "single_word": false,
      "lstrip": false,
      "rstrip": false,
      "normalized": false,
      "special": true
    }
  ],
  "normalizer": {
    "type": "Sequence",
    "normalizers": [
      {
        "type": "NFKC"
      },
      {
        "type": "BertNormalizer",
        "clean_text": true,
        "handle_chinese_chars": true,
        "strip_accents": null,
        "lowercase": true
      }
    ]
  },
  "pre_tokenizer": {
    "type": "BertPreTokenizer"
  },
  "post_processor": null,
  "decoder": {
    "type": "BPEDecoder",
    "suffix": "</w>"
  },
  "model": {
    "type": "BPE",
    "dropout": null,
    "unk_token": null,
    "continuing_subword_prefix": null,
    "end_of_word_suffix": null,
    "fuse_unk": false,
    "vocab": {
      "<PAD>": 0,
      "<BOS>": 1,
      "<EOS>": 2,
      "<UNK>": 3,
      "!": 4,
      "\"": 5,
      "#": 6,
      "$": 7,
      "%": 8,
      "&": 9,
      "'": 10,
      "(": 11,
      ")": 12,
      "*": 13,
      "+": 14,
      ",": 15,
      "-": 16,
      ".": 17,
      "/": 18,
      "0": 19,
      "1": 20,
      "2": 21,
      "3": 22,
      "4": 23,
      "5": 24,
      "6": 25,
      "7": 26,
      "8": 27,
      "9": 28,
      ":": 29,
      ";": 30,
      "<": 31,
      "=": 32,
      ">": 33,
      "?": 34,
      "@": 35,
      "[": 36,
      "\\": 37,
      "]": 38,
      "_": 39,
      "`": 40,
      "a": 41,
      "b": 42,
      "c": 43,
      "d": 44,
      "e": 45,
      "f": 46,
      "g": 47,
      "h": 48,
      "i": 49,
      "j": 50,
      "k": 51,
      "l": 52,
      "m": 53,
      "n": 54,
      "o": 55,
      "p": 56,
      "q": 57,
      "r": 58,
      "s": 59,
      "t": 60,
      "u": 61,
      "v": 62,
      "w": 63,
      "x": 64,
      "y": 65,
      "z": 66,
      "{": 67,
      "|": 68,
      "}": 69,
      "ß": 70,
      "–": 71,
      "—": 72,
      "―": 73,
      "‘": 74,
      "’": 75,
      "“": 76,
      "”": 77,
      "♪": 78,
      "♫": 79,
      "❝": 80,
      "❞": 81,
      "ツ": 82,
      "th": 83,
      "in": 84,
      "ou": 85,
      "the": 86,
      "an": 87,
      "re": 88,
      "at": 89,
      "you": 90,
      "on": 91,
      "ing": 92,
      "to": 93,
      "it": 94,
      "er": 95,
      "ll": 96,
      "is": 97,
      "and": 98,
      "st": 99,
      "he": 100,
      "of": 101,
      "ar": 102,
      "or": 103,
      "en": 104,
      "le": 105,
      "se": 106,
      "as": 107,
      "that": 108,
      "ve": 109,
      "we": 110,
      "me": 111,
      "no": 112,
      "be": 113,
      "ro": 114,
      "gh": 115,
      "ke": 116,
      "go": 117,
      "ac": 118,
      "ay": 119,
      "all": 120,
      "al": 121,
      "es": 122,
      "do": 123,
      "so": 124,
      "ha": 125,
      "wh": 126,
      "ght": 127,
      "ge": 128,
      "ri": 129,
      "lo": 130,
      "ed": 131,
      "li": 132,
      "de": 133,
      "for": 134,
      "wi": 135,
      "ld": 136,
      "ok": 137,
      "ver": 138,
      "this": 139,
      "ti": 140,
      "ly": 141,
      "out": 142,
      "one": 143,
      "can": 144,
      "ma": 145,
      "ch": 146,
      "are": 147,
      "ad": 148,
      "sh": 149,
      "un": 150,
      "ut": 151,
      "co": 152,
      "up": 153,
      "ce": 154,
      "your": 155,
      "ur": 156,
      "there": 157,
      "si": 158,
      "ck": 159,
      "with": 160,
      "now": 161,
      "ir": 162,
      "ent": 163,
      "ye": 164,
      "have": 165,
      "mo": 166,
      "ab": 167,
      "what": 168,
      "ack": 169,
      "right": 170,
      "di": 171,
      "see": 172,
      "ust": 173,
      "pe": 174,
      "ta": 175,
      "oun": 176,
      "here": 177,
      "ne": 178,
      "ca": 179,
      "ra": 180,
      "not": 181,
      "ould": 182,
      "going": 183,
      "us": 184,
      "ah": 185,
      "fe": 186,
      "po": 187,
      "they": 188,
      "gu": 189,
      "but": 190,
      "just": 191,
      "im": 192,
      "thing": 193,
      "bo": 194,
      "la": 195,
      "yeah": 196,
      "like": 197,
      "ho": 198,
      "was": 199,
      "some": 200,
      "ound": 201,
      "way": 202,
      "ther": 203,
      "get": 204,
      "okay": 205,
      "if": 206,
      "ard": 207,
      "ter": 208,
      "my": 209,
      "ally": 210,
      "oh": 211,
      "ant": 212,
      "con": 213,
      "look": 214,
      "rom": 215,
      "wn": 216,
      "ry": 217,
      "from": 218,
      "any": 219,
      "know": 220,
      "back": 221,
      "she": 222,
      "te": 223,
      "ion": 224,
      "ind": 225,
      "ts": 226,
      "per": 227,
      "od": 228,
      "pl": 229,
      "very": 230,
      "use": 231,
      "wo": 232,
      "her": 233,
      "fi": 234,
      "ough": 235,
      "don": 236,
      "am": 237,
      "our": 238,
      "fo": 239,
      "his": 240,
      "tion": 241,
      "him": 242,
      "ic": 243,
      "into": 244,
      "ple": 245,
      "ill": 246,
      "che": 247,
      "end": 248,
      "id": 249,
      "ep": 250,
      "guy": 251,
      "sa": 252,
      "them": 253,
      "make": 254,
      "fu": 255,
      "su": 256,
      "where": 257,
      "ag": 258,
      "take": 259,
      "its": 260,
      "about": 261,
      "well": 262,
      "qu": 263,
      "art": 264,
      "gr": 265,
      "side": 266,
      "urn": 267,
      "down": 268,
      "lit": 269,
      "ink": 270,
      "other": 271,
      "tle": 272,
      "pi": 273,
      "wor": 274,
      "want": 275,
      "guys": 276,
      "who": 277,
      "come": 278,
      "pp": 279,
      "would": 280,
      "over": 281,
      "um": 282,
      "did": 283,
      "ight": 284,
      "yes": 285,
      "ate": 286,
      "two": 287,
      "king": 288,
      "ven": 289,
      "gi": 290,
      "poin": 291,
      "then": 292,
      "ree": 293,
      "rough": 294,
      "da": 295,
      "off": 296,
      "head": 297,
      "time": 298,
      "fee": 299,
      "turn": 300,
      "good": 301,
      "red": 302,
      "ain": 303,
      "tr": 304,
      "whi": 305,
      "roll": 306,
      "com": 307,
      "ex": 308,
      "ment": 309,
      "ation": 310,
      "ward": 311,
      "ss": 312,
      "say": 313,
      "dis": 314,
      "ine": 315,
      "att": 316,
      "by": 317,
      "act": 318,
      "through": 319,
      "sp": 320,
      "around": 321,
      "ace": 322,
      "does": 323,
      "man": 324,
      "ong": 325,
      "has": 326,
      "mage": 327,
      "little": 328,
      "pro": 329,
      "ct": 330,
      "spe": 331,
      "gro": 332,
      "pre": 333,
      "been": 334,
      "let": 335,
      "ast": 336,
      "cause": 337,
      "got": 338,
      "ous": 339,
      "il": 340,
      "than": 341,
      "der": 342,
      "ity": 343,
      "will": 344,
      "pu": 345,
      "ite": 346,
      "think": 347,
      "damage": 348,
      "ble": 349,
      "how": 350,
      "more": 351,
      "ber": 352,
      "wat": 353,
      "ren": 354,
      "still": 355,
      "ting": 356,
      "sel": 357,
      "lan": 358,
      "lau": 359,
      "ure": 360,
      "because": 361,
      "rest": 362,
      "sho": 363,
      "had": 364,
      "ving": 365,
      "ach": 366,
      "ig": 367,
      "row": 368,
      "reat": 369,
      "check": 370,
      "were": 371,
      "tal": 372,
      "their": 373,
      "hand": 374,
      "na": 375,
      "try": 376,
      "sc": 377,
      "could": 378,
      "should": 379,
      "every": 380,
      "ty": 381,
      "again": 382,
      "ten": 383,
      "ru": 384,
      "ess": 385,
      "mu": 386,
      "fore": 387,
      "dy": 388,
      "om": 389,
      "really": 390,
      "sor": 391,
      "ap": 392,
      "br": 393,
      "beg": 394,
      "op": 395,
      "ks": 396,
      "low": 397,
      "fir": 398,
      "grog": 399,
      "wa": 400,
      "attack": 401,
      "ves": 402,
      "ers": 403,
      "ually": 404,
      "before": 405,
      "these": 406,
      "may": 407,
      "able": 408,
      "need": 409,
      "hit": 410,
      "first": 411,
      "day": 412,
      "bit": 413,
      "whe": 414,
      "which": 415,
      "clo": 416,
      "tra": 417,
      "est": 418,
      "fuck": 419,
      "begin": 420,
      "ked": 421,
      "ms": 422,
      "ath": 423,
      "light": 424,
      "self": 425,
      "sto": 426,
      "cl": 427,
      "find": 428,
      "looks": 429,
      "bl": 430,
      "ps": 431,
      "body": 432,
      "pull": 433,
      "ople": 434,
      "ark": 435,
      "people": 436,
      "dra": 437,
      "points": 438,
      "keep": 439,
      "vi": 440,
      "ass": 441,
      "air": 442,
      "move": 443,
      "af": 444,
      "read": 445,
      "ak": 446,
      "run": 447,
      "sm": 448,
      "bu": 449,
      "under": 450,
      "20": 451,
      "hold": 452,
      "sed": 453,
      "when": 454,
      "most": 455,
      "van": 456,
      "room": 457,
      "away": 458,
      "va": 459,
      "vo": 460,
      "cent": 461,
      "mean": 462,
      "cr": 463,
      "cast": 464,
      "cur": 465,
      "something": 466,
      "feel": 467,
      "feet": 468,
      "ice": 469,
      "ning": 470,
      "wal": 471,
      "toward": 472,
      "ga": 473,
      "put": 474,
      "ft": 475,
      "goes": 476,
      "el": 477,
      "gon": 478,
      "part": 479,
      "door": 480,
      "xt": 481,
      "ish": 482,
      "point": 483,
      "mor": 484,
      "much": 485,
      "ick": 486,
      "cha": 487,
      "anything": 488,
      "long": 489,
      "looking": 490,
      "cond": 491,
      "wait": 492,
      "lea": 493,
      "ose": 494,
      "cy": 495,
      "ran": 496,
      "too": 497,
      "mber": 498,
      "rent": 499,
      "three": 500,
      "next": 501,
      "sure": 502,
      "fr": 503,
      "form": 504,
      "thank": 505,
      "happ": 506,
      "key": 507,
      "ars": 508,
      "second": 509,
      "towards": 510,
      "lar": 511,
      "scan": 512,
      "hi": 513,
      "ghter": 514,
      "hel": 515,
      "ahead": 516,
      "ci": 517,
      "ash": 518,
      "mp": 519,
      "shit": 520,
      "maybe": 521,
      "scanlan": 522,
      "last": 523,
      "ses": 524,
      "bre": 525,
      "tell": 526,
      "ang": 527,
      "even": 528,
      "also": 529,
      "both": 530,
      "watch": 531,
      "actually": 532,
      "open": 533,
      "bab": 534,
      "ue": 535,
      "action": 536,
      "tri": 537,
      "stone": 538,
      "fin": 539,
      "things": 540,
      "cor": 541,
      "ross": 542,
      "spell": 543,
      "ful": 544,
      "laughter": 545,
      "ction": 546,
      "start": 547,
      "city": 548,
      "vel": 549,
      "mag": 550,
      "ies": 551,
      "ste": 552,
      "age": 553,
      "au": 554,
      "ground": 555,
      "ol": 556,
      "fire": 557,
      "ot": 558,
      "ends": 559,
      "doing": 560,
      "lot": 561,
      "les": 562,
      "leth": 563,
      "mon": 564,
      "stand": 565,
      "led": 566,
      "plus": 567,
      "vis": 568,
      "ever": 569,
      "min": 570,
      "those": 571,
      "ance": 572,
      "mis": 573,
      "give": 574,
      "throw": 575,
      "keyleth": 576,
      "great": 577,
      "sha": 578,
      "ow": 579,
      "percy": 580,
      "laugh": 581,
      "dark": 582,
      "beh": 583,
      "wall": 584,
      "sion": 585,
      "ings": 586,
      "step": 587,
      "help": 588,
      "god": 589,
      "tain": 590,
      "behind": 591,
      "sorry": 592,
      "ord": 593,
      "after": 594,
      "pike": 595,
      "hear": 596,
      "being": 597,
      "bet": 598,
      "water": 599,
      "probab": 600,
      "probably": 601,
      "left": 602,
      "only": 603,
      "hal": 604,
      "sk": 605,
      "des": 606,
      "while": 607,
      "car": 608,
      "top": 609,
      "hits": 610,
      "vax": 611,
      "happen": 612,
      "ket": 613,
      "face": 614,
      "another": 615,
      "ual": 616,
      "far": 617,
      "ary": 618,
      "advan": 619,
      "ious": 620,
      "shi": 621,
      "big": 622,
      "mer": 623,
      "war": 624,
      "tage": 625,
      "ought": 626,
      "ff": 627,
      "cont": 628,
      "tun": 629,
      "fri": 630,
      "across": 631,
      "small": 632,
      "ready": 633,
      "moment": 634,
      "nat": 635,
      "sing": 636,
      "kind": 637,
      "advantage": 638,
      "ser": 639,
      "pret": 640,
      "few": 641,
      "pr": 642,
      "dragon": 643,
      "word": 644,
      "cale": 645,
      "didn": 646,
      "new": 647,
      "creat": 648,
      "app": 649,
      "ical": 650,
      "ild": 651,
      "et": 652,
      "five": 653,
      "kill": 654,
      "guard": 655,
      "ase": 656,
      "pretty": 657,
      "why": 658,
      "ins": 659,
      "might": 660,
      "lt": 661,
      "current": 662,
      "fron": 663,
      "against": 664,
      "caleb": 665,
      "hes": 666,
      "vex": 667,
      "fine": 668,
      "15": 669,
      "ence": 670,
      "fa": 671,
      "front": 672,
      "sound": 673,
      "lly": 674,
      "cre": 675,
      "ise": 676,
      "par": 677,
      "ner": 678,
      "vent": 679,
      "once": 680,
      "coming": 681,
      "ling": 682,
      "tic": 683,
      "wer": 684,
      "half": 685,
      "less": 686,
      "ze": 687,
      "ist": 688,
      "doesn": 689,
      "place": 690,
      "pos": 691,
      "fall": 692,
      "four": 693,
      "por": 694,
      "wood": 695,
      "plan": 696,
      "night": 697,
      "beau": 698,
      "jo": 699,
      "stay": 700,
      "sur": 701,
      "fucking": 702,
      "made": 703,
      "though": 704,
      "work": 705,
      "name": 706,
      "ek": 707,
      "set": 708,
      "ved": 709,
      "cep": 710,
      "ately": 711,
      "appe": 712,
      "hor": 713,
      "ger": 714,
      "call": 715,
      "ton": 716,
      "ces": 717,
      "within": 718,
      "each": 719,
      "ken": 720,
      "many": 721,
      "seems": 722,
      "ird": 723,
      "trying": 724,
      "res": 725,
      "creature": 726,
      "char": 727,
      "real": 728,
      "du": 729,
      "pers": 730,
      "comes": 731,
      "gold": 732,
      "large": 733,
      "inside": 734,
      "enti": 735,
      "bat": 736,
      "currently": 737,
      "play": 738,
      "cle": 739,
      "dire": 740,
      "bri": 741,
      "ffe": 742,
      "ive": 743,
      "eyes": 744,
      "ump": 745,
      "range": 746,
      "forward": 747,
      "blo": 748,
      "ear": 749,
      "ural": 750,
      "ated": 751,
      "ener": 752,
      "den": 753,
      "coun": 754,
      "ans": 755,
      "mar": 756,
      "bad": 757,
      "takes": 758,
      "everyone": 759,
      "nott": 760,
      "dead": 761,
      "close": 762,
      "trin": 763,
      "walk": 764,
      "stu": 765,
      "jord": 766,
      "land": 767,
      "mind": 768,
      "white": 769,
      "jest": 770,
      "crit": 771,
      "sup": 772,
      "fjord": 773,
      "never": 774,
      "tor": 775,
      "bon": 776,
      "ship": 777,
      "llow": 778,
      "trinket": 779,
      "enough": 780,
      "jester": 781,
      "book": 782,
      "used": 783,
      "member": 784,
      "natural": 785,
      "said": 786,
      "table": 787,
      "mat": 788,
      "cool": 789,
      "past": 790,
      "bar": 791,
      "ide": 792,
      "show": 793,
      "six": 794,
      "love": 795,
      "begins": 796,
      "fun": 797,
      "fam": 798,
      "00": 799,
      "else": 800,
      "cks": 801,
      "medi": 802,
      "ls": 803,
      "heal": 804,
      "aren": 805,
      "dr": 806,
      "foot": 807,
      "giant": 808,
      "fami": 809,
      "nice": 810,
      "cat": 811,
      "fl": 812,
      "gre": 813,
      "won": 814,
      "contin": 815,
      "grab": 816,
      "aw": 817,
      "already": 818,
      "sort": 819,
      "party": 820,
      "same": 821,
      "slow": 822,
      "ming": 823,
      "cu": 824,
      "bring": 825,
      "high": 826,
      "ond": 827,
      "nor": 828,
      "leave": 829,
      "saving": 830,
      "minut": 831,
      "pres": 832,
      "grou": 833,
      "eye": 834,
      "tree": 835,
      "hed": 836,
      "ask": 837,
      "gl": 838,
      "gets": 839,
      "mid": 840,
      "ating": 841,
      "ering": 842,
      "med": 843,
      "pie": 844,
      "quick": 845,
      "qui": 846,
      "stru": 847,
      "bro": 848,
      "sla": 849,
      "almost": 850,
      "hun": 851,
      "lead": 852,
      "break": 853,
      "ster": 854,
      "manage": 855,
      "inter": 856,
      "quest": 857,
      "fly": 858,
      "armor": 859,
      "laughs": 860,
      "done": 861,
      "round": 862,
      "dist": 863,
      "sit": 864,
      "seen": 865,
      "level": 866,
      "week": 867,
      "outside": 868,
      "sun": 869,
      "nothing": 870,
      "ways": 871,
      "please": 872,
      "better": 873,
      "group": 874,
      "wr": 875,
      "says": 876,
      "getting": 877,
      "talk": 878,
      "gy": 879,
      "chamber": 880,
      "mach": 881,
      "hard": 882,
      "center": 883,
      "men": 884,
      "lie": 885,
      "steal": 886,
      "magic": 887,
      "val": 888,
      "18": 889,
      "eight": 890,
      "hea": 891,
      "cked": 892,
      "direction": 893,
      "ele": 894,
      "holding": 895,
      "bonus": 896,
      "stri": 897,
      "imp": 898,
      "19": 899,
      "tre": 900,
      "own": 901,
      "thought": 902,
      "dow": 903,
      "event": 904,
      "cus": 905,
      "glan": 906,
      "atte": 907,
      "ness": 908,
      "ception": 909,
      "stair": 910,
      "div": 911,
      "ches": 912,
      "cer": 913,
      "sen": 914,
      "life": 915,
      "mes": 916,
      "ina": 917,
      "gn": 918,
      "burn": 919,
      "add": 920,
      "ted": 921,
      "12": 922,
      "near": 923,
      "old": 924,
      "return": 925,
      "town": 926,
      "everything": 927,
      "sy": 928,
      "cou": 929,
      "fight": 930,
      "sw": 931,
      "ition": 932,
      "ince": 933,
      "cess": 934,
      "zing": 935,
      "30": 936,
      "found": 937,
      "hands": 938,
      "person": 939,
      "whis": 940,
      "17": 941,
      "making": 942,
      "whatever": 943,
      "figu": 944,
      "ph": 945,
      "asha": 946,
      "cra": 947,
      "blood": 948,
      "aring": 949,
      "ud": 950,
      "cho": 951,
      "oud": 952,
      "flo": 953,
      "quite": 954,
      "vern": 955,
      "wel": 956,
      "went": 957,
      "sle": 958,
      "ons": 959,
      "16": 960,
      "hour": 961,
      "win": 962,
      "onto": 963,
      "cal": 964,
      "fla": 965,
      "immedi": 966,
      "pick": 967,
      "black": 968,
      "area": 969,
      "umber": 970,
      "build": 971,
      "machina": 972,
      "follow": 973,
      "ically": 974,
      "eld": 975,
      "arrow": 976,
      "push": 977,
      "ilit": 978,
      "str": 979,
      "best": 980,
      "hey": 981,
      "edge": 982,
      "role": 983,
      "exp": 984,
      "inte": 985,
      "bow": 986,
      "diffe": 987,
      "seven": 988,
      "dro": 989,
      "rolled": 990,
      "ius": 991,
      "came": 992,
      "ouse": 993,
      "til": 994,
      "critical": 995,
      "shot": 996,
      "awe": 997,
      "stuff": 998,
      "je": 999,
      "toge": 1000,
      "together": 1001,
      "since": 1002,
      "friends": 1003,
      "ters": 1004,
      "bed": 1005,
      "yasha": 1006,
      "cli": 1007,
      "mple": 1008,
      "var": 1009,
      "whole": 1010,
      "cing": 1011,
      "cap": 1012,
      "uck": 1013,
      "couple": 1014,
      "entire": 1015,
      "yet": 1016,
      "itself": 1017,
      "ug": 1018,
      "rain": 1019,
      "gonna": 1020,
      "saw": 1021,
      "rush": 1022,
      "bla": 1023,
      "sl": 1024,
      "pur": 1025,
      "ki": 1026,
      "question": 1027,
      "fur": 1028,
      "ned": 1029,
      "hum": 1030,
      "sword": 1031,
      "em": 1032,
      "talking": 1033,
      "vor": 1034,
      "gone": 1035,
      "eventually": 1036,
      "ream": 1037,
      "cour": 1038,
      "vers": 1039,
      "pat": 1040,
      "14": 1041,
      "centr": 1042,
      "slowly": 1043,
      "until": 1044,
      "main": 1045,
      "taking": 1046,
      "cla": 1047,
      "along": 1048,
      "voice": 1049,
      "nine": 1050,
      "ging": 1051,
      "vest": 1052,
      "pass": 1053,
      "friend": 1054,
      "least": 1055,
      "ged": 1056,
      "ob": 1057,
      "perception": 1058,
      "care": 1059,
      "hall": 1060,
      "element": 1061,
      "weap": 1062,
      "bey": 1063,
      "fan": 1064,
      "gno": 1065,
      "gth": 1066,
      "yourself": 1067,
      "guards": 1068,
      "strike": 1069,
      "upon": 1070,
      "full": 1071,
      "rap": 1072,
      "25": 1073,
      "movement": 1074,
      "fast": 1075,
      "idea": 1076,
      "free": 1077,
      "dden": 1078,
      "beyond": 1079,
      "possi": 1080,
      "immediately": 1081,
      "ball": 1082,
      "cro": 1083,
      "ison": 1084,
      "tonight": 1085,
      "hell": 1086,
      "different": 1087,
      "vox": 1088,
      "als": 1089,
      "unch": 1090,
      "took": 1091,
      "number": 1092,
      "selves": 1093,
      "pri": 1094,
      "dest": 1095,
      "ween": 1096,
      "vy": 1097,
      "vil": 1098,
      "awesome": 1099,
      "stealth": 1100,
      "sudden": 1101,
      "travel": 1102,
      "ones": 1103,
      "steps": 1104,
      "game": 1105,
      "times": 1106,
      "interest": 1107,
      "fully": 1108,
      "appro": 1109,
      "soon": 1110,
      "arch": 1111,
      "haven": 1112,
      "bus": 1113,
      "pping": 1114,
      "true": 1115,
      "lat": 1116,
      "whitestone": 1117,
      "remember": 1118,
      "13": 1119,
      "house": 1120,
      "outh": 1121,
      "chan": 1122,
      "ring": 1123,
      "port": 1124,
      "having": 1125,
      "terri": 1126,
      "battle": 1127,
      "power": 1128,
      "drink": 1129,
      "shor": 1130,
      "turns": 1131,
      "wever": 1132,
      "however": 1133,
      "impact": 1134,
      "between": 1135,
      "ura": 1136,
      "stairs": 1137,
      "welcome": 1138,
      "11": 1139,
      "die": 1140,
      "shif": 1141,
      "ges": 1142,
      "hair": 1143,
      "cove": 1144,
      "comple": 1145,
      "nel": 1146,
      "without": 1147,
      "stren": 1148,
      "walking": 1149,
      "pa": 1150,
      "reach": 1151,
      "ie": 1152,
      "abo": 1153,
      "ene": 1154,
      "distance": 1155,
      "using": 1156,
      "leg": 1157,
      "strength": 1158,
      "cir": 1159,
      "tw": 1160,
      "pped": 1161,
      "minutes": 1162,
      "seem": 1163,
      "tary": 1164,
      "tly": 1165,
      "sive": 1166,
      "stop": 1167,
      "home": 1168,
      "moun": 1169,
      "ping": 1170,
      "ched": 1171,
      "disadvantage": 1172,
      "itch": 1173,
      "ba": 1174,
      "cut": 1175,
      "ooh": 1176,
      "ates": 1177,
      "someone": 1178,
      "ama": 1179,
      "tent": 1180,
      "attemp": 1181,
      "pulls": 1182,
      "defin": 1183,
      "standing": 1184,
      "dag": 1185,
      "vious": 1186,
      "sleep": 1187,
      "blade": 1188,
      "dam": 1189,
      "shoulder": 1190,
      "sense": 1191,
      "hope": 1192,
      "oney": 1193,
      "heard": 1194,
      "course": 1195,
      "kin": 1196,
      "moving": 1197,
      "epis": 1198,
      "gar": 1199,
      "send": 1200,
      "21": 1201,
      "family": 1202,
      "energy": 1203,
      "sub": 1204,
      "formation": 1205,
      "everybody": 1206,
      "bot": 1207,
      "save": 1208,
      "belie": 1209,
      "yep": 1210,
      "star": 1211,
      "corner": 1212,
      "divid": 1213,
      "fle": 1214,
      "saying": 1215,
      "makes": 1216,
      "dice": 1217,
      "heavy": 1218,
      "temple": 1219,
      "definite": 1220,
      "spir": 1221,
      "arm": 1222,
      "brea": 1223,
      "que": 1224,
      "camp": 1225,
      "anyone": 1226,
      "taken": 1227,
      "running": 1228,
      "case": 1229,
      "ither": 1230,
      "definitely": 1231,
      "ared": 1232,
      "molly": 1233,
      "dwar": 1234,
      "wanted": 1235,
      "dri": 1236,
      "ility": 1237,
      "noti": 1238,
      "evening": 1239,
      "col": 1240,
      "gather": 1241,
      "roy": 1242,
      "appears": 1243,
      "above": 1244,
      "gives": 1245,
      "figure": 1246,
      "floor": 1247,
      "wed": 1248,
      "dang": 1249,
      "covered": 1250,
      "visi": 1251,
      "consc": 1252,
      "met": 1253,
      "sil": 1254,
      "ode": 1255,
      "cover": 1256,
      "grow": 1257,
      "human": 1258,
      "cit": 1259,
      "keeping": 1260,
      "matt": 1261,
      "ior": 1262,
      "ign": 1263,
      "vestig": 1264,
      "dle": 1265,
      "wonder": 1266,
      "lad": 1267,
      "ouble": 1268,
      "tiber": 1269,
      "appear": 1270,
      "tiberius": 1271,
      "pas": 1272,
      "information": 1273,
      "conscious": 1274,
      "weird": 1275,
      "spec": 1276,
      "attacks": 1277,
      "tom": 1278,
      "sli": 1279,
      "money": 1280,
      "safe": 1281,
      "individ": 1282,
      "deal": 1283,
      "bur": 1284,
      "catch": 1285,
      "path": 1286,
      "gener": 1287,
      "ni": 1288,
      "various": 1289,
      "morning": 1290,
      "righty": 1291,
      "fair": 1292,
      "plat": 1293,
      "days": 1294,
      "cted": 1295,
      "amazing": 1296,
      "always": 1297,
      "episode": 1298,
      "stra": 1299,
      "tou": 1300,
      "years": 1301,
      "fortun": 1302,
      "aces": 1303,
      "ations": 1304,
      "death": 1305,
      "hu": 1306,
      "either": 1307,
      "iness": 1308,
      "pire": 1309,
      "glance": 1310,
      "wis": 1311,
      "pet": 1312,
      "corre": 1313,
      "pain": 1314,
      "sight": 1315,
      "bear": 1316,
      "vic": 1317,
      "24": 1318,
      "bag": 1319,
      "individual": 1320,
      "cold": 1321,
      "wound": 1322,
      "happened": 1323,
      "gent": 1324,
      "line": 1325,
      "sign": 1326,
      "ham": 1327,
      "iz": 1328,
      "lear": 1329,
      "live": 1330,
      "fli": 1331,
      "wind": 1332,
      "means": 1333,
      "continue": 1334,
      "wow": 1335,
      "dom": 1336,
      "rock": 1337,
      "sides": 1338,
      "notice": 1339,
      "believe": 1340,
      "deep": 1341,
      "tions": 1342,
      "quiet": 1343,
      "lis": 1344,
      "ann": 1345,
      "correct": 1346,
      "orn": 1347,
      "space": 1348,
      "investig": 1349,
      "strange": 1350,
      "fill": 1351,
      "bene": 1352,
      "glow": 1353,
      "further": 1354,
      "sounds": 1355,
      "healing": 1356,
      "destroy": 1357,
      "guess": 1358,
      "dex": 1359,
      "hang": 1360,
      "arwood": 1361,
      "coll": 1362,
      "jump": 1363,
      "vision": 1364,
      "briarwood": 1365,
      "tunnel": 1366,
      "terrible": 1367,
      "certain": 1368,
      "pieces": 1369,
      "unfortun": 1370,
      "comm": 1371,
      "metal": 1372,
      "kno": 1373,
      "arcan": 1374,
      "sam": 1375,
      "iling": 1376,
      "damn": 1377,
      "road": 1378,
      "ris": 1379,
      "strong": 1380,
      "magical": 1381,
      "myself": 1382,
      "22": 1383,
      "happy": 1384,
      "third": 1385,
      "comp": 1386,
      "ots": 1387,
      "boat": 1388,
      "anyway": 1389,
      "mb": 1390,
      "frump": 1391,
      "join": 1392,
      "super": 1393,
      "sne": 1394,
      "cheering": 1395,
      "business": 1396,
      "middle": 1397,
      "isn": 1398,
      "brought": 1399,
      "frumpkin": 1400,
      "mm": 1401,
      "uring": 1402,
      "such": 1403,
      "famili": 1404,
      "called": 1405,
      "sme": 1406,
      "fing": 1407,
      "piece": 1408,
      "slight": 1409,
      "cad": 1410,
      "sic": 1411,
      "ize": 1412,
      "chest": 1413,
      "uce": 1414,
      "pay": 1415,
      "ues": 1416,
      "ils": 1417,
      "managed": 1418,
      "ced": 1419,
      "hide": 1420,
      "complete": 1421,
      "mother": 1422,
      "ial": 1423,
      "brings": 1424,
      "hur": 1425,
      "ative": 1426,
      "mountain": 1427,
      "sent": 1428,
      "previous": 1429,
      "thanks": 1430,
      "tower": 1431,
      "peri": 1432,
      "unfortunately": 1433,
      "bly": 1434,
      "blast": 1435,
      "tract": 1436,
      "ja": 1437,
      "world": 1438,
      "beneath": 1439,
      "dagger": 1440,
      "mark": 1441,
      "seeing": 1442,
      "fol": 1443,
      "killed": 1444,
      "26": 1445,
      "straight": 1446,
      "23": 1447,
      "spo": 1448,
      "ari": 1449,
      "smo": 1450,
      "asion": 1451,
      "atten": 1452,
      "shadow": 1453,
      "suddenly": 1454,
      "gun": 1455,
      "box": 1456,
      "cloud": 1457,
      "ax": 1458,
      "tive": 1459,
      "wasn": 1460,
      "boy": 1461,
      "falls": 1462,
      "quickly": 1463,
      "weapon": 1464,
      "gas": 1465,
      "int": 1466,
      "rm": 1467,
      "aches": 1468,
      "mi": 1469,
      "ding": 1470,
      "concentr": 1471,
      "ching": 1472,
      "struct": 1473,
      "window": 1474,
      "tast": 1475,
      "approach": 1476,
      "finish": 1477,
      "stick": 1478,
      "green": 1479,
      "apparen": 1480,
      "short": 1481,
      "eas": 1482,
      "master": 1483,
      "pier": 1484,
      "bunch": 1485,
      "10": 1486,
      "dies": 1487,
      "suc": 1488,
      "slam": 1489,
      "order": 1490,
      "dec": 1491,
      "spl": 1492,
      "bottom": 1493,
      "understand": 1494,
      "whisper": 1495,
      "crack": 1496,
      "watching": 1497,
      "drop": 1498,
      "attention": 1499,
      "wish": 1500,
      "wisdom": 1501,
      "sna": 1502,
      "below": 1503,
      "enter": 1504,
      "sky": 1505,
      "lls": 1506,
      "apparently": 1507,
      "double": 1508,
      "bas": 1509,
      "blue": 1510,
      "mouth": 1511,
      "gil": 1512,
      "actual": 1513,
      "prote": 1514,
      "nope": 1515,
      "stree": 1516,
      "gentle": 1517,
      "north": 1518,
      "posed": 1519,
      "swi": 1520,
      "ages": 1521,
      "announ": 1522,
      "familiar": 1523,
      "thro": 1524,
      "rage": 1525,
      "gg": 1526,
      "oc": 1527,
      "explo": 1528,
      "swe": 1529,
      "squ": 1530,
      "visible": 1531,
      "danger": 1532,
      "excit": 1533,
      "building": 1534,
      "base": 1535,
      "rel": 1536,
      "closer": 1537,
      "bolt": 1538,
      "tech": 1539,
      "creatures": 1540,
      "arms": 1541,
      "ants": 1542,
      "himself": 1543,
      "convers": 1544,
      "speed": 1545,
      "glass": 1546,
      "init": 1547,
      "charac": 1548,
      "waiting": 1549,
      "kima": 1550,
      "vas": 1551,
      "sneak": 1552,
      "zy": 1553,
      "later": 1554,
      "speak": 1555,
      "hours": 1556,
      "told": 1557,
      "lady": 1558,
      "lightning": 1559,
      "alle": 1560,
      "beauti": 1561,
      "minute": 1562,
      "cart": 1563,
      "effe": 1564,
      "worth": 1565,
      "stead": 1566,
      "child": 1567,
      "bol": 1568,
      "singing": 1569,
      "starting": 1570,
      "pt": 1571,
      "color": 1572,
      "irt": 1573,
      "ishes": 1574,
      "happening": 1575,
      "elemental": 1576,
      "broken": 1577,
      "shout": 1578,
      "plane": 1579,
      "vec": 1580,
      "dragons": 1581,
      "pit": 1582,
      "cial": 1583,
      "investigation": 1584,
      "hid": 1585,
      "draw": 1586,
      "ul": 1587,
      "fre": 1588,
      "attempt": 1589,
      "search": 1590,
      "blow": 1591,
      "leap": 1592,
      "gue": 1593,
      "luck": 1594,
      "fantast": 1595,
      "vecna": 1596,
      "sis": 1597,
      "working": 1598,
      "const": 1599,
      "woman": 1600,
      "bra": 1601,
      "total": 1602,
      "iron": 1603,
      "ments": 1604,
      "sitting": 1605,
      "caduce": 1606,
      "bare": 1607,
      "mas": 1608,
      "ank": 1609,
      "caduceus": 1610,
      "twi": 1611,
      "beautiful": 1612,
      "fain": 1613,
      "sphere": 1614,
      "cking": 1615,
      "kid": 1616,
      "ats": 1617,
      "happens": 1618,
      "iny": 1619,
      "sol": 1620,
      "ago": 1621,
      "process": 1622,
      "starts": 1623,
      "anybody": 1624,
      "pulled": 1625,
      "fantastic": 1626,
      "neck": 1627,
      "tory": 1628,
      "spon": 1629,
      "cross": 1630,
      "ries": 1631,
      "devil": 1632,
      "ef": 1633,
      "ka": 1634,
      "conversation": 1635,
      "swing": 1636,
      "listen": 1637,
      "heading": 1638,
      "flying": 1639,
      "aking": 1640,
      "somebody": 1641,
      "lord": 1642,
      "story": 1643,
      "today": 1644,
      "wouldn": 1645,
      "rad": 1646,
      "eks": 1647,
      "fer": 1648,
      "relea": 1649,
      "fect": 1650,
      "possible": 1651,
      "wide": 1652,
      "books": 1653,
      "doors": 1654,
      "ker": 1655,
      "wand": 1656,
      "unconscious": 1657,
      "hallway": 1658,
      "hello": 1659,
      "ined": 1660,
      "cts": 1661,
      "shoot": 1662,
      "ards": 1663,
      "sea": 1664,
      "bal": 1665,
      "ashing": 1666,
      "series": 1667,
      "irts": 1668,
      "leaving": 1669,
      "gir": 1670,
      "scream": 1671,
      "barely": 1672,
      "nature": 1673,
      "prep": 1674,
      "cavern": 1675,
      "earth": 1676,
      "ution": 1677,
      "tavern": 1678,
      "tering": 1679,
      "sou": 1680,
      "carry": 1681,
      "carpet": 1682,
      "music": 1683,
      "given": 1684,
      "ending": 1685,
      "50": 1686,
      "meet": 1687,
      "reco": 1688,
      "present": 1689,
      "mater": 1690,
      "haps": 1691,
      "ney": 1692,
      "phy": 1693,
      "geon": 1694,
      "fac": 1695,
      "month": 1696,
      "techn": 1697,
      "ures": 1698,
      "forest": 1699,
      "wants": 1700,
      "thick": 1701,
      "ason": 1702,
      "mine": 1703,
      "fier": 1704,
      "undead": 1705,
      "interior": 1706,
      "shift": 1707,
      "dge": 1708,
      "perhaps": 1709,
      "drag": 1710,
      "cri": 1711,
      "sn": 1712,
      "asks": 1713,
      "gra": 1714,
      "bits": 1715,
      "clar": 1716,
      "general": 1717,
      "ayer": 1718,
      "grap": 1719,
      "mil": 1720,
      "trust": 1721,
      "lier": 1722,
      "norm": 1723,
      "cry": 1724,
      "father": 1725,
      "exact": 1726,
      "interesting": 1727,
      "giving": 1728,
      "holy": 1729,
      "rolls": 1730,
      "bs": 1731,
      "noise": 1732,
      "entran": 1733,
      "pus": 1734,
      "dexter": 1735,
      "acon": 1736,
      "spect": 1737,
      "darkness": 1738,
      "themselves": 1739,
      "spells": 1740,
      "walls": 1741,
      "assu": 1742,
      "hammer": 1743,
      "trees": 1744,
      "discus": 1745,
      "ises": 1746,
      "itual": 1747,
      "smi": 1748,
      "ilt": 1749,
      "initi": 1750,
      "laura": 1751,
      "perci": 1752,
      "percival": 1753,
      "sees": 1754,
      "arri": 1755,
      "change": 1756,
      "emon": 1757,
      "deli": 1758,
      "wrong": 1759,
      "chant": 1760,
      "lands": 1761,
      "loc": 1762,
      "kick": 1763,
      "field": 1764,
      "dexterity": 1765,
      "recent": 1766,
      "somewhere": 1767,
      "excited": 1768,
      "opp": 1769,
      "ided": 1770,
      "zz": 1771,
      "puts": 1772,
      "force": 1773,
      "technically": 1774,
      "vol": 1775,
      "lost": 1776,
      "neath": 1777,
      "underneath": 1778,
      "tall": 1779,
      "based": 1780,
      "arcane": 1781,
      "walks": 1782,
      "beginning": 1783,
      "jour": 1784,
      "oked": 1785,
      "poison": 1786,
      "specif": 1787,
      "nearby": 1788,
      "pes": 1789,
      "survi": 1790,
      "announce": 1791,
      "dar": 1792,
      "heart": 1793,
      "nein": 1794,
      "emer": 1795,
      "avan": 1796,
      "hole": 1797,
      "inst": 1798,
      "gave": 1799,
      "ian": 1800,
      "seeming": 1801,
      "heim": 1802,
      "lock": 1803,
      "d6": 1804,
      "castle": 1805,
      "climb": 1806,
      "emp": 1807,
      "knows": 1808,
      "rope": 1809,
      "rolling": 1810,
      "sym": 1811,
      "wonderful": 1812,
      "modi": 1813,
      "ds": 1814,
      "ability": 1815,
      "thered": 1816,
      "writ": 1817,
      "must": 1818,
      "among": 1819,
      "constit": 1820,
      "burst": 1821,
      "gnome": 1822,
      "vassel": 1823,
      "asp": 1824,
      "mansion": 1825,
      "sister": 1826,
      "vasselheim": 1827,
      "during": 1828,
      "warm": 1829,
      "youn": 1830,
      "surround": 1831,
      "pic": 1832,
      "claw": 1833,
      "trans": 1834,
      "alley": 1835,
      "constitution": 1836,
      "har": 1837,
      "ny": 1838,
      "known": 1839,
      "axe": 1840,
      "eat": 1841,
      "crazy": 1842,
      "d8": 1843,
      "acks": 1844,
      "os": 1845,
      "vie": 1846,
      "notic": 1847,
      "comfor": 1848,
      "ull": 1849,
      "reaches": 1850,
      "breath": 1851,
      "osh": 1852,
      "skin": 1853,
      "ught": 1854,
      "amp": 1855,
      "60": 1856,
      "final": 1857,
      "faint": 1858,
      "wearing": 1859,
      "alive": 1860,
      "proble": 1861,
      "acked": 1862,
      "morrow": 1863,
      "bles": 1864,
      "favor": 1865,
      "pour": 1866,
      "opens": 1867,
      "crew": 1868,
      "thinking": 1869,
      "held": 1870,
      "beast": 1871,
      "wake": 1872,
      "tit": 1873,
      "40": 1874,
      "encoun": 1875,
      "works": 1876,
      "twitch": 1877,
      "bodies": 1878,
      "focus": 1879,
      "ota": 1880,
      "tar": 1881,
      "joy": 1882,
      "ines": 1883,
      "kra": 1884,
      "pulling": 1885,
      "duer": 1886,
      "tomorrow": 1887,
      "ular": 1888,
      "cept": 1889,
      "girl": 1890,
      "expe": 1891,
      "pill": 1892,
      "pose": 1893,
      "mighty": 1894,
      "effect": 1895,
      "duergar": 1896,
      "ics": 1897,
      "stre": 1898,
      "crow": 1899,
      "clear": 1900,
      "gest": 1901,
      "stal": 1902,
      "exactly": 1903,
      "instead": 1904,
      "doty": 1905,
      "sigh": 1906,
      "slams": 1907,
      "jaw": 1908,
      "feeling": 1909,
      "sour": 1910,
      "central": 1911,
      "bing": 1912,
      "smoke": 1913,
      "recogn": 1914,
      "sage": 1915,
      "hot": 1916,
      "members": 1917,
      "began": 1918,
      "hurt": 1919,
      "piercing": 1920,
      "longer": 1921,
      "touch": 1922,
      "roof": 1923,
      "fell": 1924,
      "dred": 1925,
      "job": 1926,
      "character": 1927,
      "storm": 1928,
      "grapple": 1929,
      "journey": 1930,
      "ortun": 1931,
      "entrance": 1932,
      "opportun": 1933,
      "gard": 1934,
      "pushing": 1935,
      "flame": 1936,
      "year": 1937,
      "hundred": 1938,
      "travis": 1939,
      "following": 1940,
      "pal": 1941,
      "parti": 1942,
      "throws": 1943,
      "gentleman": 1944,
      "ceed": 1945,
      "ceiling": 1946,
      "type": 1947,
      "dun": 1948,
      "folks": 1949,
      "worry": 1950,
      "dak": 1951,
      "smell": 1952,
      "kit": 1953,
      "individuals": 1954,
      "food": 1955,
      "wy": 1956,
      "places": 1957,
      "weeks": 1958,
      "vail": 1959,
      "ley": 1960,
      "attered": 1961,
      "avail": 1962,
      "playing": 1963,
      "resist": 1964,
      "grun": 1965,
      "cult": 1966,
      "modifier": 1967,
      "leather": 1968,
      "shape": 1969,
      "prison": 1970,
      "spend": 1971,
      "clust": 1972,
      "earlier": 1973,
      "tics": 1974,
      "late": 1975,
      "heads": 1976,
      "ost": 1977,
      "asking": 1978,
      "ered": 1979,
      "gs": 1980,
      "initiative": 1981,
      "avanti": 1982,
      "gilmore": 1983,
      "ens": 1984,
      "leads": 1985,
      "tu": 1986,
      "simil": 1987,
      "misses": 1988,
      "thor": 1989,
      "similar": 1990,
      "ened": 1991,
      "words": 1992,
      "gate": 1993,
      "avantika": 1994,
      "advent": 1995,
      "skull": 1996,
      "clarota": 1997,
      "dangerous": 1998,
      "rol": 1999,
      "ists": 2000,
      "wounds": 2001,
      "buy": 2002,
      "cape": 2003,
      "weapons": 2004,
      "ished": 2005,
      "thr": 2006,
      "discovered": 2007,
      "fit": 2008,
      "possibly": 2009,
      "perfect": 2010,
      "ped": 2011,
      "raven": 2012,
      "runs": 2013,
      "available": 2014,
      "uses": 2015,
      "dc": 2016,
      "stands": 2017,
      "ske": 2018,
      "potion": 2019,
      "opportunity": 2020,
      "hone": 2021,
      "seemed": 2022,
      "crown": 2023,
      "load": 2024,
      "wild": 2025,
      "built": 2026,
      "ried": 2027,
      "inten": 2028,
      "miss": 2029,
      "shake": 2030,
      "aks": 2031,
      "essenti": 2032,
      "honest": 2033,
      "dry": 2034,
      "inity": 2035,
      "entity": 2036,
      "concentration": 2037,
      "captain": 2038,
      "wings": 2039,
      "occ": 2040,
      "hood": 2041,
      "locked": 2042,
      "intell": 2043,
      "extra": 2044,
      "conf": 2045,
      "cloak": 2046,
      "essentially": 2047,
      "dust": 2048,
      "reason": 2049,
      "chain": 2050,
      "fact": 2051,
      "size": 2052,
      "imag": 2053,
      "taryon": 2054,
      "fro": 2055,
      "ised": 2056,
      "cell": 2057,
      "bright": 2058,
      "ject": 2059,
      "addition": 2060,
      "28": 2061,
      "knew": 2062,
      "amongst": 2063,
      "mus": 2064,
      "briarwoods": 2065,
      "tells": 2066,
      "others": 2067,
      "surpr": 2068,
      "view": 2069,
      "continues": 2070,
      "cannot": 2071,
      "completely": 2072,
      "zed": 2073,
      "fingers": 2074,
      "powerful": 2075,
      "burning": 2076,
      "previously": 2077,
      "mit": 2078,
      "doorway": 2079,
      "loud": 2080,
      "tiny": 2081,
      "lower": 2082,
      "ledge": 2083,
      "27": 2084,
      "slightly": 2085,
      "clean": 2086,
      "structure": 2087,
      "staying": 2088,
      "lling": 2089,
      "surface": 2090,
      "ining": 2091,
      "ily": 2092,
      "grabs": 2093,
      "throat": 2094,
      "lic": 2095,
      "silver": 2096,
      "incl": 2097,
      "ky": 2098,
      "tern": 2099,
      "south": 2100,
      "eper": 2101,
      "tee": 2102,
      "portion": 2103,
      "whispers": 2104,
      "count": 2105,
      "liam": 2106,
      "kept": 2107,
      "hunter": 2108,
      "feels": 2109,
      "position": 2110,
      "dru": 2111,
      "band": 2112,
      "gif": 2113,
      "chance": 2114,
      "whispering": 2115,
      "presence": 2116,
      "tally": 2117,
      "problem": 2118,
      "athle": 2119,
      "tru": 2120,
      "tered": 2121,
      "mostly": 2122,
      "enchant": 2123,
      "gray": 2124,
      "oid": 2125,
      "acid": 2126,
      "pop": 2127,
      "bling": 2128,
      "reci": 2129,
      "circ": 2130,
      "enjoy": 2131,
      "rushing": 2132,
      "ended": 2133,
      "cket": 2134,
      "aign": 2135,
      "unless": 2136,
      "control": 2137,
      "kne": 2138,
      "quietly": 2139,
      "athletics": 2140,
      "vicinity": 2141,
      "gasps": 2142,
      "born": 2143,
      "skelet": 2144,
      "campaign": 2145,
      "ror": 2146,
      "rather": 2147,
      "tries": 2148,
      "horse": 2149,
      "dwarf": 2150,
      "import": 2151,
      "matter": 2152,
      "anim": 2153,
      "totally": 2154,
      "hy": 2155,
      "male": 2156,
      "needs": 2157,
      "single": 2158,
      "prom": 2159,
      "rious": 2160,
      "trap": 2161,
      "empire": 2162,
      "song": 2163,
      "ute": 2164,
      "asked": 2165,
      "traps": 2166,
      "chat": 2167,
      "pool": 2168,
      "ades": 2169,
      "fy": 2170,
      "py": 2171,
      "insight": 2172,
      "easy": 2173,
      "wea": 2174,
      "sighs": 2175,
      "intellig": 2176,
      "finishes": 2177,
      "quar": 2178,
      "destroyed": 2179,
      "cass": 2180,
      "chains": 2181,
      "flash": 2182,
      "shield": 2183,
      "ale": 2184,
      "plac": 2185,
      "twice": 2186,
      "brain": 2187,
      "sco": 2188,
      "robe": 2189,
      "lia": 2190,
      "teeth": 2191,
      "ray": 2192,
      "shoo": 2193,
      "section": 2194,
      "supposed": 2195,
      "invisible": 2196,
      "whoosh": 2197,
      "special": 2198,
      "ities": 2199,
      "andra": 2200,
      "prof": 2201,
      "empty": 2202,
      "bird": 2203,
      "necess": 2204,
      "casting": 2205,
      "oce": 2206,
      "inspir": 2207,
      "beat": 2208,
      "leader": 2209,
      "commun": 2210,
      "seemingly": 2211,
      "100": 2212,
      "trick": 2213,
      "island": 2214,
      "gular": 2215,
      "source": 2216,
      "flesh": 2217,
      "shall": 2218,
      "coast": 2219,
      "experi": 2220,
      "evil": 2221,
      "pan": 2222,
      "laughing": 2223,
      "orc": 2224,
      "appreci": 2225,
      "team": 2226,
      "skirts": 2227,
      "isha": 2228,
      "ritual": 2229,
      "grey": 2230,
      "horn": 2231,
      "conne": 2232,
      "checks": 2233,
      "sical": 2234,
      "colle": 2235,
      "occasion": 2236,
      "additional": 2237,
      "wers": 2238,
      "reve": 2239,
      "anymore": 2240,
      "aff": 2241,
      "shop": 2242,
      "oppos": 2243,
      "las": 2244,
      "closed": 2245,
      "ocean": 2246,
      "proper": 2247,
      "ith": 2248,
      "outskirts": 2249,
      "allura": 2250,
      "flames": 2251,
      "symbol": 2252,
      "gers": 2253,
      "apo": 2254,
      "bble": 2255,
      "bringing": 2256,
      "divine": 2257,
      "opposite": 2258,
      "partially": 2259,
      "whoa": 2260,
      "blud": 2261,
      "torso": 2262,
      "cassandra": 2263,
      "rooms": 2264,
      "jes": 2265,
      "lay": 2266,
      "gotten": 2267,
      "glad": 2268,
      "talies": 2269,
      "taliesin": 2270,
      "prone": 2271,
      "strikes": 2272,
      "casts": 2273,
      "bludgeon": 2274,
      "def": 2275,
      "rae": 2276,
      "hitting": 2277,
      "ade": 2278,
      "street": 2279,
      "chuck": 2280,
      "elements": 2281,
      "saren": 2282,
      "marisha": 2283,
      "secre": 2284,
      "moves": 2285,
      "putting": 2286,
      "staff": 2287,
      "sarenrae": 2288,
      "kets": 2289,
      "caught": 2290,
      "bone": 2291,
      "lies": 2292,
      "moved": 2293,
      "reaction": 2294,
      "agree": 2295,
      "young": 2296,
      "orig": 2297,
      "store": 2298,
      "owed": 2299,
      "d10": 2300,
      "entirely": 2301,
      "looked": 2302,
      "sand": 2303,
      "lift": 2304,
      "horri": 2305,
      "distant": 2306,
      "important": 2307,
      "glowing": 2308,
      "inum": 2309,
      "horses": 2310,
      "finding": 2311,
      "fighting": 2312,
      "cure": 2313,
      "iled": 2314,
      "comfortable": 2315,
      "release": 2316,
      "learn": 2317,
      "circle": 2318,
      "ded": 2319,
      "void": 2320,
      "exit": 2321,
      "questions": 2322,
      "platinum": 2323,
      "pul": 2324,
      "direct": 2325,
      "crossbow": 2326,
      "gathered": 2327,
      "shut": 2328,
      "humanoid": 2329,
      "scri": 2330,
      "turned": 2331,
      "acts": 2332,
      "fix": 2333,
      "collap": 2334,
      "deck": 2335,
      "contain": 2336,
      "brother": 2337,
      "hopefully": 2338,
      "wil": 2339,
      "ssing": 2340,
      "creep": 2341,
      "sometimes": 2342,
      "tail": 2343,
      "bludgeoning": 2344,
      "contract": 2345,
      "remind": 2346,
      "feat": 2347,
      "shar": 2348,
      "queen": 2349,
      "issu": 2350,
      "tried": 2351,
      "fail": 2352,
      "started": 2353,
      "confused": 2354,
      "aning": 2355,
      "baby": 2356,
      "bir": 2357,
      "deed": 2358,
      "blind": 2359,
      "note": 2360,
      "coin": 2361,
      "cele": 2362,
      "tele": 2363,
      "opening": 2364,
      "punch": 2365,
      "beard": 2366,
      "learned": 2367,
      "paper": 2368,
      "platform": 2369,
      "east": 2370,
      "normal": 2371,
      "lid": 2372,
      "larger": 2373,
      "mist": 2374,
      "serious": 2375,
      "bite": 2376,
      "jesus": 2377,
      "pel": 2378,
      "knowledge": 2379,
      "upper": 2380,
      "intelligence": 2381,
      "hmm": 2382,
      "succeed": 2383,
      "disgu": 2384,
      "mention": 2385,
      "recently": 2386,
      "except": 2387,
      "nobody": 2388,
      "ffi": 2389,
      "ban": 2390,
      "stup": 2391,
      "counting": 2392,
      "huh": 2393,
      "rum": 2394,
      "vide": 2395,
      "angry": 2396,
      "bility": 2397,
      "telling": 2398,
      "reading": 2399,
      "boots": 2400,
      "brief": 2401,
      "ia": 2402,
      "wise": 2403,
      "traveling": 2404,
      "test": 2405,
      "vous": 2406,
      "oft": 2407,
      "ugh": 2408,
      "manages": 2409,
      "physical": 2410,
      "zen": 2411,
      "ized": 2412,
      "apolo": 2413,
      "aid": 2414,
      "sal": 2415,
      "decided": 2416,
      "mee": 2417,
      "orb": 2418,
      "history": 2419,
      "hat": 2420,
      "fresh": 2421,
      "bull": 2422,
      "lf": 2423,
      "gen": 2424,
      "yourselves": 2425,
      "recognize": 2426,
      "d4": 2427,
      "swim": 2428,
      "glo": 2429,
      "purple": 2430,
      "thunder": 2431,
      "shirt": 2432,
      "returned": 2433,
      "ors": 2434,
      "talks": 2435,
      "arrows": 2436,
      "sca": 2437,
      "vine": 2438,
      "helping": 2439,
      "dep": 2440,
      "dwarven": 2441,
      "29": 2442,
      "lee": 2443,
      "ashes": 2444,
      "felt": 2445,
      "herself": 2446,
      "missing": 2447,
      "son": 2448,
      "sum": 2449,
      "figures": 2450,
      "snake": 2451,
      "meat": 2452,
      "legs": 2453,
      "placed": 2454,
      "none": 2455,
      "expect": 2456,
      "dream": 2457,
      "stab": 2458,
      "goli": 2459,
      "clut": 2460,
      "basically": 2461,
      "nervous": 2462,
      "urs": 2463,
      "amoun": 2464,
      "uh": 2465,
      "arc": 2466,
      "trace": 2467,
      "hidden": 2468,
      "iant": 2469,
      "died": 2470,
      "cient": 2471,
      "higher": 2472,
      "gobl": 2473,
      "stat": 2474,
      "assume": 2475,
      "gle": 2476,
      "yours": 2477,
      "leaves": 2478,
      "goliath": 2479,
      "sets": 2480,
      "keg": 2481,
      "throughout": 2482,
      "ions": 2483,
      "corp": 2484,
      "rup": 2485,
      "become": 2486,
      "hero": 2487,
      "sat": 2488,
      "inspiration": 2489,
      "glancing": 2490,
      "map": 2491,
      "rat": 2492,
      "dracon": 2493,
      "cler": 2494,
      "adventure": 2495,
      "broom": 2496,
      "alone": 2497,
      "sharp": 2498,
      "snow": 2499,
      "certainly": 2500,
      "material": 2501,
      "shoulders": 2502,
      "rus": 2503,
      "rocks": 2504,
      "dart": 2505,
      "gain": 2506,
      "early": 2507,
      "regular": 2508,
      "stupid": 2509,
      "dore": 2510,
      "ents": 2511,
      "respon": 2512,
      "west": 2513,
      "extre": 2514,
      "grasp": 2515,
      "fra": 2516,
      "impres": 2517,
      "usion": 2518,
      "ense": 2519,
      "mul": 2520,
      "cially": 2521,
      "shouting": 2522,
      "crowns": 2523,
      "ashley": 2524,
      "reck": 2525,
      "anywhere": 2526,
      "liter": 2527,
      "named": 2528,
      "carved": 2529,
      "extreme": 2530,
      "buildings": 2531,
      "streets": 2532,
      "news": 2533,
      "balls": 2534,
      "tight": 2535,
      "pair": 2536,
      "notes": 2537,
      "flu": 2538,
      "memor": 2539,
      "potions": 2540,
      "couldn": 2541,
      "rot": 2542,
      "rich": 2543,
      "forth": 2544,
      "sits": 2545,
      "loot": 2546,
      "sink": 2547,
      "forms": 2548,
      "curious": 2549,
      "struction": 2550,
      "melee": 2551,
      "fear": 2552,
      "maintain": 2553,
      "druid": 2554,
      "crowd": 2555,
      "noises": 2556,
      "solid": 2557,
      "create": 2558,
      "gri": 2559,
      "arily": 2560,
      "pack": 2561,
      "inn": 2562,
      "explosion": 2563,
      "persu": 2564,
      "soul": 2565,
      "sir": 2566,
      "gur": 2567,
      "hon": 2568,
      "hanging": 2569,
      "ied": 2570,
      "zard": 2571,
      "lose": 2572,
      "pushed": 2573,
      "lives": 2574,
      "protect": 2575,
      "dorei": 2576,
      "crownsguard": 2577,
      "stones": 2578,
      "ached": 2579,
      "incre": 2580,
      "uk": 2581,
      "simple": 2582,
      "ugal": 2583,
      "vorugal": 2584,
      "origin": 2585,
      "flan": 2586,
      "anna": 2587,
      "keeps": 2588,
      "jam": 2589,
      "motion": 2590,
      "giveaway": 2591,
      "heavi": 2592,
      "acles": 2593,
      "flow": 2594,
      "ancient": 2595,
      "card": 2596,
      "mission": 2597,
      "dash": 2598,
      "knock": 2599,
      "apologi": 2600,
      "separ": 2601,
      "holds": 2602,
      "partic": 2603,
      "serv": 2604,
      "fey": 2605,
      "write": 2606,
      "guest": 2607,
      "ills": 2608,
      "scry": 2609,
      "000": 2610,
      "tro": 2611,
      "allow": 2612,
      "prepar": 2613,
      "dig": 2614,
      "announcements": 2615,
      "crest": 2616,
      "appreciate": 2617,
      "gods": 2618,
      "particular": 2619,
      "dick": 2620,
      "post": 2621,
      "living": 2622,
      "smaller": 2623,
      "spot": 2624,
      "circum": 2625,
      "fts": 2626,
      "months": 2627,
      "square": 2628,
      "bea": 2629,
      "langu": 2630,
      "mur": 2631,
      "gli": 2632,
      "combat": 2633,
      "drun": 2634,
      "gust": 2635,
      "ressed": 2636,
      "realize": 2637,
      "multi": 2638,
      "pis": 2639,
      "dear": 2640,
      "needed": 2641,
      "passes": 2642,
      "vice": 2643,
      "interested": 2644,
      "ient": 2645,
      "children": 2646,
      "amount": 2647,
      "liqu": 2648,
      "visual": 2649,
      "log": 2650,
      "worked": 2651,
      "hug": 2652,
      "asure": 2653,
      "chase": 2654,
      "offi": 2655,
      "illusion": 2656,
      "stance": 2657,
      "track": 2658,
      "fiend": 2659,
      "imagine": 2660,
      "uding": 2661,
      "sider": 2662,
      "prepare": 2663,
      "wra": 2664,
      "ult": 2665,
      "psy": 2666,
      "ahlia": 2667,
      "stream": 2668,
      "trip": 2669,
      "aware": 2670,
      "burned": 2671,
      "swamp": 2672,
      "ilities": 2673,
      "oth": 2674,
      "westru": 2675,
      "westruun": 2676,
      "loose": 2677,
      "success": 2678,
      "mel": 2679,
      "finally": 2680,
      "continu": 2681,
      "avoid": 2682,
      "tran": 2683,
      "older": 2684,
      "ery": 2685,
      "kev": 2686,
      "pper": 2687,
      "inc": 2688,
      "fish": 2689,
      "thurs": 2690,
      "asc": 2691,
      "d20": 2692,
      "knowing": 2693,
      "eag": 2694,
      "ory": 2695,
      "filled": 2696,
      "shots": 2697,
      "glances": 2698,
      "common": 2699,
      "funny": 2700,
      "horrible": 2701,
      "enga": 2702,
      "returning": 2703,
      "cil": 2704,
      "remain": 2705,
      "allen": 2706,
      "persuasion": 2707,
      "catches": 2708,
      "rence": 2709,
      "bud": 2710,
      "echo": 2711,
      "lah": 2712,
      "tails": 2713,
      "thern": 2714,
      "mored": 2715,
      "spin": 2716,
      "ination": 2717,
      "escape": 2718,
      "deci": 2719,
      "clu": 2720,
      "prime": 2721,
      "passed": 2722,
      "throwing": 2723,
      "prepared": 2724,
      "legend": 2725,
      "kids": 2726,
      "wooden": 2727,
      "experience": 2728,
      "zo": 2729,
      "wing": 2730,
      "smile": 2731,
      "law": 2732,
      "spent": 2733,
      "zad": 2734,
      "dog": 2735,
      "ices": 2736,
      "crate": 2737,
      "zadash": 2738,
      "ammer": 2739,
      "indeed": 2740,
      "wear": 2741,
      "fucker": 2742,
      "meeting": 2743,
      "intro": 2744,
      "forget": 2745,
      "class": 2746,
      "sug": 2747,
      "stepping": 2748,
      "threat": 2749,
      "grunts": 2750,
      "fut": 2751,
      "angle": 2752,
      "ier": 2753,
      "slashing": 2754,
      "lu": 2755,
      "somewhat": 2756,
      "speaking": 2757,
      "delilah": 2758,
      "armored": 2759,
      "recall": 2760,
      "upward": 2761,
      "parts": 2762,
      "ustr": 2763,
      "sty": 2764,
      "location": 2765,
      "sque": 2766,
      "encountered": 2767,
      "disguise": 2768,
      "diffi": 2769,
      "umble": 2770,
      "trade": 2771,
      "careful": 2772,
      "shad": 2773,
      "lava": 2774,
      "killing": 2775,
      "gathering": 2776,
      "thursday": 2777,
      "decide": 2778,
      "beam": 2779,
      "choose": 2780,
      "ears": 2781,
      "non": 2782,
      "distri": 2783,
      "ific": 2784,
      "descri": 2785,
      "literally": 2786,
      "omb": 2787,
      "falling": 2788,
      "ip": 2789,
      "forgot": 2790,
      "attacking": 2791,
      "lights": 2792,
      "requi": 2793,
      "hasn": 2794,
      "elven": 2795,
      "situ": 2796,
      "absol": 2797,
      "audi": 2798,
      "heat": 2799,
      "usually": 2800,
      "noticed": 2801,
      "yen": 2802,
      "ange": 2803,
      "dodge": 2804,
      "gres": 2805,
      "ials": 2806,
      "design": 2807,
      "sundry": 2808,
      "breathing": 2809,
      "sings": 2810,
      "ture": 2811,
      "wine": 2812,
      "robat": 2813,
      "acrobat": 2814,
      "moon": 2815,
      "inti": 2816,
      "suggest": 2817,
      "list": 2818,
      "aside": 2819,
      "varn": 2820,
      "sponsor": 2821,
      "aste": 2822,
      "lative": 2823,
      "folk": 2824,
      "elf": 2825,
      "sad": 2826,
      "finger": 2827,
      "weren": 2828,
      "feast": 2829,
      "dian": 2830,
      "cluster": 2831,
      "aim": 2832,
      "pm": 2833,
      "kevdak": 2834,
      "issue": 2835,
      "yay": 2836,
      "zomb": 2837,
      "geek": 2838,
      "distract": 2839,
      "relative": 2840,
      "extremely": 2841,
      "due": 2842,
      "edges": 2843,
      "writing": 2844,
      "guild": 2845,
      "ron": 2846,
      "exter": 2847,
      "tongue": 2848,
      "object": 2849,
      "uri": 2850,
      "letter": 2851,
      "rema": 2852,
      "fallen": 2853,
      "dirt": 2854,
      "nose": 2855,
      "cage": 2856,
      "sweet": 2857,
      "future": 2858,
      "thin": 2859,
      "lots": 2860,
      "allies": 2861,
      "acrobatics": 2862,
      "ald": 2863,
      "sold": 2864,
      "espe": 2865,
      "board": 2866,
      "herd": 2867,
      "breaking": 2868,
      "especially": 2869,
      "worst": 2870,
      "pile": 2871,
      "bitch": 2872,
      "len": 2873,
      "noon": 2874,
      "umb": 2875,
      "challen": 2876,
      "titan": 2877,
      "surprise": 2878,
      "syste": 2879,
      "intimid": 2880,
      "groans": 2881,
      "tress": 2882,
      "directly": 2883,
      "ghammer": 2884,
      "iding": 2885,
      "downstairs": 2886,
      "offer": 2887,
      "comic": 2888,
      "answer": 2889,
      "flick": 2890,
      "kraghammer": 2891,
      "stun": 2892,
      "eating": 2893,
      "obvious": 2894,
      "stops": 2895,
      "wanna": 2896,
      "une": 2897,
      "finds": 2898,
      "hate": 2899,
      "swo": 2900,
      "specifically": 2901,
      "daggers": 2902,
      "missed": 2903,
      "materials": 2904,
      "pen": 2905,
      "cand": 2906,
      "dan": 2907,
      "dran": 2908,
      "items": 2909,
      "charge": 2910,
      "shifting": 2911,
      "826": 2912,
      "necro": 2913,
      "essence": 2914,
      "swings": 2915,
      "mut": 2916,
      "yellow": 2917,
      "cup": 2918,
      "consider": 2919,
      "leans": 2920,
      "feed": 2921,
      "scattered": 2922,
      "seconds": 2923,
      "slayer": 2924,
      "ero": 2925,
      "ghost": 2926,
      "carrying": 2927,
      "claws": 2928,
      "craw": 2929,
      "birth": 2930,
      "psych": 2931,
      "message": 2932,
      "windows": 2933,
      "heavily": 2934,
      "vill": 2935,
      "rug": 2936,
      "thous": 2937,
      "breakfast": 2938,
      "choice": 2939,
      "thousand": 2940,
      "net": 2941,
      "pushes": 2942,
      "request": 2943,
      "radiant": 2944,
      "breaks": 2945,
      "pocket": 2946,
      "deception": 2947,
      "tunne": 2948,
      "secret": 2949,
      "split": 2950,
      "invol": 2951,
      "upstairs": 2952,
      "reckless": 2953,
      "cough": 2954,
      "libr": 2955,
      "mount": 2956,
      "desc": 2957,
      "brown": 2958,
      "drunk": 2959,
      "liquid": 2960,
      "greater": 2961,
      "desk": 2962,
      "respect": 2963,
      "bor": 2964,
      "ggy": 2965,
      "soft": 2966,
      "ensive": 2967,
      "target": 2968,
      "attering": 2969,
      "seal": 2970,
      "fist": 2971,
      "details": 2972,
      "plate": 2973,
      "actions": 2974,
      "thed": 2975,
      "agre": 2976,
      "exterior": 2977,
      "ctor": 2978,
      "female": 2979,
      "ourselves": 2980,
      "purpose": 2981,
      "kiri": 2982,
      "cave": 2983,
      "bleed": 2984,
      "smart": 2985,
      "wyrm": 2986,
      "psychic": 2987,
      "tap": 2988,
      "research": 2989,
      "hiding": 2990,
      "abilities": 2991,
      "contact": 2992,
      "sylas": 2993,
      "craft": 2994,
      "bell": 2995,
      "necrotic": 2996,
      "bye": 2997,
      "fancy": 2998,
      "scar": 2999,
      "tend": 3000,
      "kraken": 3001,
      "docks": 3002,
      "yelling": 3003,
      "brand": 3004,
      "counter": 3005,
      "summon": 3006,
      "duck": 3007,
      "fairly": 3008,
      "beaure": 3009,
      "apart": 3010,
      "underground": 3011,
      "fucked": 3012,
      "bound": 3013,
      "raid": 3014,
      "reg": 3015,
      "tem": 3016,
      "fold": 3017,
      "beauregard": 3018,
      "wyrmwood": 3019,
      "often": 3020,
      "pha": 3021,
      "cul": 3022,
      "screaming": 3023,
      "frustr": 3024,
      "charis": 3025,
      "whoever": 3026,
      "tat": 3027,
      "oking": 3028,
      "dive": 3029,
      "guar": 3030,
      "shouldn": 3031,
      "support": 3032,
      "grappled": 3033,
      "worse": 3034,
      "vanish": 3035,
      "function": 3036,
      "personal": 3037,
      "pouring": 3038,
      "dm": 3039,
      "inspect": 3040,
      "whether": 3041,
      "huge": 3042,
      "dunge": 3043,
      "hex": 3044,
      "asses": 3045,
      "deeper": 3046,
      "drinks": 3047,
      "saved": 3048,
      "ouch": 3049,
      "council": 3050,
      "height": 3051,
      "district": 3052,
      "mir": 3053,
      "mass": 3054,
      "staring": 3055,
      "trouble": 3056,
      "floating": 3057,
      "venge": 3058,
      "pher": 3059,
      "slamming": 3060,
      "intense": 3061,
      "celebr": 3062,
      "tie": 3063,
      "turning": 3064,
      "knocked": 3065,
      "ez": 3066,
      "hearing": 3067,
      "uni": 3068,
      "radius": 3069,
      "cas": 3070,
      "chair": 3071,
      "pun": 3072,
      "wandering": 3073,
      "ashari": 3074,
      "legendary": 3075,
      "specific": 3076,
      "resistance": 3077,
      "clouds": 3078,
      "nearly": 3079,
      "dragonborn": 3080,
      "mask": 3081,
      "boom": 3082,
      "scho": 3083,
      "ju": 3084,
      "scared": 3085,
      "rer": 3086,
      "wave": 3087,
      "cru": 3088,
      "cards": 3089,
      "diam": 3090,
      "suff": 3091,
      "diamond": 3092,
      "moments": 3093,
      "tunnels": 3094,
      "assho": 3095,
      "affe": 3096,
      "closes": 3097,
      "including": 3098,
      "vanishes": 3099,
      "bast": 3100,
      "hoping": 3101,
      "system": 3102,
      "chin": 3103,
      "umat": 3104,
      "absolute": 3105,
      "tear": 3106,
      "dressed": 3107,
      "kn": 3108,
      "neckl": 3109,
      "gan": 3110,
      "nest": 3111,
      "toy": 3112,
      "pir": 3113,
      "occasionally": 3114,
      "style": 3115,
      "sti": 3116,
      "passing": 3117,
      "unable": 3118,
      "fil": 3119,
      "rise": 3120,
      "zig": 3121,
      "acle": 3122,
      "uriel": 3123,
      "drinking": 3124,
      "dying": 3125,
      "vit": 3126,
      "ties": 3127,
      "truth": 3128,
      "grand": 3129,
      "seek": 3130,
      "richter": 3131,
      "mountains": 3132,
      "poor": 3133,
      "conside": 3134,
      "trave": 3135,
      "shadows": 3136,
      "massive": 3137,
      "considered": 3138,
      "leading": 3139,
      "cliff": 3140,
      "dawn": 3141,
      "gree": 3142,
      "rolo": 3143,
      "riple": 3144,
      "subscri": 3145,
      "ripley": 3146,
      "faces": 3147,
      "spi": 3148,
      "local": 3149,
      "estab": 3150,
      "kward": 3151,
      "lying": 3152,
      "dungeons": 3153,
      "underwater": 3154,
      "mble": 3155,
      "terrain": 3156,
      "jud": 3157,
      "weak": 3158,
      "relatively": 3159,
      "guide": 3160,
      "torch": 3161,
      "buddy": 3162,
      "bars": 3163,
      "dissi": 3164,
      "difficult": 3165,
      "watched": 3166,
      "meant": 3167,
      "accent": 3168,
      "surrounding": 3169,
      "hunt": 3170,
      "library": 3171,
      "sever": 3172,
      "favorite": 3173,
      "share": 3174,
      "responsi": 3175,
      "kis": 3176,
      "language": 3177,
      "handle": 3178,
      "32": 3179,
      "fought": 3180,
      "nd": 3181,
      "lain": 3182,
      "incredi": 3183,
      "ien": 3184,
      "helped": 3185,
      "ships": 3186,
      "matic": 3187,
      "fireball": 3188,
      "goblin": 3189,
      "sac": 3190,
      "staircase": 3191,
      "sick": 3192,
      "stor": 3193,
      "tt": 3194,
      "core": 3195,
      "spective": 3196,
      "rew": 3197,
      "areas": 3198,
      "discuss": 3199,
      "resp": 3200,
      "rings": 3201,
      "fellow": 3202,
      "arti": 3203,
      "acti": 3204,
      "spread": 3205,
      "awkward": 3206,
      "scrap": 3207,
      "bigger": 3208,
      "marks": 3209,
      "thordak": 3210,
      "rid": 3211,
      "lish": 3212,
      "raging": 3213,
      "grin": 3214,
      "halved": 3215,
      "rand": 3216,
      "consciousness": 3217,
      "bath": 3218,
      "names": 3219,
      "fal": 3220,
      "conv": 3221,
      "portal": 3222,
      "verse": 3223,
      "pee": 3224,
      "minus": 3225,
      "normally": 3226,
      "cab": 3227,
      "zero": 3228,
      "kes": 3229,
      "attacked": 3230,
      "halfling": 3231,
      "causing": 3232,
      "congr": 3233,
      "curse": 3234,
      "unk": 3235,
      "afraid": 3236,
      "ane": 3237,
      "atter": 3238,
      "ador": 3239,
      "supp": 3240,
      "demon": 3241,
      "cost": 3242,
      "profic": 3243,
      "checking": 3244,
      "sleeping": 3245,
      "bottle": 3246,
      "lucky": 3247,
      "intent": 3248,
      "ament": 3249,
      "paying": 3250,
      "enchantment": 3251,
      "ckets": 3252,
      "treat": 3253,
      "ater": 3254,
      "winner": 3255,
      "passage": 3256,
      "school": 3257,
      "mad": 3258,
      "motherfucker": 3259,
      "river": 3260,
      "thrown": 3261,
      "pow": 3262,
      "tors": 3263,
      "situation": 3264,
      "charisma": 3265,
      "tues": 3266,
      "mess": 3267,
      "grave": 3268,
      "shirts": 3269,
      "fires": 3270,
      "period": 3271,
      "whack": 3272,
      "kinda": 3273,
      "proud": 3274,
      "cleric": 3275,
      "dimen": 3276,
      "dimension": 3277,
      "paid": 3278,
      "fied": 3279,
      "xim": 3280,
      "chaos": 3281,
      "uff": 3282,
      "robes": 3283,
      "weight": 3284,
      "tram": 3285,
      "compan": 3286,
      "ben": 3287,
      "polit": 3288,
      "thy": 3289,
      "thes": 3290,
      "tea": 3291,
      "gnoll": 3292,
      "signed": 3293,
      "devils": 3294,
      "temp": 3295,
      "picking": 3296,
      "multiple": 3297,
      "hundreds": 3298,
      "san": 3299,
      "exha": 3300,
      "oned": 3301,
      "usk": 3302,
      "pin": 3303,
      "pent": 3304,
      "session": 3305,
      "thread": 3306,
      "channel": 3307,
      "gut": 3308,
      "nal": 3309,
      "pleasure": 3310,
      "games": 3311,
      "touched": 3312,
      "beach": 3313,
      "training": 3314,
      "rington": 3315,
      "dete": 3316,
      "immediate": 3317,
      "fting": 3318,
      "vibr": 3319,
      "ziggur": 3320,
      "spit": 3321,
      "ioun": 3322,
      "av": 3323,
      "stuck": 3324,
      "vam": 3325,
      "forever": 3326,
      "bridge": 3327,
      "gift": 3328,
      "spark": 3329,
      "sail": 3330,
      "growing": 3331,
      "zombie": 3332,
      "plans": 3333,
      "realm": 3334,
      "necessarily": 3335,
      "nod": 3336,
      "lovely": 3337,
      "darrington": 3338,
      "stock": 3339,
      "teleport": 3340,
      "fru": 3341,
      "walked": 3342,
      "shooter": 3343,
      "belt": 3344,
      "becomes": 3345,
      "aband": 3346,
      "bead": 3347,
      "entry": 3348,
      "feywild": 3349,
      "pac": 3350,
      "state": 3351,
      "spid": 3352,
      "reli": 3353,
      "visit": 3354,
      "several": 3355,
      "bould": 3356,
      "spor": 3357,
      "31": 3358,
      "exc": 3359,
      "ress": 3360,
      "usted": 3361,
      "draconia": 3362,
      "emerge": 3363,
      "introdu": 3364,
      "woods": 3365,
      "retri": 3366,
      "chen": 3367,
      "ners": 3368,
      "ares": 3369,
      "host": 3370,
      "bend": 3371,
      "although": 3372,
      "antly": 3373,
      "groaning": 3374,
      "discussion": 3375,
      "skeletons": 3376,
      "obviously": 3377,
      "remains": 3378,
      "acy": 3379,
      "lived": 3380,
      "button": 3381,
      "talked": 3382,
      "shady": 3383,
      "prevent": 3384,
      "rained": 3385,
      "dried": 3386,
      "exis": 3387,
      "blows": 3388,
      "screams": 3389,
      "ziggurat": 3390,
      "izing": 3391,
      "aming": 3392,
      "dull": 3393,
      "sharpshooter": 3394,
      "dent": 3395,
      "lou": 3396,
      "charity": 3397,
      "chang": 3398,
      "wards": 3399,
      "clan": 3400,
      "elder": 3401,
      "sending": 3402,
      "igh": 3403,
      "blink": 3404,
      "club": 3405,
      "corpse": 3406,
      "inder": 3407,
      "played": 3408,
      "community": 3409,
      "forge": 3410,
      "via": 3411,
      "barrel": 3412,
      "click": 3413,
      "palace": 3414,
      "promise": 3415,
      "memory": 3416,
      "ony": 3417,
      "scales": 3418,
      "inner": 3419,
      "tables": 3420,
      "grass": 3421,
      "picks": 3422,
      "distr": 3423,
      "chuckles": 3424,
      "clutching": 3425,
      "closest": 3426,
      "tracks": 3427,
      "honor": 3428,
      "ssed": 3429,
      "plant": 3430,
      "fails": 3431,
      "brie": 3432,
      "valley": 3433,
      "rie": 3434,
      "voices": 3435,
      "image": 3436,
      "ator": 3437,
      "stern": 3438,
      "establish": 3439,
      "footsteps": 3440,
      "lean": 3441,
      "willing": 3442,
      "gem": 3443,
      "redu": 3444,
      "briefly": 3445,
      "silence": 3446,
      "erie": 3447,
      "flee": 3448,
      "code": 3449,
      "blessing": 3450,
      "handed": 3451,
      "bigby": 3452,
      "arrived": 3453,
      "tuesday": 3454,
      "bt": 3455,
      "tattoo": 3456,
      "tied": 3457,
      "separate": 3458,
      "cree": 3459,
      "atters": 3460,
      "fea": 3461,
      "stories": 3462,
      "pace": 3463,
      "rested": 3464,
      "carefully": 3465,
      "35": 3466,
      "appeared": 3467,
      "circumstance": 3468,
      "roughly": 3469,
      "powder": 3470,
      "meal": 3471,
      "discover": 3472,
      "mr": 3473,
      "snar": 3474,
      "dock": 3475,
      "peek": 3476,
      "gosh": 3477,
      "haste": 3478,
      "shifts": 3479,
      "eagle": 3480,
      "congrat": 3481,
      "inspire": 3482,
      "necklace": 3483,
      "shitty": 3484,
      "easily": 3485,
      "northward": 3486,
      "quarters": 3487,
      "fog": 3488,
      "visibility": 3489,
      "twiggy": 3490,
      "company": 3491,
      "characters": 3492,
      "pillars": 3493,
      "worried": 3494,
      "mud": 3495,
      "healed": 3496,
      "frozen": 3497,
      "ern": 3498,
      "allic": 3499,
      "monster": 3500,
      "pelor": 3501,
      "sell": 3502,
      "keeper": 3503,
      "kitchen": 3504,
      "entered": 3505,
      "construction": 3506,
      "produ": 3507,
      "everywhere": 3508,
      "trapped": 3509,
      "bran": 3510,
      "animal": 3511,
      "nast": 3512,
      "ances": 3513,
      "exist": 3514,
      "involved": 3515,
      "dad": 3516,
      "ops": 3517,
      "rushes": 3518,
      "sus": 3519,
      "resting": 3520,
      "viol": 3521,
      "zes": 3522,
      "cord": 3523,
      "miles": 3524,
      "somehow": 3525,
      "umn": 3526,
      "wyvern": 3527,
      "knee": 3528,
      "subter": 3529,
      "setting": 3530,
      "tension": 3531,
      "drops": 3532,
      "crystal": 3533,
      "reveal": 3534,
      "absolutely": 3535,
      "yell": 3536,
      "finishing": 3537,
      "consu": 3538,
      "written": 3539,
      "io": 3540,
      "nes": 3541,
      "giants": 3542,
      "busy": 3543,
      "arcana": 3544,
      "inct": 3545,
      "pub": 3546,
      "ctive": 3547,
      "ride": 3548,
      "ently": 3549,
      "spire": 3550,
      "mal": 3551,
      "meter": 3552,
      "encounter": 3553,
      "imm": 3554,
      "drawn": 3555,
      "spiritual": 3556,
      "retrie": 3557,
      "equi": 3558,
      "ously": 3559,
      "smooth": 3560,
      "congratul": 3561,
      "spray": 3562,
      "angri": 3563,
      "completed": 3564,
      "preparing": 3565,
      "domin": 3566,
      "fades": 3567,
      "wet": 3568,
      "identi": 3569,
      "ranged": 3570,
      "mom": 3571,
      "bones": 3572,
      "warri": 3573,
      "metallic": 3574,
      "ening": 3575,
      "rah": 3576,
      "weekend": 3577,
      "oil": 3578,
      "failed": 3579,
      "escap": 3580,
      "awful": 3581,
      "challenge": 3582,
      "troll": 3583,
      "resi": 3584,
      "spoke": 3585,
      "spider": 3586,
      "rub": 3587,
      "darkened": 3588,
      "honestly": 3589,
      "tribe": 3590,
      "vial": 3591,
      "roads": 3592,
      "jamedi": 3593,
      "ulog": 3594,
      "thinks": 3595,
      "bursts": 3596,
      "distraction": 3597,
      "active": 3598,
      "mines": 3599,
      "auto": 3600,
      "heroes": 3601,
      "incredible": 3602,
      "angrily": 3603,
      "ric": 3604,
      "gnolls": 3605,
      "musc": 3606,
      "826la": 3607,
      "spiral": 3608,
      "gal": 3609,
      "shove": 3610,
      "cutting": 3611,
      "congratulations": 3612,
      "wherever": 3613,
      "shapes": 3614,
      "tour": 3615,
      "loren": 3616,
      "umbles": 3617,
      "bron": 3618,
      "barri": 3619,
      "picked": 3620,
      "lorenzo": 3621,
      "iff": 3622,
      "text": 3623,
      "ildan": 3624,
      "nasty": 3625,
      "pants": 3626,
      "lasts": 3627,
      "afternoon": 3628,
      "dropped": 3629,
      "command": 3630,
      "els": 3631,
      "dwarves": 3632,
      "vines": 3633,
      "generally": 3634,
      "joh": 3635,
      "blades": 3636,
      "dance": 3637,
      "butt": 3638,
      "influ": 3639,
      "algar": 3640,
      "myster": 3641,
      "brian": 3642,
      "seriously": 3643,
      "finished": 3644,
      "frost": 3645,
      "entities": 3646,
      "muff": 3647,
      "shows": 3648,
      "jor": 3649,
      "raish": 3650,
      "perspective": 3651,
      "foc": 3652,
      "twins": 3653,
      "yer": 3654,
      "upd": 3655,
      "aky": 3656,
      "ism": 3657,
      "leep": 3658,
      "asleep": 3659,
      "rules": 3660,
      "raishan": 3661,
      "showing": 3662,
      "ev": 3663,
      "alter": 3664,
      "press": 3665,
      "climbing": 3666,
      "acqui": 3667,
      "hook": 3668,
      "thar": 3669,
      "lantern": 3670,
      "bill": 3671,
      "ert": 3672,
      "hung": 3673,
      "listening": 3674,
      "gates": 3675,
      "helps": 3676,
      "bolts": 3677,
      "xhor": 3678,
      "regard": 3679,
      "jeez": 3680,
      "otherwise": 3681,
      "necessary": 3682,
      "asy": 3683,
      "umps": 3684,
      "barbar": 3685,
      "tab": 3686,
      "pointed": 3687,
      "returns": 3688,
      "tink": 3689,
      "raised": 3690,
      "impacts": 3691,
      "boulder": 3692,
      "pot": 3693,
      "scroll": 3694,
      "creepy": 3695,
      "xhorhas": 3696,
      "ean": 3697,
      "recomm": 3698,
      "ranean": 3699,
      "dude": 3700,
      "subterranean": 3701,
      "coat": 3702,
      "seeking": 3703,
      "teach": 3704,
      "tempor": 3705,
      "page": 3706,
      "winter": 3707,
      "cloth": 3708,
      "slide": 3709,
      "flies": 3710,
      "shooting": 3711,
      "pacific": 3712,
      "handful": 3713,
      "knees": 3714,
      "cate": 3715,
      "seat": 3716,
      "poses": 3717,
      "brass": 3718,
      "traveled": 3719,
      "assa": 3720,
      "pired": 3721,
      "hired": 3722,
      "hin": 3723,
      "concer": 3724,
      "shore": 3725,
      "pouch": 3726,
      "lake": 3727,
      "jun": 3728,
      "wrap": 3729,
      "ital": 3730,
      "concla": 3731,
      "gnomes": 3732,
      "feather": 3733,
      "conclave": 3734,
      "blan": 3735,
      "locate": 3736,
      "reduced": 3737,
      "lves": 3738,
      "beacon": 3739,
      "originally": 3740,
      "criticalrole": 3741,
      "chambers": 3742,
      "knight": 3743,
      "repair": 3744,
      "rogue": 3745,
      "pillar": 3746,
      "limit": 3747,
      "200": 3748,
      "excuse": 3749,
      "ature": 3750,
      "statue": 3751,
      "wilhand": 3752,
      "trig": 3753,
      "leaps": 3754,
      "gras": 3755,
      "web": 3756,
      "item": 3757,
      "ites": 3758,
      "raise": 3759,
      "stret": 3760,
      "qual": 3761,
      "suppose": 3762,
      "priest": 3763,
      "stonework": 3764,
      "carts": 3765,
      "ising": 3766,
      "limp": 3767,
      "calm": 3768,
      "mentioned": 3769,
      "birthday": 3770,
      "bless": 3771,
      "owl": 3772,
      "bun": 3773,
      "tip": 3774,
      "pumat": 3775,
      "tur": 3776,
      "allowed": 3777,
      "cocked": 3778,
      "golden": 3779,
      "reaching": 3780,
      "eman": 3781,
      "task": 3782,
      "fortress": 3783,
      "letting": 3784,
      "cular": 3785,
      "suffer": 3786,
      "damaged": 3787,
      "attempts": 3788,
      "fren": 3789,
      "jag": 3790,
      "hop": 3791,
      "jare": 3792,
      "ravine": 3793,
      "worship": 3794,
      "facing": 3795,
      "muscle": 3796,
      "trial": 3797,
      "desig": 3798,
      "landing": 3799,
      "jewel": 3800,
      "thankfully": 3801,
      "rip": 3802,
      "bowl": 3803,
      "supplies": 3804,
      "invisibility": 3805,
      "beasts": 3806,
      "shakes": 3807,
      "video": 3808,
      "oken": 3809,
      "likes": 3810,
      "og": 3811,
      "mast": 3812,
      "gap": 3813,
      "cute": 3814,
      "fruit": 3815,
      "itter": 3816,
      "claim": 3817,
      "dungeon": 3818,
      "kay": 3819,
      "prin": 3820,
      "marqu": 3821,
      "spr": 3822,
      "mirror": 3823,
      "clock": 3824,
      "corrup": 3825,
      "pound": 3826,
      "inch": 3827,
      "accep": 3828,
      "bullshit": 3829,
      "hm": 3830,
      "asing": 3831,
      "assist": 3832,
      "muscles": 3833,
      "elect": 3834,
      "swir": 3835,
      "guiding": 3836,
      "smells": 3837,
      "transpor": 3838,
      "asshole": 3839,
      "spill": 3840,
      "darkvision": 3841,
      "clothes": 3842,
      "behold": 3843,
      "harel": 3844,
      "coins": 3845,
      "conven": 3846,
      "string": 3847,
      "throne": 3848,
      "adventurer": 3849,
      "engage": 3850,
      "jarett": 3851,
      "inches": 3852,
      "syn": 3853,
      "version": 3854,
      "embed": 3855,
      "dolan": 3856,
      "burns": 3857,
      "changed": 3858,
      "dragged": 3859,
      "purchase": 3860,
      "wilde": 3861,
      "major": 3862,
      "scent": 3863,
      "abandoned": 3864,
      "soci": 3865,
      "uncomfortable": 3866,
      "apologize": 3867,
      "shoots": 3868,
      "rubble": 3869,
      "service": 3870,
      "dragging": 3871,
      "yard": 3872,
      "ache": 3873,
      "keen": 3874,
      "alpha": 3875,
      "hala": 3876,
      "bard": 3877,
      "vili": 3878,
      "existen": 3879,
      "asum": 3880,
      "created": 3881,
      "stays": 3882,
      "pattern": 3883,
      "decent": 3884,
      "guests": 3885,
      "confli": 3886,
      "donated": 3887,
      "tools": 3888,
      "vity": 3889,
      "endless": 3890,
      "outer": 3891,
      "approaches": 3892,
      "wondering": 3893,
      "reef": 3894,
      "amphala": 3895,
      "remaining": 3896,
      "useful": 3897,
      "colors": 3898,
      "connection": 3899,
      "perfor": 3900,
      "glasses": 3901,
      "dusk": 3902,
      "whispe": 3903,
      "concentrate": 3904,
      "thud": 3905,
      "illith": 3906,
      "price": 3907,
      "darts": 3908,
      "wildemount": 3909,
      "illithid": 3910,
      "sorts": 3911,
      "stood": 3912,
      "protection": 3913,
      "symbo": 3914,
      "500": 3915,
      "army": 3916,
      "vere": 3917,
      "festi": 3918,
      "poly": 3919,
      "joining": 3920,
      "announcement": 3921,
      "lets": 3922,
      "umbling": 3923,
      "scen": 3924,
      "breathe": 3925,
      "wolf": 3926,
      "bam": 3927,
      "ogre": 3928,
      "clasp": 3929,
      "tired": 3930,
      "cow": 3931,
      "chick": 3932,
      "searching": 3933,
      "gressive": 3934,
      "scrat": 3935,
      "tears": 3936,
      "block": 3937,
      "audience": 3938,
      "brush": 3939,
      "gloom": 3940,
      "yenk": 3941,
      "scale": 3942,
      "torn": 3943,
      "southern": 3944,
      "han": 3945,
      "math": 3946,
      "opposed": 3947,
      "civili": 3948,
      "marked": 3949,
      "armed": 3950,
      "imit": 3951,
      "existence": 3952,
      "curl": 3953,
      "obje": 3954,
      "knocking": 3955,
      "stunned": 3956,
      "mace": 3957,
      "grit": 3958,
      "goddamn": 3959,
      "facts": 3960,
      "iency": 3961,
      "confi": 3962,
      "critters": 3963,
      "affected": 3964,
      "escor": 3965,
      "lizard": 3966,
      "hydra": 3967,
      "leaky": 3968,
      "comb": 3969,
      "spine": 3970,
      "plank": 3971,
      "paint": 3972,
      "expected": 3973,
      "brace": 3974,
      "bul": 3975,
      "growls": 3976,
      "dup": 3977,
      "webs": 3978,
      "cant": 3979,
      "150": 3980,
      "bleeding": 3981,
      "paren": 3982,
      "stealthy": 3983,
      "shepher": 3984,
      "helmet": 3985,
      "80": 3986,
      "pockets": 3987,
      "traveler": 3988,
      "kaylie": 3989,
      "xie": 3990,
      "thal": 3991,
      "cheer": 3992,
      "tenti": 3993,
      "clothing": 3994,
      "detect": 3995,
      "gor": 3996,
      "backs": 3997,
      "attached": 3998,
      "tentacles": 3999,
      "strangely": 4000,
      "symbols": 4001,
      "mn": 4002,
      "disappears": 4003,
      "ush": 4004,
      "inno": 4005,
      "difference": 4006,
      "bay": 4007,
      "snap": 4008,
      "tow": 4009,
      "horns": 4010,
      "awake": 4011,
      "cone": 4012,
      "uti": 4013,
      "shepherds": 4014,
      "peace": 4015,
      "holes": 4016,
      "shelf": 4017,
      "gotta": 4018,
      "ggles": 4019,
      "picture": 4020,
      "theme": 4021,
      "lifts": 4022,
      "irty": 4023,
      "carni": 4024,
      "catching": 4025,
      "jagged": 4026,
      "ured": 4027,
      "sheer": 4028,
      "critrole": 4029,
      "pup": 4030,
      "shr": 4031,
      "affect": 4032,
      "mistake": 4033,
      "column": 4034,
      "agreed": 4035,
      "collect": 4036,
      "defense": 4037,
      "pment": 4038,
      "foster": 4039,
      "purposes": 4040,
      "hul": 4041,
      "decis": 4042,
      "wander": 4043,
      "zah": 4044,
      "grate": 4045,
      "prefer": 4046,
      "runes": 4047,
      "functional": 4048,
      "zahra": 4049,
      "chained": 4050,
      "continent": 4051,
      "obsc": 4052,
      "cracks": 4053,
      "roots": 4054,
      "respond": 4055,
      "polymor": 4056,
      "aked": 4057,
      "wend": 4058,
      "anti": 4059,
      "potenti": 4060,
      "sweat": 4061,
      "shouts": 4062,
      "ets": 4063,
      "relie": 4064,
      "dered": 4065,
      "ext": 4066,
      "scout": 4067,
      "performan": 4068,
      "ruin": 4069,
      "collapsed": 4070,
      "faster": 4071,
      "tief": 4072,
      "spar": 4073,
      "whenever": 4074,
      "tiefling": 4075,
      "boun": 4076,
      "fright": 4077,
      "poof": 4078,
      "learning": 4079,
      "sized": 4080,
      "ruined": 4081,
      "anger": 4082,
      "serve": 4083,
      "faith": 4084,
      "fourth": 4085,
      "patient": 4086,
      "responsible": 4087,
      "odes": 4088,
      "ladies": 4089,
      "decor": 4090,
      "shaking": 4091,
      "parch": 4092,
      "bought": 4093,
      "sticks": 4094,
      "cellar": 4095,
      "recommend": 4096,
      "festival": 4097,
      "rical": 4098,
      "pod": 4099,
      "merch": 4100,
      "mile": 4101,
      "rist": 4102,
      "orange": 4103,
      "carnival": 4104,
      "fort": 4105,
      "fray": 4106,
      "expensive": 4107,
      "fixed": 4108,
      "fate": 4109,
      "cheers": 4110,
      "helpful": 4111,
      "tured": 4112,
      "mail": 4113,
      "cei": 4114,
      "tense": 4115,
      "versus": 4116,
      "christ": 4117,
      "woke": 4118,
      "grows": 4119,
      "trail": 4120,
      "figured": 4121,
      "animals": 4122,
      "designed": 4123,
      "pale": 4124,
      "corpses": 4125,
      "muffled": 4126,
      "goods": 4127,
      "guns": 4128,
      "speaks": 4129,
      "skill": 4130,
      "marius": 4131,
      "gently": 4132,
      "spins": 4133,
      "younger": 4134,
      "impressive": 4135,
      "influence": 4136,
      "uary": 4137,
      "ashed": 4138,
      "creek": 4139,
      "llowed": 4140,
      "shak": 4141,
      "northern": 4142,
      "33": 4143,
      "vate": 4144,
      "scary": 4145,
      "sex": 4146,
      "lair": 4147,
      "construct": 4148,
      "instinct": 4149,
      "atmo": 4150,
      "opened": 4151,
      "alongside": 4152,
      "kiss": 4153,
      "dinner": 4154,
      "mate": 4155,
      "stopped": 4156,
      "grabbing": 4157,
      "shorthal": 4158,
      "dealing": 4159,
      "lip": 4160,
      "wife": 4161,
      "inding": 4162,
      "harvest": 4163,
      "gustav": 4164,
      "dou": 4165,
      "pillow": 4166,
      "crawl": 4167,
      "random": 4168,
      "aly": 4169,
      "nowhere": 4170,
      "exper": 4171,
      "buried": 4172,
      "idi": 4173,
      "scra": 4174,
      "boys": 4175,
      "shakaste": 4176,
      "tin": 4177,
      "flayer": 4178,
      "tentacle": 4179,
      "mix": 4180,
      "kidding": 4181,
      "artifacts": 4182,
      "mauk": 4183,
      "mollymauk": 4184,
      "reminder": 4185,
      "wro": 4186,
      "continuing": 4187,
      "stage": 4188,
      "edition": 4189,
      "arer": 4190,
      "health": 4191,
      "basic": 4192,
      "arament": 4193,
      "dispel": 4194,
      "halfway": 4195,
      "realized": 4196,
      "swords": 4197,
      "toya": 4198,
      "aramente": 4199,
      "ughter": 4200,
      "sake": 4201,
      "suck": 4202,
      "daughter": 4203,
      "izon": 4204,
      "theast": 4205,
      "actic": 4206,
      "volcan": 4207,
      "identify": 4208,
      "wrote": 4209,
      "asse": 4210,
      "require": 4211,
      "billow": 4212,
      "assault": 4213,
      "uts": 4214,
      "dip": 4215,
      "rak": 4216,
      "stron": 4217,
      "ggle": 4218,
      "title": 4219,
      "wrapped": 4220,
      "yor": 4221,
      "shim": 4222,
      "disappear": 4223,
      "champ": 4224,
      "twitter": 4225,
      "barbarian": 4226,
      "constru": 4227,
      "icked": 4228,
      "ples": 4229,
      "stairway": 4230,
      "louder": 4231,
      "beholder": 4232,
      "players": 4233,
      "victory": 4234,
      "greyskull": 4235,
      "iers": 4236,
      "slip": 4237,
      "relig": 4238,
      "toss": 4239,
      "sheet": 4240,
      "rapid": 4241,
      "echoing": 4242,
      "inward": 4243,
      "barr": 4244,
      "rising": 4245,
      "hou": 4246,
      "ience": 4247,
      "aded": 4248,
      "wounded": 4249,
      "sig": 4250,
      "tearing": 4251,
      "tube": 4252,
      "aby": 4253,
      "splash": 4254,
      "surrounded": 4255,
      "prov": 4256,
      "smiles": 4257,
      "eastern": 4258,
      "anvil": 4259,
      "carve": 4260,
      "calling": 4261,
      "flaming": 4262,
      "drift": 4263,
      "survival": 4264,
      "focused": 4265,
      "defe": 4266,
      "chill": 4267,
      "shas": 4268,
      "calls": 4269,
      "entirety": 4270,
      "rakshas": 4271,
      "swall": 4272,
      "organ": 4273,
      "boo": 4274,
      "restrained": 4275,
      "servants": 4276,
      "dranas": 4277,
      "hungry": 4278,
      "remn": 4279,
      "tova": 4280,
      "sted": 4281,
      "velo": 4282,
      "yells": 4283,
      "pies": 4284,
      "bi": 4285,
      "jug": 4286,
      "threw": 4287,
      "spirit": 4288,
      "proficiency": 4289,
      "dome": 4290,
      "ders": 4291,
      "gaun": 4292,
      "circus": 4293,
      "barrier": 4294,
      "cities": 4295,
      "sut": 4296,
      "waste": 4297,
      "izes": 4298,
      "pulse": 4299,
      "ember": 4300,
      "darker": 4301,
      "grew": 4302,
      "offers": 4303,
      "promo": 4304,
      "groo": 4305,
      "investigate": 4306,
      "distracted": 4307,
      "mish": 4308,
      "neg": 4309,
      "suit": 4310,
      "carri": 4311,
      "fills": 4312,
      "streaks": 4313,
      "dancing": 4314,
      "gla": 4315,
      "ridi": 4316,
      "followed": 4317,
      "badass": 4318,
      "shorthalt": 4319,
      "ridicul": 4320,
      "grounds": 4321,
      "sunlight": 4322,
      "establishment": 4323,
      "ogden": 4324,
      "events": 4325,
      "hells": 4326,
      "whispered": 4327,
      "shh": 4328,
      "player": 4329,
      "western": 4330,
      "prove": 4331,
      "intimidation": 4332,
      "vengeance": 4333,
      "mechan": 4334,
      "directions": 4335,
      "emerges": 4336,
      "ritch": 4337,
      "leaning": 4338,
      "forces": 4339,
      "onel": 4340,
      "opy": 4341,
      "weather": 4342,
      "innocent": 4343,
      "pepper": 4344,
      "ify": 4345,
      "exam": 4346,
      "settle": 4347,
      "horizon": 4348,
      "tug": 4349,
      "estate": 4350,
      "bush": 4351,
      "appearance": 4352,
      "basement": 4353,
      "marquet": 4354,
      "cine": 4355,
      "taste": 4356,
      "perform": 4357,
      "frame": 4358,
      "religion": 4359,
      "bust": 4360,
      "accept": 4361,
      "portions": 4362,
      "exciting": 4363,
      "satche": 4364,
      "pirate": 4365,
      "stain": 4366,
      "plish": 4367,
      "ides": 4368,
      "meantime": 4369,
      "orders": 4370,
      "squee": 4371,
      "eh": 4372,
      "ption": 4373,
      "grant": 4374,
      "nerdy": 4375,
      "shortly": 4376,
      "survive": 4377,
      "sanct": 4378,
      "45": 4379,
      "contest": 4380,
      "charges": 4381,
      "dangling": 4382,
      "scrying": 4383,
      "polymorph": 4384,
      "uan": 4385,
      "rely": 4386,
      "drawing": 4387,
      "servant": 4388,
      "lun": 4389,
      "repe": 4390,
      "blasts": 4391,
      "skills": 4392,
      "length": 4393,
      "ude": 4394,
      "lled": 4395,
      "sul": 4396,
      "carving": 4397,
      "pressed": 4398,
      "swinging": 4399,
      "zzle": 4400,
      "34": 4401,
      "pink": 4402,
      "chi": 4403,
      "aggressive": 4404,
      "hadn": 4405,
      "ducks": 4406,
      "conflict": 4407,
      "vish": 4408,
      "farm": 4409,
      "planning": 4410,
      "dreams": 4411,
      "chicken": 4412,
      "uty": 4413,
      "worm": 4414,
      "darktow": 4415,
      "tv": 4416,
      "cube": 4417,
      "chro": 4418,
      "options": 4419,
      "understanding": 4420,
      "grabbed": 4421,
      "released": 4422,
      "village": 4423,
      "parents": 4424,
      "crossed": 4425,
      "pest": 4426,
      "nila": 4427,
      "remnants": 4428,
      "park": 4429,
      "cantrip": 4430,
      "alleyway": 4431,
      "office": 4432,
      "political": 4433,
      "grasping": 4434,
      "descend": 4435,
      "performance": 4436,
      "shadycreek": 4437,
      "thie": 4438,
      "recover": 4439,
      "tips": 4440,
      "serpent": 4441,
      "boats": 4442,
      "describe": 4443,
      "lines": 4444,
      "acc": 4445,
      "elves": 4446,
      "aled": 4447,
      "debt": 4448,
      "vors": 4449,
      "landscape": 4450,
      "flank": 4451,
      "ridiculous": 4452,
      "intri": 4453,
      "reload": 4454,
      "sages": 4455,
      "sucks": 4456,
      "whip": 4457,
      "secondary": 4458,
      "300": 4459,
      "celest": 4460,
      "dwend": 4461,
      "max": 4462,
      "powers": 4463,
      "firing": 4464,
      "approaching": 4465,
      "releases": 4466,
      "loo": 4467,
      "eldritch": 4468,
      "occur": 4469,
      "trigger": 4470,
      "hoo": 4471,
      "rule": 4472,
      "charm": 4473,
      "bald": 4474,
      "embedded": 4475,
      "rakshasa": 4476,
      "dwendal": 4477,
      "agerie": 4478,
      "menagerie": 4479,
      "signs": 4480,
      "pitched": 4481,
      "grip": 4482,
      "jungle": 4483,
      "gloomstal": 4484,
      "notices": 4485,
      "scenari": 4486,
      "ased": 4487,
      "cation": 4488,
      "tough": 4489,
      "dirty": 4490,
      "lem": 4491,
      "lionel": 4492,
      "gnomish": 4493,
      "36": 4494,
      "thorn": 4495,
      "signal": 4496,
      "sticking": 4497,
      "clusters": 4498,
      "aver": 4499,
      "jb": 4500,
      "lon": 4501,
      "inse": 4502,
      "copy": 4503,
      "manacles": 4504,
      "trained": 4505,
      "compar": 4506,
      "grown": 4507,
      "vials": 4508,
      "assass": 4509,
      "fying": 4510,
      "swimming": 4511,
      "socie": 4512,
      "objects": 4513,
      "yo": 4514,
      "perpet": 4515,
      "elbow": 4516,
      "boxes": 4517,
      "expecting": 4518,
      "equipment": 4519,
      "gaming": 4520,
      "restor": 4521,
      "aye": 4522,
      "horris": 4523,
      "ably": 4524,
      "forehead": 4525,
      "magma": 4526,
      "flowers": 4527,
      "sutan": 4528,
      "actors": 4529,
      "shattered": 4530,
      "conj": 4531,
      "desper": 4532,
      "attempting": 4533,
      "noticing": 4534,
      "yenn": 4535,
      "atmosphere": 4536,
      "slo": 4537,
      "downward": 4538,
      "mond": 4539,
      "enemy": 4540,
      "lack": 4541,
      "dia": 4542,
      "diver": 4543,
      "waves": 4544,
      "curled": 4545,
      "structures": 4546,
      "fau": 4547,
      "inv": 4548,
      "poke": 4549,
      "study": 4550,
      "intention": 4551,
      "fool": 4552,
      "traver": 4553,
      "snaps": 4554,
      "loss": 4555,
      "poo": 4556,
      "daylight": 4557,
      "palad": 4558,
      "collapse": 4559,
      "dissip": 4560,
      "spike": 4561,
      "ender": 4562,
      "saves": 4563,
      "sends": 4564,
      "clay": 4565,
      "nip": 4566,
      "perfectly": 4567,
      "formed": 4568,
      "adjust": 4569,
      "odd": 4570,
      "medit": 4571,
      "cali": 4572,
      "darling": 4573,
      "goblins": 4574,
      "website": 4575,
      "vering": 4576,
      "blown": 4577,
      "blowing": 4578,
      "flanking": 4579,
      "d12": 4580,
      "station": 4581,
      "singular": 4582,
      "fade": 4583,
      "00pm": 4584,
      "gasping": 4585,
      "kerri": 4586,
      "sacred": 4587,
      "alfield": 4588,
      "waters": 4589,
      "assuming": 4590,
      "mps": 4591,
      "teen": 4592,
      "john": 4593,
      "enchanted": 4594,
      "restoration": 4595,
      "jac": 4596,
      "plot": 4597,
      "cracking": 4598,
      "refer": 4599,
      "atic": 4600,
      "stomach": 4601,
      "tents": 4602,
      "fields": 4603,
      "temper": 4604,
      "hill": 4605,
      "toad": 4606,
      "smash": 4607,
      "complic": 4608,
      "arrival": 4609,
      "warmth": 4610,
      "quarter": 4611,
      "2d6": 4612,
      "hail": 4613,
      "stepped": 4614,
      "clears": 4615,
      "owner": 4616,
      "nico": 4617,
      "fled": 4618,
      "boost": 4619,
      "foyer": 4620,
      "excell": 4621,
      "shopping": 4622,
      "occasional": 4623,
      "jewelry": 4624,
      "ences": 4625,
      "dish": 4626,
      "tes": 4627,
      "itive": 4628,
      "lored": 4629,
      "urally": 4630,
      "kers": 4631,
      "locks": 4632,
      "warning": 4633,
      "country": 4634,
      "birds": 4635,
      "nicodranas": 4636,
      "fif": 4637,
      "ading": 4638,
      "foremost": 4639,
      "paraly": 4640,
      "match": 4641,
      "expla": 4642,
      "thrust": 4643,
      "excellent": 4644,
      "pling": 4645,
      "ruby": 4646,
      "fake": 4647,
      "patch": 4648,
      "terribly": 4649,
      "balt": 4650,
      "secrets": 4651,
      "ey": 4652,
      "refle": 4653,
      "rebell": 4654,
      "access": 4655,
      "agon": 4656,
      "begun": 4657,
      "curve": 4658,
      "instant": 4659,
      "arcs": 4660,
      "project": 4661,
      "matthe": 4662,
      "twist": 4663,
      "original": 4664,
      "kerrion": 4665,
      "sses": 4666,
      "ende": 4667,
      "plates": 4668,
      "gauntle": 4669,
      "sch": 4670,
      "sket": 4671,
      "remove": 4672,
      "copper": 4673,
      "entering": 4674,
      "acking": 4675,
      "ident": 4676,
      "attempted": 4677,
      "wednes": 4678,
      "parchment": 4679,
      "jar": 4680,
      "outward": 4681,
      "ushed": 4682,
      "sealed": 4683,
      "vampire": 4684,
      "chroma": 4685,
      "defle": 4686,
      "bloody": 4687,
      "growling": 4688,
      "depending": 4689,
      "chased": 4690,
      "ranger": 4691,
      "eu": 4692,
      "pant": 4693,
      "unks": 4694,
      "cobalt": 4695,
      "monst": 4696,
      "murder": 4697,
      "cheek": 4698,
      "sens": 4699,
      "easier": 4700,
      "120": 4701,
      "argu": 4702,
      "belly": 4703,
      "woo": 4704,
      "solve": 4705,
      "counterspell": 4706,
      "shimmer": 4707,
      "nah": 4708,
      "pho": 4709,
      "stare": 4710,
      "arrested": 4711,
      "plum": 4712,
      "spri": 4713,
      "scree": 4714,
      "cursed": 4715,
      "joined": 4716,
      "unique": 4717,
      "belong": 4718,
      "rod": 4719,
      "falch": 4720,
      "paladin": 4721,
      "poop": 4722,
      "inks": 4723,
      "curves": 4724,
      "posal": 4725,
      "drive": 4726,
      "flip": 4727,
      "draws": 4728,
      "contains": 4729,
      "negative": 4730,
      "matthew": 4731,
      "dook": 4732,
      "coo": 4733,
      "types": 4734,
      "wheel": 4735,
      "gaze": 4736,
      "knuck": 4737,
      "immune": 4738,
      "orly": 4739,
      "lyra": 4740,
      "gifts": 4741,
      "sinks": 4742,
      "swoop": 4743,
      "coughing": 4744,
      "scenario": 4745,
      "pitch": 4746,
      "wizard": 4747,
      "arest": 4748,
      "surge": 4749,
      "expand": 4750,
      "salt": 4751,
      "convince": 4752,
      "satchel": 4753,
      "broke": 4754,
      "worthy": 4755,
      "pools": 4756,
      "women": 4757,
      "za": 4758,
      "losing": 4759,
      "shark": 4760,
      "pires": 4761,
      "proceed": 4762,
      "charging": 4763,
      "rissa": 4764,
      "depends": 4765,
      "temporary": 4766,
      "egg": 4767,
      "sphin": 4768,
      "skeletal": 4769,
      "collection": 4770,
      "rushed": 4771,
      "spinning": 4772,
      "trammel": 4773,
      "utili": 4774,
      "sanctuary": 4775,
      "sphinx": 4776,
      "rout": 4777,
      "sewer": 4778,
      "goal": 4779,
      "confir": 4780,
      "pointing": 4781,
      "stole": 4782,
      "slap": 4783,
      "thoughts": 4784,
      "surprised": 4785,
      "fault": 4786,
      "sensation": 4787,
      "cen": 4788,
      "shiny": 4789,
      "gment": 4790,
      "alco": 4791,
      "internet": 4792,
      "panel": 4793,
      "deity": 4794,
      "cook": 4795,
      "naturally": 4796,
      "hol": 4797,
      "desmond": 4798,
      "stronger": 4799,
      "yennen": 4800,
      "forced": 4801,
      "disinte": 4802,
      "bother": 4803,
      "rounds": 4804,
      "arrive": 4805,
      "bru": 4806,
      "canopy": 4807,
      "utug": 4808,
      "nearest": 4809,
      "jumping": 4810,
      "celestial": 4811,
      "utugash": 4812,
      "foun": 4813,
      "ire": 4814,
      "oo": 4815,
      "tank": 4816,
      "rib": 4817,
      "pause": 4818,
      "starter": 4819,
      "dress": 4820,
      "asant": 4821,
      "ruins": 4822,
      "mult": 4823,
      "hire": 4824,
      "episodes": 4825,
      "hills": 4826,
      "gems": 4827,
      "underdark": 4828,
      "vault": 4829,
      "relation": 4830,
      "constructed": 4831,
      "endea": 4832,
      "plays": 4833,
      "izens": 4834,
      "filling": 4835,
      "faintly": 4836,
      "skeleton": 4837,
      "ore": 4838,
      "closing": 4839,
      "mson": 4840,
      "creating": 4841,
      "safety": 4842,
      "connected": 4843,
      "branches": 4844,
      "adventurers": 4845,
      "furn": 4846,
      "kord": 4847,
      "resides": 4848,
      "expres": 4849,
      "gentlemen": 4850,
      "nods": 4851,
      "talent": 4852,
      "warrior": 4853,
      "sprigg": 4854,
      "ryce": 4855,
      "missi": 4856,
      "perimeter": 4857,
      "crimson": 4858,
      "limited": 4859,
      "dwendalian": 4860,
      "falchion": 4861,
      "tag": 4862,
      "wednesday": 4863,
      "brow": 4864,
      "rep": 4865,
      "rever": 4866,
      "ali": 4867,
      "loom": 4868,
      "glor": 4869,
      "complicated": 4870,
      "arrange": 4871,
      "unle": 4872,
      "bats": 4873,
      "crafted": 4874,
      "changes": 4875,
      "ler": 4876,
      "zel": 4877,
      "background": 4878,
      "ilis": 4879,
      "earned": 4880,
      "javel": 4881,
      "shadowfell": 4882,
      "rust": 4883,
      "roman": 4884,
      "letters": 4885,
      "crum": 4886,
      "monk": 4887,
      "groups": 4888,
      "levels": 4889,
      "craven": 4890,
      "rels": 4891,
      "ticore": 4892,
      "ram": 4893,
      "plent": 4894,
      "manticore": 4895,
      "provide": 4896,
      "bubble": 4897,
      "midnight": 4898,
      "announced": 4899,
      "survived": 4900,
      "mant": 4901,
      "vac": 4902,
      "decl": 4903,
      "ramid": 4904,
      "workshop": 4905,
      "pyramid": 4906,
      "beaten": 4907,
      "communic": 4908,
      "prints": 4909,
      "seeker": 4910,
      "fang": 4911,
      "lips": 4912,
      "dax": 4913,
      "pates": 4914,
      "ii": 4915,
      "earring": 4916,
      "blacksmi": 4917,
      "package": 4918,
      "rebellion": 4919,
      "owe": 4920,
      "rons": 4921,
      "cages": 4922,
      "caused": 4923,
      "curls": 4924,
      "sentine": 4925,
      "soldiers": 4926,
      "bamf": 4927,
      "plenty": 4928,
      "mic": 4929,
      "likely": 4930,
      "stolen": 4931,
      "effects": 4932,
      "zza": 4933,
      "official": 4934,
      "5th": 4935,
      "fran": 4936,
      "nan": 4937,
      "boss": 4938,
      "whose": 4939,
      "scatter": 4940,
      "custom": 4941,
      "explain": 4942,
      "dissipates": 4943,
      "causes": 4944,
      "sorce": 4945,
      "pray": 4946,
      "switch": 4947,
      "rob": 4948,
      "tick": 4949,
      "quad": 4950,
      "ired": 4951,
      "uncle": 4952,
      "mode": 4953,
      "vanished": 4954,
      "clever": 4955,
      "footfalls": 4956,
      "battlefield": 4957,
      "connect": 4958,
      "agrees": 4959,
      "tumble": 4960,
      "mels": 4961,
      "disengage": 4962,
      "clas": 4963,
      "papers": 4964,
      "glide": 4965,
      "diamonds": 4966,
      "potentially": 4967,
      "infer": 4968,
      "represent": 4969,
      "andri": 4970,
      "checked": 4971,
      "enda": 4972,
      "splinter": 4973,
      "succeeds": 4974,
      "adorable": 4975,
      "term": 4976,
      "standard": 4977,
      "2d8": 4978,
      "bak": 4979,
      "hears": 4980,
      "sie": 4981,
      "dians": 4982,
      "train": 4983,
      "corners": 4984,
      "flashes": 4985,
      "touches": 4986,
      "emerging": 4987,
      "istic": 4988,
      "aries": 4989,
      "alcove": 4990,
      "wanting": 4991,
      "meaning": 4992,
      "concentrating": 4993,
      "crying": 4994,
      "celebration": 4995,
      "daxio": 4996,
      "gall": 4997,
      "mill": 4998,
      "exandri": 4999,
      "carries": 5000,
      "superior": 5001,
      "initial": 5002,
      "cryst": 5003,
      "spires": 5004,
      "sche": 5005,
      "creation": 5006,
      "zens": 5007,
      "dozens": 5008,
      "shack": 5009,
      "exists": 5010,
      "answers": 5011,
      "wrist": 5012,
      "response": 5013,
      "oto": 5014,
      "riding": 5015,
      "acquired": 5016,
      "otoa": 5017,
      "oupe": 5018,
      "sten": 5019,
      "ara": 5020,
      "ours": 5021,
      "mani": 5022,
      "medicine": 5023,
      "archi": 5024,
      "convin": 5025,
      "companion": 5026,
      "society": 5027,
      "colored": 5028,
      "raises": 5029,
      "handsome": 5030,
      "risk": 5031,
      "features": 5032,
      "dranzel": 5033,
      "squeeze": 5034,
      "fountain": 5035,
      "70": 5036,
      "alo": 5037,
      "essa": 5038,
      "gear": 5039,
      "urry": 5040,
      "crates": 5041,
      "vestiges": 5042,
      "frustrated": 5043,
      "kasha": 5044,
      "eng": 5045,
      "spoken": 5046,
      "cious": 5047,
      "mini": 5048,
      "focusing": 5049,
      "southward": 5050,
      "bullet": 5051,
      "judge": 5052,
      "kashaw": 5053,
      "tha": 5054,
      "inous": 5055,
      "hale": 5056,
      "whir": 5057,
      "gel": 5058,
      "patron": 5059,
      "chuckle": 5060,
      "sorcerer": 5061,
      "unt": 5062,
      "slick": 5063,
      "hupper": 5064,
      "rd": 5065,
      "goo": 5066,
      "hasted": 5067,
      "camer": 5068,
      "usual": 5069,
      "scre": 5070,
      "vanessa": 5071,
      "mercer": 5072,
      "fury": 5073,
      "transport": 5074,
      "wre": 5075,
      "pressure": 5076,
      "touching": 5077,
      "glorious": 5078,
      "stumble": 5079,
      "stances": 5080,
      "cannon": 5081,
      "revealed": 5082,
      "failure": 5083,
      "teleportation": 5084,
      "exandria": 5085,
      "38": 5086,
      "wit": 5087,
      "seawe": 5088,
      "shrug": 5089,
      "enters": 5090,
      "friendly": 5091,
      "seaweed": 5092,
      "seed": 5093,
      "mentions": 5094,
      "genu": 5095,
      "luci": 5096,
      "abyss": 5097,
      "temperature": 5098,
      "hupperdook": 5099,
      "swarm": 5100,
      "accom": 5101,
      "alche": 5102,
      "clearing": 5103,
      "guardians": 5104,
      "trammels": 5105,
      "theless": 5106,
      "cher": 5107,
      "shatters": 5108,
      "naked": 5109,
      "gus": 5110,
      "rare": 5111,
      "destruction": 5112,
      "udge": 5113,
      "bryce": 5114,
      "emotion": 5115,
      "wash": 5116,
      "goodbye": 5117,
      "cling": 5118,
      "greatsword": 5119,
      "northeast": 5120,
      "distur": 5121,
      "brave": 5122,
      "hotis": 5123,
      "knuckles": 5124,
      "genuine": 5125,
      "kel": 5126,
      "goodness": 5127,
      "arkhan": 5128,
      "destroying": 5129,
      "knocks": 5130,
      "chrom": 5131,
      "practic": 5132,
      "joke": 5133,
      "grunt": 5134,
      "eager": 5135,
      "uous": 5136,
      "islands": 5137,
      "crash": 5138,
      "kicks": 5139,
      "jaws": 5140,
      "thieves": 5141,
      "twe": 5142,
      "stopping": 5143,
      "balcon": 5144,
      "ee": 5145,
      "fart": 5146,
      "zan": 5147,
      "ana": 5148,
      "laid": 5149,
      "grinding": 5150,
      "eaten": 5151,
      "3rd": 5152,
      "cred": 5153,
      "sity": 5154,
      "invit": 5155,
      "ghold": 5156,
      "dod": 5157,
      "marble": 5158,
      "region": 5159,
      "pounds": 5160,
      "stronghold": 5161,
      "sta": 5162,
      "hers": 5163,
      "safely": 5164,
      "reveals": 5165,
      "impressed": 5166,
      "subscriber": 5167,
      "err": 5168,
      "display": 5169,
      "adventures": 5170,
      "jet": 5171,
      "recei": 5172,
      "backing": 5173,
      "spee": 5174,
      "option": 5175,
      "apologies": 5176,
      "reas": 5177,
      "wels": 5178,
      "chor": 5179,
      "tles": 5180,
      "tray": 5181,
      "spear": 5182,
      "frightened": 5183,
      "podcast": 5184,
      "1d8": 5185,
      "removed": 5186,
      "fered": 5187,
      "tabletop": 5188,
      "cultists": 5189,
      "jumps": 5190,
      "vand": 5191,
      "tome": 5192,
      "plants": 5193,
      "disposal": 5194,
      "protected": 5195,
      "candle": 5196,
      "headed": 5197,
      "circular": 5198,
      "riegel": 5199,
      "bark": 5200,
      "tto": 5201,
      "yester": 5202,
      "ization": 5203,
      "arriving": 5204,
      "loudly": 5205,
      "circumstances": 5206,
      "retrieve": 5207,
      "fab": 5208,
      "youtube": 5209,
      "loy": 5210,
      "patri": 5211,
      "suggests": 5212,
      "worries": 5213,
      "layer": 5214,
      "sewers": 5215,
      "troupe": 5216,
      "silent": 5217,
      "flicker": 5218,
      "carriage": 5219,
      "fits": 5220,
      "kni": 5221,
      "rats": 5222,
      "vague": 5223,
      "planet": 5224,
      "quarry": 5225,
      "decision": 5226,
      "uncan": 5227,
      "sale": 5228,
      "cracked": 5229,
      "creative": 5230,
      "lted": 5231,
      "sleight": 5232,
      "ora": 5233,
      "shards": 5234,
      "confront": 5235,
      "counts": 5236,
      "breaker": 5237,
      "scraping": 5238,
      "dumb": 5239,
      "wrest": 5240,
      "outfit": 5241,
      "lax": 5242,
      "ified": 5243,
      "horror": 5244,
      "possibility": 5245,
      "issues": 5246,
      "glove": 5247,
      "mouse": 5248,
      "rese": 5249,
      "react": 5250,
      "orcus": 5251,
      "disap": 5252,
      "proxim": 5253,
      "partner": 5254,
      "vereign": 5255,
      "proximity": 5256,
      "yesterday": 5257,
      "fare": 5258,
      "alty": 5259,
      "offering": 5260,
      "planes": 5261,
      "harder": 5262,
      "ggling": 5263,
      "truly": 5264,
      "ease": 5265,
      "trolls": 5266,
      "reached": 5267,
      "stink": 5268,
      "bearer": 5269,
      "illa": 5270,
      "gross": 5271,
      "problems": 5272,
      "clearly": 5273,
      "aneously": 5274,
      "hil": 5275,
      "lab": 5276,
      "race": 5277,
      "sovereign": 5278,
      "conver": 5279,
      "waist": 5280,
      "mistress": 5281,
      "hurts": 5282,
      "thorbir": 5283,
      "houses": 5284,
      "gly": 5285,
      "vord": 5286,
      "backwards": 5287,
      "perman": 5288,
      "minor": 5289,
      "flask": 5290,
      "phone": 5291,
      "phra": 5292,
      "instinctually": 5293,
      "dnd": 5294,
      "dozen": 5295,
      "mol": 5296,
      "critter": 5297,
      "impression": 5298,
      "stained": 5299,
      "chromatic": 5300,
      "ths": 5301,
      "tire": 5302,
      "attune": 5303,
      "drown": 5304,
      "kickstarter": 5305,
      "preparation": 5306,
      "billowing": 5307,
      "honey": 5308,
      "realizing": 5309,
      "dropping": 5310,
      "rises": 5311,
      "clustered": 5312,
      "guardian": 5313,
      "relief": 5314,
      "zanror": 5315,
      "cells": 5316,
      "exposed": 5317,
      "regardless": 5318,
      "dread": 5319,
      "offered": 5320,
      "fighter": 5321,
      "brac": 5322,
      "marvel": 5323,
      "gasp": 5324,
      "reward": 5325,
      "doll": 5326,
      "yel": 5327,
      "cake": 5328,
      "market": 5329,
      "lished": 5330,
      "concerned": 5331,
      "fen": 5332,
      "sack": 5333,
      "twin": 5334,
      "chunks": 5335,
      "aging": 5336,
      "tracts": 5337,
      "steam": 5338,
      "slept": 5339,
      "doubled": 5340,
      "bramble": 5341,
      "mysterious": 5342,
      "panting": 5343,
      "dramatic": 5344,
      "clicking": 5345,
      "decides": 5346,
      "expression": 5347,
      "uncanny": 5348,
      "bomb": 5349,
      "waterfall": 5350,
      "flat": 5351,
      "adding": 5352,
      "slee": 5353,
      "travels": 5354,
      "kern": 5355,
      "thorough": 5356,
      "capable": 5357,
      "courty": 5358,
      "fant": 5359,
      "absor": 5360,
      "posing": 5361,
      "groan": 5362,
      "volcano": 5363,
      "signing": 5364,
      "kicked": 5365,
      "hest": 5366,
      "wolves": 5367,
      "mortal": 5368,
      "shame": 5369,
      "shade": 5370,
      "drum": 5371,
      "gorn": 5372,
      "doctor": 5373,
      "forgotten": 5374,
      "blaze": 5375,
      "jammed": 5376,
      "syngorn": 5377,
      "deca": 5378,
      "puff": 5379,
      "affixed": 5380,
      "speech": 5381,
      "atory": 5382,
      "heated": 5383,
      "fuckers": 5384,
      "stayed": 5385,
      "physic": 5386,
      "mustache": 5387,
      "splat": 5388,
      "ids": 5389,
      "watches": 5390,
      "gunshot": 5391,
      "survivors": 5392,
      "lawmaster": 5393,
      "hint": 5394,
      "shave": 5395,
      "ference": 5396,
      "halt": 5397,
      "blocking": 5398,
      "patrons": 5399,
      "obsi": 5400,
      "cinder": 5401,
      "becoming": 5402,
      "lied": 5403,
      "defeat": 5404,
      "abs": 5405,
      "scor": 5406,
      "discussing": 5407,
      "introduce": 5408,
      "champion": 5409,
      "courtyard": 5410,
      "kash": 5411,
      "donate": 5412,
      "slay": 5413,
      "baham": 5414,
      "grunting": 5415,
      "enjoyed": 5416,
      "orcs": 5417,
      "bahamut": 5418,
      "febron": 5419,
      "showed": 5420,
      "creaking": 5421,
      "hunting": 5422,
      "bedroom": 5423,
      "freedom": 5424,
      "exhaust": 5425,
      "hap": 5426,
      "delight": 5427,
      "covers": 5428,
      "obsidian": 5429,
      "gence": 5430,
      "milit": 5431,
      "summoned": 5432,
      "vibrant": 5433,
      "civiliz": 5434,
      "york": 5435,
      "gang": 5436,
      "mmer": 5437,
      "hen": 5438,
      "enem": 5439,
      "altar": 5440,
      "worn": 5441,
      "spy": 5442,
      "protto": 5443,
      "vicious": 5444,
      "skinned": 5445,
      "palm": 5446,
      "required": 5447,
      "enemies": 5448,
      "trickfoot": 5449,
      "flickering": 5450,
      "escaped": 5451,
      "rifi": 5452,
      "igno": 5453,
      "basilis": 5454,
      "audio": 5455,
      "experim": 5456,
      "dope": 5457,
      "develo": 5458,
      "shoes": 5459,
      "appearing": 5460,
      "swear": 5461,
      "jer": 5462,
      "indi": 5463,
      "besides": 5464,
      "social": 5465,
      "advance": 5466,
      "broad": 5467,
      "blessed": 5468,
      "bane": 5469,
      "darting": 5470,
      "vou": 5471,
      "zied": 5472,
      "reme": 5473,
      "remon": 5474,
      "arf": 5475,
      "ceremon": 5476,
      "ppy": 5477,
      "understood": 5478,
      "guarded": 5479,
      "defensive": 5480,
      "satur": 5481,
      "diplo": 5482,
      "season": 5483,
      "simult": 5484,
      "apri": 5485,
      "leaping": 5486,
      "sacrifi": 5487,
      "etern": 5488,
      "gant": 5489,
      "download": 5490,
      "taller": 5491,
      "sections": 5492,
      "swallow": 5493,
      "tho": 5494,
      "theory": 5495,
      "slash": 5496,
      "slides": 5497,
      "paralyzed": 5498,
      "infernal": 5499,
      "root": 5500,
      "families": 5501,
      "frenzied": 5502,
      "looming": 5503,
      "saturday": 5504,
      "bind": 5505,
      "mary": 5506,
      "swell": 5507,
      "blu": 5508,
      "suspic": 5509,
      "camera": 5510,
      "lesson": 5511,
      "continued": 5512,
      "smack": 5513,
      "pict": 5514,
      "enjoying": 5515,
      "bang": 5516,
      "incant": 5517,
      "stealthily": 5518,
      "dripping": 5519,
      "ulner": 5520,
      "moonlight": 5521,
      "wast": 5522,
      "reroll": 5523,
      "simon": 5524,
      "artist": 5525,
      "grace": 5526,
      "trad": 5527,
      "gotcha": 5528,
      "blur": 5529,
      "stealing": 5530,
      "slips": 5531,
      "frustration": 5532,
      "assassin": 5533,
      "molten": 5534,
      "thax": 5535,
      "orthax": 5536,
      "uttering": 5537,
      "drifting": 5538,
      "ornna": 5539,
      "scoot": 5540,
      "buttons": 5541,
      "discovering": 5542,
      "fred": 5543,
      "oper": 5544,
      "thus": 5545,
      "inqui": 5546,
      "riders": 5547,
      "loves": 5548,
      "transition": 5549,
      "companions": 5550,
      "flower": 5551,
      "weigh": 5552,
      "wield": 5553,
      "forming": 5554,
      "aura": 5555,
      "bered": 5556,
      "became": 5557,
      "cases": 5558,
      "progre": 5559,
      "lance": 5560,
      "condition": 5561,
      "blazing": 5562,
      "strongjaw": 5563,
      "snarling": 5564,
      "bronze": 5565,
      "1d6": 5566,
      "iest": 5567,
      "account": 5568,
      "laught": 5569,
      "stored": 5570,
      "inspired": 5571,
      "private": 5572,
      "confident": 5573,
      "cof": 5574,
      "date": 5575,
      "ethere": 5576,
      "roars": 5577,
      "ambush": 5578,
      "storage": 5579,
      "keys": 5580,
      "tricks": 5581,
      "jumped": 5582,
      "languages": 5583,
      "incense": 5584,
      "changing": 5585,
      "sentinel": 5586,
      "ethereal": 5587,
      "39": 5588,
      "bank": 5589,
      "rp": 5590,
      "rift": 5591,
      "okir": 5592,
      "nevertheless": 5593,
      "senokir": 5594,
      "calam": 5595,
      "conjure": 5596,
      "bass": 5597,
      "dor": 5598,
      "kon": 5599,
      "chunk": 5600,
      "saun": 5601,
      "coughs": 5602,
      "public": 5603,
      "update": 5604,
      "lungs": 5605,
      "ited": 5606,
      "sting": 5607,
      "helia": 5608,
      "roar": 5609,
      "wharf": 5610,
      "reduce": 5611,
      "puzzle": 5612,
      "ophelia": 5613,
      "float": 5614,
      "freezing": 5615,
      "destination": 5616,
      "ret": 5617,
      "anders": 5618,
      "arcing": 5619,
      "meanwhile": 5620,
      "wald": 5621,
      "content": 5622,
      "selling": 5623,
      "loop": 5624,
      "vote": 5625,
      "ideas": 5626,
      "heals": 5627,
      "vices": 5628,
      "souls": 5629,
      "hooded": 5630,
      "reasonable": 5631,
      "weasel": 5632,
      "dump": 5633,
      "swar": 5634,
      "cance": 5635,
      "vesrah": 5636,
      "magn": 5637,
      "humans": 5638,
      "braz": 5639,
      "civilization": 5640,
      "nuts": 5641,
      "ables": 5642,
      "tune": 5643,
      "numbers": 5644,
      "ladder": 5645,
      "spectr": 5646,
      "hangs": 5647,
      "sweep": 5648,
      "instantly": 5649,
      "stormwind": 5650,
      "cruci": 5651,
      "deton": 5652,
      "backward": 5653,
      "spring": 5654,
      "tooma": 5655,
      "mainly": 5656,
      "paths": 5657,
      "ascend": 5658,
      "revealing": 5659,
      "scratch": 5660,
      "endeavor": 5661,
      "37": 5662,
      "bbles": 5663,
      "ya": 5664,
      "overhead": 5665,
      "disgust": 5666,
      "warhammer": 5667,
      "nights": 5668,
      "marking": 5669,
      "captured": 5670,
      "surviving": 5671,
      "brighter": 5672,
      "kynan": 5673,
      "folded": 5674,
      "bastard": 5675,
      "false": 5676,
      "hut": 5677,
      "jut": 5678,
      "mbles": 5679,
      "groon": 5680,
      "barrels": 5681,
      "sunbeam": 5682,
      "shallow": 5683,
      "unseen": 5684,
      "piles": 5685,
      "smiling": 5686,
      "chosen": 5687,
      "cups": 5688,
      "cum": 5689,
      "cous": 5690,
      "duty": 5691,
      "vom": 5692,
      "revenge": 5693,
      "ski": 5694,
      "torches": 5695,
      "embarr": 5696,
      "girls": 5697,
      "sniff": 5698,
      "trosten": 5699,
      "digging": 5700,
      "inspecting": 5701,
      "celebrate": 5702,
      "alcohol": 5703,
      "trostenwald": 5704,
      "bears": 5705,
      "lap": 5706,
      "tex": 5707,
      "discount": 5708,
      "cleared": 5709,
      "ref": 5710,
      "riad": 5711,
      "pect": 5712,
      "disappeared": 5713,
      "shown": 5714,
      "allows": 5715,
      "rac": 5716,
      "theater": 5717,
      "ropis": 5718,
      "dodeca": 5719,
      "entropis": 5720,
      "reddish": 5721,
      "angled": 5722,
      "largely": 5723,
      "descends": 5724,
      "explains": 5725,
      "balcony": 5726,
      "otic": 5727,
      "ware": 5728,
      "iture": 5729,
      "pained": 5730,
      "glaive": 5731,
      "coffee": 5732,
      "narrow": 5733,
      "lli": 5734,
      "bearing": 5735,
      "chas": 5736,
      "chose": 5737,
      "adjac": 5738,
      "silk": 5739,
      "hyen": 5740,
      "succeeded": 5741,
      "route": 5742,
      "record": 5743,
      "cock": 5744,
      "myriad": 5745,
      "backblaze": 5746,
      "shelves": 5747,
      "sheets": 5748,
      "pled": 5749,
      "maneu": 5750,
      "crossbows": 5751,
      "knights": 5752,
      "slot": 5753,
      "delive": 5754,
      "shri": 5755,
      "untouched": 5756,
      "shell": 5757,
      "fuge": 5758,
      "stealthing": 5759,
      "ulous": 5760,
      "tinkering": 5761,
      "pepperbox": 5762,
      "dess": 5763,
      "witch": 5764,
      "roaring": 5765,
      "iring": 5766,
      "maging": 5767,
      "mical": 5768,
      "shipping": 5769,
      "aww": 5770,
      "splits": 5771,
      "greyspine": 5772,
      "glyph": 5773,
      "fantasy": 5774,
      "flight": 5775,
      "mild": 5776,
      "vable": 5777,
      "orion": 5778,
      "homes": 5779,
      "attun": 5780,
      "planned": 5781,
      "minds": 5782,
      "curi": 5783,
      "entertain": 5784,
      "loosely": 5785,
      "defeated": 5786,
      "talented": 5787,
      "bacon": 5788,
      "ume": 5789,
      "relax": 5790,
      "tiger": 5791,
      "ushes": 5792,
      "guid": 5793,
      "placement": 5794,
      "charred": 5795,
      "sunset": 5796,
      "crap": 5797,
      "legit": 5798,
      "faced": 5799,
      "contained": 5800,
      "engaged": 5801,
      "designs": 5802,
      "gorge": 5803,
      "delivered": 5804,
      "guidance": 5805,
      "4th": 5806,
      "harm": 5807,
      "rear": 5808,
      "recovered": 5809,
      "pear": 5810,
      "shock": 5811,
      "osity": 5812,
      "thorns": 5813,
      "furniture": 5814,
      "knife": 5815,
      "physically": 5816,
      "fists": 5817,
      "rix": 5818,
      "ury": 5819,
      "sucking": 5820,
      "deser": 5821,
      "hurting": 5822,
      "feathers": 5823,
      "relationship": 5824,
      "calamity": 5825,
      "adjacent": 5826,
      "2nd": 5827,
      "detail": 5828,
      "smut": 5829,
      "deliver": 5830,
      "pissed": 5831,
      "dre": 5832,
      "lla": 5833,
      "esis": 5834,
      "vera": 5835,
      "appropri": 5836,
      "rele": 5837,
      "logy": 5838,
      "crashing": 5839,
      "added": 5840,
      "bowstring": 5841,
      "crackling": 5842,
      "suggestion": 5843,
      "graveyard": 5844,
      "monsters": 5845,
      "incantation": 5846,
      "vast": 5847,
      "burnt": 5848,
      "covering": 5849,
      "growl": 5850,
      "blasting": 5851,
      "subscribers": 5852,
      "gam": 5853,
      "costu": 5854,
      "cuts": 5855,
      "poisoned": 5856,
      "defend": 5857,
      "scattering": 5858,
      "merrow": 5859,
      "follows": 5860,
      "kinesis": 5861,
      "telekinesis": 5862,
      "disintegr": 5863,
      "snor": 5864,
      "towers": 5865,
      "stars": 5866,
      "chal": 5867,
      "amar": 5868,
      "proof": 5869,
      "matically": 5870,
      "dron": 5871,
      "intimidating": 5872,
      "ceive": 5873,
      "exits": 5874,
      "buck": 5875,
      "dawnfather": 5876,
      "artifact": 5877,
      "cabine": 5878,
      "crucible": 5879,
      "vig": 5880,
      "lifting": 5881,
      "upset": 5882,
      "mock": 5883,
      "curved": 5884,
      "treasure": 5885,
      "gnar": 5886,
      "brains": 5887,
      "divergence": 5888,
      "ado": 5889,
      "crush": 5890,
      "yank": 5891,
      "pure": 5892,
      "firbol": 5893,
      "wax": 5894,
      "magics": 5895,
      "striking": 5896,
      "assholes": 5897,
      "hulk": 5898,
      "schedu": 5899,
      "400": 5900,
      "gag": 5901,
      "hilt": 5902,
      "tan": 5903,
      "zon": 5904,
      "sequ": 5905,
      "wire": 5906,
      "maw": 5907,
      "dicks": 5908,
      "squalle": 5909,
      "snarls": 5910,
      "bouldergut": 5911,
      "accepted": 5912,
      "fifth": 5913,
      "simultaneously": 5914,
      "squalleater": 5915,
      "site": 5916,
      "arr": 5917,
      "sici": 5918,
      "bog": 5919,
      "essor": 5920,
      "mages": 5921,
      "practi": 5922,
      "footprints": 5923,
      "kicking": 5924,
      "professor": 5925,
      "lifted": 5926,
      "tattoos": 5927,
      "intricate": 5928,
      "practice": 5929,
      "wink": 5930,
      "wears": 5931,
      "deter": 5932,
      "ung": 5933,
      "terms": 5934,
      "pud": 5935,
      "monday": 5936,
      "landed": 5937,
      "obe": 5938,
      "los": 5939,
      "sigil": 5940,
      "neither": 5941,
      "icy": 5942,
      "nap": 5943,
      "partway": 5944,
      "interrup": 5945,
      "passive": 5946,
      "dealt": 5947,
      "platforms": 5948,
      "swipe": 5949,
      "related": 5950,
      "successful": 5951,
      "fash": 5952,
      "glit": 5953,
      "critmas": 5954,
      "suppor": 5955,
      "uded": 5956,
      "surrounds": 5957,
      "mantle": 5958,
      "reasons": 5959,
      "plain": 5960,
      "toe": 5961,
      "aloft": 5962,
      "liked": 5963,
      "dispe": 5964,
      "scimit": 5965,
      "voke": 5966,
      "friday": 5967,
      "flurry": 5968,
      "bows": 5969,
      "warriors": 5970,
      "exhaustion": 5971,
      "progress": 5972,
      "tops": 5973,
      "stealthed": 5974,
      "slur": 5975,
      "bis": 5976,
      "oz": 5977,
      "struck": 5978,
      "chairs": 5979,
      "tattered": 5980,
      "thumb": 5981,
      "stats": 5982,
      "encom": 5983,
      "achie": 5984,
      "rung": 5985,
      "bucket": 5986,
      "venture": 5987,
      "torture": 5988,
      "battled": 5989,
      "sinking": 5990,
      "sparks": 5991,
      "1d10": 5992,
      "lin": 5993,
      "lers": 5994,
      "rex": 5995,
      "stack": 5996,
      "shel": 5997,
      "compe": 5998,
      "ruzza": 5999
    },
    "merges": [
      "t h",
      "i n",
      "o u",
      "th e",
      "a n",
      "r e",
      "a t",
      "y ou",
      "o n",
      "in g",
      "t o",
      "i t",
      "e r",
      "l l",
      "i s",
      "an d",
      "s t",
      "h e",
      "o f",
      "a r",
      "o r",
      "e n",
      "l e",
      "s e",
      "a s",
      "th at",
      "v e",
      "w e",
      "m e",
      "n o",
      "b e",
      "r o",
      "g h",
      "k e",
      "g o",
      "a c",
      "a y",
      "a ll",
      "a l",
      "e s",
      "d o",
      "s o",
      "h a",
      "w h",
      "gh t",
      "g e",
      "r i",
      "l o",
      "e d",
      "l i",
      "d e",
      "f or",
      "w i",
      "l d",
      "o k",
      "v er",
      "th is",
      "t i",
      "l y",
      "ou t",
      "on e",
      "c an",
      "m a",
      "c h",
      "a re",
      "a d",
      "s h",
      "u n",
      "u t",
      "c o",
      "u p",
      "c e",
      "you r",
      "u r",
      "the re",
      "s i",
      "c k",
      "wi th",
      "no w",
      "i r",
      "en t",
      "y e",
      "ha ve",
      "m o",
      "a b",
      "wh at",
      "ac k",
      "ri ght",
      "d i",
      "se e",
      "u st",
      "p e",
      "t a",
      "ou n",
      "he re",
      "n e",
      "c a",
      "r a",
      "no t",
      "ou ld",
      "go ing",
      "u s",
      "a h",
      "f e",
      "p o",
      "the y",
      "g u",
      "b ut",
      "j ust",
      "i m",
      "th ing",
      "b o",
      "l a",
      "ye ah",
      "li ke",
      "h o",
      "w as",
      "so me",
      "oun d",
      "w ay",
      "the r",
      "ge t",
      "ok ay",
      "i f",
      "ar d",
      "t er",
      "m y",
      "all y",
      "o h",
      "an t",
      "c on",
      "lo ok",
      "ro m",
      "w n",
      "r y",
      "f rom",
      "an y",
      "k now",
      "b ack",
      "s he",
      "t e",
      "i on",
      "in d",
      "t s",
      "p er",
      "o d",
      "p l",
      "ver y",
      "u se",
      "w o",
      "h er",
      "f i",
      "ou gh",
      "d on",
      "a m",
      "ou r",
      "f o",
      "h is",
      "ti on",
      "h im",
      "i c",
      "in to",
      "p le",
      "i ll",
      "c he",
      "en d",
      "i d",
      "e p",
      "gu y",
      "s a",
      "the m",
      "ma ke",
      "f u",
      "s u",
      "w here",
      "a g",
      "ta ke",
      "it s",
      "ab out",
      "we ll",
      "q u",
      "ar t",
      "g r",
      "si de",
      "ur n",
      "do wn",
      "l it",
      "in k",
      "o ther",
      "t le",
      "p i",
      "w or",
      "w ant",
      "guy s",
      "wh o",
      "co me",
      "p p",
      "w ould",
      "o ver",
      "u m",
      "di d",
      "i ght",
      "y es",
      "at e",
      "t wo",
      "k ing",
      "v en",
      "g i",
      "po in",
      "the n",
      "re e",
      "r ough",
      "d a",
      "of f",
      "he ad",
      "ti me",
      "fe e",
      "t urn",
      "go od",
      "re d",
      "a in",
      "t r",
      "wh i",
      "ro ll",
      "co m",
      "e x",
      "m ent",
      "at ion",
      "w ard",
      "s s",
      "s ay",
      "d is",
      "in e",
      "at t",
      "b y",
      "ac t",
      "th rough",
      "s p",
      "ar ound",
      "ac e",
      "do es",
      "m an",
      "on g",
      "h as",
      "ma ge",
      "lit tle",
      "p ro",
      "c t",
      "s pe",
      "g ro",
      "p re",
      "be en",
      "le t",
      "a st",
      "ca use",
      "go t",
      "ou s",
      "i l",
      "th an",
      "d er",
      "it y",
      "wi ll",
      "p u",
      "it e",
      "th ink",
      "da mage",
      "b le",
      "ho w",
      "mo re",
      "b er",
      "w at",
      "re n",
      "st ill",
      "t ing",
      "se l",
      "l an",
      "la u",
      "u re",
      "be cause",
      "re st",
      "sh o",
      "ha d",
      "v ing",
      "ac h",
      "i g",
      "ro w",
      "re at",
      "che ck",
      "we re",
      "t al",
      "the ir",
      "h and",
      "n a",
      "t ry",
      "s c",
      "c ould",
      "sh ould",
      "e very",
      "t y",
      "ag ain",
      "t en",
      "r u",
      "es s",
      "m u",
      "fo re",
      "d y",
      "o m",
      "re ally",
      "s or",
      "a p",
      "b r",
      "be g",
      "o p",
      "k s",
      "lo w",
      "f ir",
      "gro g",
      "w a",
      "att ack",
      "ve s",
      "er s",
      "u ally",
      "be fore",
      "the se",
      "m ay",
      "ab le",
      "ne ed",
      "h it",
      "fir st",
      "d ay",
      "b it",
      "w he",
      "whi ch",
      "c lo",
      "t ra",
      "e st",
      "fu ck",
      "beg in",
      "ke d",
      "m s",
      "a th",
      "li ght",
      "sel f",
      "s to",
      "c l",
      "f ind",
      "look s",
      "b l",
      "p s",
      "bo dy",
      "pu ll",
      "o ple",
      "ar k",
      "pe ople",
      "d ra",
      "poin ts",
      "ke ep",
      "v i",
      "as s",
      "a ir",
      "mo ve",
      "a f",
      "re ad",
      "a k",
      "r un",
      "s m",
      "b u",
      "un der",
      "2 0",
      "ho ld",
      "se d",
      "whe n",
      "mo st",
      "v an",
      "ro om",
      "a way",
      "v a",
      "v o",
      "c ent",
      "me an",
      "c r",
      "ca st",
      "c ur",
      "some thing",
      "fee l",
      "fee t",
      "i ce",
      "n ing",
      "w al",
      "to ward",
      "g a",
      "p ut",
      "f t",
      "go es",
      "e l",
      "g on",
      "p art",
      "do or",
      "x t",
      "is h",
      "poin t",
      "m or",
      "mu ch",
      "i ck",
      "c ha",
      "any thing",
      "l ong",
      "look ing",
      "con d",
      "wa it",
      "le a",
      "o se",
      "c y",
      "r an",
      "to o",
      "m ber",
      "ren t",
      "th ree",
      "ne xt",
      "su re",
      "f r",
      "for m",
      "than k",
      "ha pp",
      "ke y",
      "ar s",
      "se cond",
      "toward s",
      "l ar",
      "s can",
      "h i",
      "ght er",
      "he l",
      "a head",
      "c i",
      "as h",
      "m p",
      "sh it",
      "may be",
      "scan lan",
      "la st",
      "se s",
      "b re",
      "te ll",
      "an g",
      "e ven",
      "al so",
      "bo th",
      "wat ch",
      "act ually",
      "op en",
      "b ab",
      "u e",
      "ac tion",
      "t ri",
      "st one",
      "f in",
      "thing s",
      "c or",
      "ro ss",
      "spe ll",
      "fu l",
      "lau ghter",
      "c tion",
      "st art",
      "c ity",
      "ve l",
      "ma g",
      "i es",
      "st e",
      "a ge",
      "a u",
      "gr ound",
      "o l",
      "fi re",
      "o t",
      "end s",
      "do ing",
      "lo t",
      "le s",
      "le th",
      "m on",
      "st and",
      "le d",
      "pl us",
      "v is",
      "e ver",
      "m in",
      "th ose",
      "an ce",
      "m is",
      "gi ve",
      "th row",
      "key leth",
      "g reat",
      "s ha",
      "o w",
      "per cy",
      "lau gh",
      "d ark",
      "be h",
      "w all",
      "si on",
      "ing s",
      "st ep",
      "hel p",
      "go d",
      "ta in",
      "beh ind",
      "sor ry",
      "or d",
      "af ter",
      "pi ke",
      "he ar",
      "be ing",
      "be t",
      "wat er",
      "pro bab",
      "probab ly",
      "le ft",
      "on ly",
      "h al",
      "s k",
      "d es",
      "whi le",
      "c ar",
      "to p",
      "h its",
      "va x",
      "happ en",
      "ke t",
      "f ace",
      "an other",
      "u al",
      "f ar",
      "ar y",
      "ad van",
      "i ous",
      "sh i",
      "b ig",
      "m er",
      "w ar",
      "ta ge",
      "ou ght",
      "f f",
      "con t",
      "t un",
      "f ri",
      "ac ross",
      "sm all",
      "read y",
      "mo ment",
      "n at",
      "s ing",
      "k ind",
      "advan tage",
      "s er",
      "pre t",
      "fe w",
      "p r",
      "dra gon",
      "wor d",
      "ca le",
      "did n",
      "ne w",
      "c reat",
      "a pp",
      "ic al",
      "i ld",
      "e t",
      "fi ve",
      "k ill",
      "gu ard",
      "a se",
      "pret ty",
      "wh y",
      "in s",
      "m ight",
      "l t",
      "cur rent",
      "fr on",
      "again st",
      "cale b",
      "he s",
      "ve x",
      "f ine",
      "1 5",
      "en ce",
      "f a",
      "fron t",
      "s ound",
      "ll y",
      "c re",
      "is e",
      "p ar",
      "n er",
      "v ent",
      "on ce",
      "com ing",
      "l ing",
      "ti c",
      "w er",
      "hal f",
      "le ss",
      "z e",
      "is t",
      "does n",
      "pl ace",
      "po s",
      "f all",
      "f our",
      "p or",
      "wo od",
      "pl an",
      "n ight",
      "be au",
      "j o",
      "st ay",
      "s ur",
      "fuck ing",
      "ma de",
      "th ough",
      "wor k",
      "na me",
      "e k",
      "se t",
      "ve d",
      "ce p",
      "ate ly",
      "ap pe",
      "h or",
      "g er",
      "c all",
      "t on",
      "c es",
      "with in",
      "e ach",
      "k en",
      "m any",
      "see ms",
      "ir d",
      "try ing",
      "re s",
      "creat ure",
      "ch ar",
      "re al",
      "d u",
      "per s",
      "come s",
      "go ld",
      "lar ge",
      "in side",
      "en ti",
      "b at",
      "current ly",
      "pl ay",
      "c le",
      "di re",
      "b ri",
      "f fe",
      "i ve",
      "e yes",
      "um p",
      "ran ge",
      "for ward",
      "b lo",
      "e ar",
      "ur al",
      "at ed",
      "en er",
      "d en",
      "c oun",
      "an s",
      "m ar",
      "b ad",
      "take s",
      "every one",
      "not t",
      "de ad",
      "clo se",
      "tr in",
      "wal k",
      "st u",
      "j ord",
      "l and",
      "m ind",
      "wh ite",
      "j est",
      "cr it",
      "s up",
      "f jord",
      "ne ver",
      "to r",
      "b on",
      "shi p",
      "ll ow",
      "trin ket",
      "en ough",
      "jest er",
      "bo ok",
      "use d",
      "me mber",
      "nat ural",
      "sa id",
      "t able",
      "m at",
      "co ol",
      "p ast",
      "b ar",
      "i de",
      "sho w",
      "si x",
      "lo ve",
      "begin s",
      "f un",
      "f am",
      "0 0",
      "el se",
      "ck s",
      "me di",
      "l s",
      "he al",
      "are n",
      "d r",
      "fo ot",
      "gi ant",
      "fam i",
      "n ice",
      "c at",
      "f l",
      "g re",
      "w on",
      "cont in",
      "gr ab",
      "a w",
      "al ready",
      "sor t",
      "part y",
      "sa me",
      "s low",
      "m ing",
      "c u",
      "br ing",
      "hi gh",
      "on d",
      "n or",
      "lea ve",
      "sa ving",
      "min ut",
      "pre s",
      "gr ou",
      "e ye",
      "t ree",
      "he d",
      "as k",
      "g l",
      "get s",
      "m id",
      "at ing",
      "er ing",
      "me d",
      "pi e",
      "qu ick",
      "qu i",
      "st ru",
      "b ro",
      "s la",
      "al most",
      "h un",
      "le ad",
      "bre ak",
      "st er",
      "man age",
      "in ter",
      "qu est",
      "f ly",
      "ar mor",
      "laugh s",
      "d one",
      "r ound",
      "dis t",
      "s it",
      "se en",
      "le vel",
      "we ek",
      "out side",
      "s un",
      "no thing",
      "way s",
      "ple ase",
      "bet ter",
      "grou p",
      "w r",
      "say s",
      "get ting",
      "tal k",
      "g y",
      "cha mber",
      "m ach",
      "h ard",
      "cent er",
      "m en",
      "li e",
      "ste al",
      "mag ic",
      "v al",
      "1 8",
      "e ight",
      "he a",
      "c ked",
      "dire ction",
      "e le",
      "hold ing",
      "bon us",
      "st ri",
      "im p",
      "1 9",
      "t re",
      "o wn",
      "th ought",
      "do w",
      "e vent",
      "c us",
      "g lan",
      "at te",
      "n ess",
      "cep tion",
      "st air",
      "di v",
      "che s",
      "c er",
      "s en",
      "li fe",
      "me s",
      "in a",
      "g n",
      "b urn",
      "ad d",
      "t ed",
      "1 2",
      "ne ar",
      "o ld",
      "re turn",
      "to wn",
      "every thing",
      "s y",
      "c ou",
      "fi ght",
      "s w",
      "it ion",
      "in ce",
      "c ess",
      "z ing",
      "3 0",
      "f ound",
      "hand s",
      "pers on",
      "wh is",
      "1 7",
      "ma king",
      "what ever",
      "fi gu",
      "p h",
      "as ha",
      "c ra",
      "blo od",
      "ar ing",
      "u d",
      "ch o",
      "ou d",
      "f lo",
      "qu ite",
      "ver n",
      "we l",
      "w ent",
      "s le",
      "on s",
      "1 6",
      "h our",
      "w in",
      "on to",
      "c al",
      "f la",
      "im medi",
      "pi ck",
      "bl ack",
      "are a",
      "um ber",
      "bu ild",
      "mach ina",
      "fo llow",
      "ic ally",
      "e ld",
      "ar row",
      "pu sh",
      "i lit",
      "st r",
      "be st",
      "he y",
      "ed ge",
      "ro le",
      "ex p",
      "in te",
      "bo w",
      "di ffe",
      "se ven",
      "d ro",
      "roll ed",
      "i us",
      "ca me",
      "ou se",
      "ti l",
      "crit ical",
      "sho t",
      "a we",
      "stu ff",
      "j e",
      "to ge",
      "toge ther",
      "s ince",
      "fri ends",
      "ter s",
      "be d",
      "y asha",
      "c li",
      "m ple",
      "v ar",
      "who le",
      "c ing",
      "ca p",
      "u ck",
      "cou ple",
      "enti re",
      "ye t",
      "it self",
      "u g",
      "ra in",
      "gon na",
      "sa w",
      "ru sh",
      "b la",
      "s l",
      "p ur",
      "k i",
      "quest ion",
      "f ur",
      "n ed",
      "h um",
      "s word",
      "e m",
      "tal king",
      "v or",
      "g one",
      "event ually",
      "re am",
      "c our",
      "ver s",
      "p at",
      "1 4",
      "cent r",
      "slow ly",
      "un til",
      "ma in",
      "ta king",
      "c la",
      "al ong",
      "vo ice",
      "n ine",
      "g ing",
      "ve st",
      "p ass",
      "fri end",
      "le ast",
      "ge d",
      "o b",
      "per ception",
      "c are",
      "h all",
      "ele ment",
      "we ap",
      "be y",
      "f an",
      "g no",
      "g th",
      "your self",
      "guard s",
      "stri ke",
      "up on",
      "fu ll",
      "ra p",
      "2 5",
      "move ment",
      "f ast",
      "ide a",
      "f ree",
      "d den",
      "bey ond",
      "pos si",
      "immedi ately",
      "b all",
      "c ro",
      "is on",
      "ton ight",
      "he ll",
      "diffe rent",
      "vo x",
      "al s",
      "un ch",
      "to ok",
      "n umber",
      "sel ves",
      "p ri",
      "de st",
      "we en",
      "v y",
      "v il",
      "awe some",
      "steal th",
      "su dden",
      "tra vel",
      "on es",
      "step s",
      "ga me",
      "time s",
      "inte rest",
      "fu lly",
      "app ro",
      "so on",
      "ar ch",
      "ha ven",
      "b us",
      "pp ing",
      "tr ue",
      "l at",
      "white stone",
      "re member",
      "1 3",
      "h ouse",
      "ou th",
      "ch an",
      "r ing",
      "por t",
      "ha ving",
      "ter ri",
      "bat tle",
      "po wer",
      "dr ink",
      "sh or",
      "turn s",
      "we ver",
      "ho wever",
      "imp act",
      "bet ween",
      "ur a",
      "stair s",
      "wel come",
      "1 1",
      "di e",
      "sh if",
      "g es",
      "ha ir",
      "co ve",
      "com ple",
      "ne l",
      "with out",
      "st ren",
      "wal king",
      "p a",
      "re ach",
      "i e",
      "ab o",
      "en e",
      "dist ance",
      "us ing",
      "le g",
      "stren gth",
      "c ir",
      "t w",
      "pp ed",
      "minut es",
      "see m",
      "t ary",
      "t ly",
      "si ve",
      "sto p",
      "ho me",
      "m oun",
      "p ing",
      "che d",
      "dis advantage",
      "it ch",
      "b a",
      "c ut",
      "o oh",
      "at es",
      "some one",
      "a ma",
      "t ent",
      "atte mp",
      "pull s",
      "de fin",
      "stand ing",
      "d ag",
      "vi ous",
      "sle ep",
      "bla de",
      "d am",
      "should er",
      "sen se",
      "ho pe",
      "one y",
      "he ard",
      "cour se",
      "k in",
      "mo ving",
      "ep is",
      "g ar",
      "s end",
      "2 1",
      "fami ly",
      "ener gy",
      "su b",
      "form ation",
      "every body",
      "bo t",
      "sa ve",
      "be lie",
      "ye p",
      "st ar",
      "cor ner",
      "div id",
      "f le",
      "say ing",
      "make s",
      "di ce",
      "hea vy",
      "te mple",
      "defin ite",
      "sp ir",
      "ar m",
      "bre a",
      "qu e",
      "ca mp",
      "any one",
      "ta ken",
      "run ning",
      "ca se",
      "i ther",
      "definite ly",
      "are d",
      "mo lly",
      "d war",
      "want ed",
      "d ri",
      "ilit y",
      "no ti",
      "even ing",
      "co l",
      "ga ther",
      "ro y",
      "appe ars",
      "abo ve",
      "gi ves",
      "figu re",
      "flo or",
      "we d",
      "d ang",
      "cove red",
      "vis i",
      "con sc",
      "me t",
      "si l",
      "o de",
      "co ver",
      "gro w",
      "hum an",
      "c it",
      "keep ing",
      "m att",
      "i or",
      "ig n",
      "vest ig",
      "d le",
      "won der",
      "l ad",
      "ou ble",
      "ti ber",
      "appe ar",
      "tiber ius",
      "p as",
      "in formation",
      "consc ious",
      "we ird",
      "spe c",
      "attack s",
      "to m",
      "s li",
      "m oney",
      "sa fe",
      "in divid",
      "de al",
      "b ur",
      "cat ch",
      "p ath",
      "g ener",
      "n i",
      "var ious",
      "mor ning",
      "right y",
      "f air",
      "pl at",
      "day s",
      "ct ed",
      "ama zing",
      "al ways",
      "epis ode",
      "st ra",
      "t ou",
      "ye ars",
      "for tun",
      "ac es",
      "ation s",
      "de ath",
      "h u",
      "e ither",
      "in ess",
      "pi re",
      "glan ce",
      "w is",
      "pe t",
      "cor re",
      "p ain",
      "si ght",
      "be ar",
      "v ic",
      "2 4",
      "b ag",
      "individ ual",
      "co ld",
      "w ound",
      "happen ed",
      "g ent",
      "l ine",
      "si gn",
      "ha m",
      "i z",
      "le ar",
      "li ve",
      "f li",
      "w ind",
      "mean s",
      "contin ue",
      "wo w",
      "do m",
      "ro ck",
      "si des",
      "noti ce",
      "belie ve",
      "de ep",
      "tion s",
      "qui et",
      "l is",
      "an n",
      "corre ct",
      "or n",
      "sp ace",
      "in vestig",
      "st range",
      "fi ll",
      "b ene",
      "g low",
      "fur ther",
      "sound s",
      "heal ing",
      "dest roy",
      "gu ess",
      "de x",
      "h ang",
      "ar wood",
      "co ll",
      "j ump",
      "vis ion",
      "bri arwood",
      "tun nel",
      "terri ble",
      "cer tain",
      "pie ces",
      "un fortun",
      "com m",
      "me tal",
      "k no",
      "ar can",
      "s am",
      "il ing",
      "dam n",
      "ro ad",
      "r is",
      "str ong",
      "mag ical",
      "my self",
      "2 2",
      "happ y",
      "th ird",
      "com p",
      "o ts",
      "bo at",
      "any way",
      "m b",
      "fr ump",
      "jo in",
      "sup er",
      "s ne",
      "che ering",
      "bus iness",
      "mid dle",
      "is n",
      "br ought",
      "frump kin",
      "m m",
      "ur ing",
      "su ch",
      "fami li",
      "call ed",
      "s me",
      "f ing",
      "pie ce",
      "s light",
      "c ad",
      "si c",
      "i ze",
      "che st",
      "u ce",
      "p ay",
      "u es",
      "il s",
      "manage d",
      "c ed",
      "hi de",
      "comple te",
      "mo ther",
      "i al",
      "br ings",
      "h ur",
      "at ive",
      "moun tain",
      "s ent",
      "pre vious",
      "than ks",
      "to wer",
      "per i",
      "unfortun ately",
      "b ly",
      "b last",
      "tr act",
      "j a",
      "wor ld",
      "bene ath",
      "dag ger",
      "m ark",
      "see ing",
      "fo l",
      "kill ed",
      "2 6",
      "stra ight",
      "2 3",
      "s po",
      "ar i",
      "s mo",
      "as ion",
      "att en",
      "sha dow",
      "sudden ly",
      "g un",
      "bo x",
      "cl oud",
      "a x",
      "ti ve",
      "was n",
      "bo y",
      "fall s",
      "quick ly",
      "weap on",
      "g as",
      "in t",
      "r m",
      "ac hes",
      "m i",
      "d ing",
      "con centr",
      "ch ing",
      "stru ct",
      "win dow",
      "ta st",
      "appro ach",
      "fin ish",
      "st ick",
      "gre en",
      "app aren",
      "shor t",
      "e as",
      "ma ster",
      "pi er",
      "b unch",
      "1 0",
      "di es",
      "su c",
      "sla m",
      "or der",
      "de c",
      "s pl",
      "bot tom",
      "under stand",
      "whis per",
      "cr ack",
      "watch ing",
      "dro p",
      "atten tion",
      "w ish",
      "wis dom",
      "s na",
      "be low",
      "ent er",
      "sk y",
      "ll s",
      "apparen tly",
      "d ouble",
      "b as",
      "bl ue",
      "m outh",
      "gi l",
      "act ual",
      "pro te",
      "no pe",
      "st ree",
      "gent le",
      "nor th",
      "po sed",
      "s wi",
      "ag es",
      "ann oun",
      "famili ar",
      "th ro",
      "ra ge",
      "g g",
      "o c",
      "exp lo",
      "s we",
      "s qu",
      "visi ble",
      "dang er",
      "ex cit",
      "build ing",
      "b ase",
      "re l",
      "clo ser",
      "bo lt",
      "te ch",
      "creature s",
      "ar ms",
      "ant s",
      "him self",
      "con vers",
      "spe ed",
      "gl ass",
      "in it",
      "char ac",
      "wait ing",
      "ki ma",
      "v as",
      "sne ak",
      "z y",
      "lat er",
      "spe ak",
      "hour s",
      "to ld",
      "lad y",
      "light ning",
      "all e",
      "beau ti",
      "minut e",
      "c art",
      "e ffe",
      "wor th",
      "ste ad",
      "ch ild",
      "bo l",
      "sing ing",
      "start ing",
      "p t",
      "col or",
      "ir t",
      "is hes",
      "happen ing",
      "element al",
      "bro ken",
      "sh out",
      "plan e",
      "ve c",
      "dragon s",
      "p it",
      "ci al",
      "investig ation",
      "h id",
      "dra w",
      "u l",
      "f re",
      "attemp t",
      "se arch",
      "b low",
      "le ap",
      "gu e",
      "l uck",
      "fan tast",
      "vec na",
      "s is",
      "wor king",
      "con st",
      "wo man",
      "b ra",
      "to tal",
      "ir on",
      "ment s",
      "sit ting",
      "cad uce",
      "b are",
      "m as",
      "an k",
      "caduce us",
      "t wi",
      "beauti ful",
      "f ain",
      "sp here",
      "ck ing",
      "k id",
      "at s",
      "happen s",
      "in y",
      "so l",
      "a go",
      "pro cess",
      "star ts",
      "any body",
      "pull ed",
      "fantast ic",
      "ne ck",
      "to ry",
      "sp on",
      "c ross",
      "ri es",
      "de vil",
      "e f",
      "k a",
      "convers ation",
      "sw ing",
      "lis ten",
      "head ing",
      "fly ing",
      "a king",
      "some body",
      "l ord",
      "sto ry",
      "to day",
      "would n",
      "r ad",
      "e ks",
      "f er",
      "re lea",
      "fe ct",
      "possi ble",
      "wi de",
      "book s",
      "door s",
      "k er",
      "w and",
      "un conscious",
      "hall way",
      "hell o",
      "in ed",
      "c ts",
      "sho ot",
      "ard s",
      "se a",
      "b al",
      "ash ing",
      "ser ies",
      "ir ts",
      "lea ving",
      "g ir",
      "sc ream",
      "bare ly",
      "nat ure",
      "pre p",
      "ca vern",
      "ear th",
      "u tion",
      "ta vern",
      "ter ing",
      "s ou",
      "car ry",
      "car pet",
      "mu sic",
      "gi ven",
      "end ing",
      "5 0",
      "me et",
      "re co",
      "pres ent",
      "mat er",
      "ha ps",
      "ne y",
      "ph y",
      "ge on",
      "f ac",
      "mon th",
      "tech n",
      "ure s",
      "fo rest",
      "want s",
      "th ick",
      "as on",
      "m ine",
      "fi er",
      "un dead",
      "inter ior",
      "shif t",
      "d ge",
      "per haps",
      "dra g",
      "c ri",
      "s n",
      "as ks",
      "g ra",
      "b its",
      "cl ar",
      "gener al",
      "ay er",
      "g rap",
      "m il",
      "tr ust",
      "li er",
      "nor m",
      "c ry",
      "fa ther",
      "ex act",
      "interest ing",
      "gi ving",
      "ho ly",
      "roll s",
      "b s",
      "no ise",
      "ent ran",
      "p us",
      "dex ter",
      "ac on",
      "spe ct",
      "dark ness",
      "them selves",
      "spell s",
      "wall s",
      "as su",
      "ham mer",
      "tre es",
      "dis cus",
      "is es",
      "it ual",
      "sm i",
      "il t",
      "init i",
      "la ura",
      "per ci",
      "perci val",
      "se es",
      "ar ri",
      "chan ge",
      "e mon",
      "de li",
      "wr ong",
      "ch ant",
      "land s",
      "lo c",
      "k ick",
      "fi eld",
      "dexter ity",
      "re cent",
      "some where",
      "excit ed",
      "o pp",
      "id ed",
      "z z",
      "put s",
      "for ce",
      "techn ically",
      "vo l",
      "lo st",
      "ne ath",
      "under neath",
      "t all",
      "ba sed",
      "arcan e",
      "wal ks",
      "begin ning",
      "j our",
      "o ked",
      "po ison",
      "spec if",
      "near by",
      "p es",
      "sur vi",
      "announ ce",
      "d ar",
      "he art",
      "ne in",
      "e mer",
      "a van",
      "ho le",
      "in st",
      "ga ve",
      "i an",
      "see ming",
      "he im",
      "lo ck",
      "d 6",
      "cast le",
      "cli mb",
      "e mp",
      "know s",
      "ro pe",
      "roll ing",
      "sy m",
      "wonder ful",
      "mo di",
      "d s",
      "ab ility",
      "there d",
      "wr it",
      "m ust",
      "am ong",
      "const it",
      "bur st",
      "gno me",
      "vas sel",
      "as p",
      "man sion",
      "sis ter",
      "vassel heim",
      "d uring",
      "war m",
      "you n",
      "sur round",
      "p ic",
      "cla w",
      "tr ans",
      "alle y",
      "constit ution",
      "h ar",
      "n y",
      "know n",
      "ax e",
      "e at",
      "cra zy",
      "d 8",
      "ack s",
      "o s",
      "vi e",
      "no tic",
      "com for",
      "u ll",
      "re aches",
      "bre ath",
      "o sh",
      "sk in",
      "u ght",
      "am p",
      "6 0",
      "fin al",
      "fain t",
      "we aring",
      "al ive",
      "pro ble",
      "ac ked",
      "mor row",
      "ble s",
      "fa vor",
      "p our",
      "open s",
      "cre w",
      "think ing",
      "he ld",
      "be ast",
      "wa ke",
      "t it",
      "4 0",
      "en coun",
      "wor ks",
      "tw itch",
      "bo dies",
      "fo cus",
      "o ta",
      "t ar",
      "jo y",
      "in es",
      "k ra",
      "pull ing",
      "du er",
      "to morrow",
      "u lar",
      "cep t",
      "gir l",
      "ex pe",
      "p ill",
      "po se",
      "might y",
      "effe ct",
      "duer gar",
      "ic s",
      "st re",
      "c row",
      "cle ar",
      "ge st",
      "st al",
      "exact ly",
      "in stead",
      "do ty",
      "si gh",
      "sla ms",
      "j aw",
      "feel ing",
      "s our",
      "centr al",
      "b ing",
      "smo ke",
      "reco gn",
      "sa ge",
      "ho t",
      "member s",
      "beg an",
      "hur t",
      "pier cing",
      "long er",
      "tou ch",
      "ro of",
      "fe ll",
      "d red",
      "jo b",
      "charac ter",
      "sto rm",
      "grap ple",
      "jour ney",
      "or tun",
      "entran ce",
      "opp ortun",
      "g ard",
      "push ing",
      "fla me",
      "ye ar",
      "hun dred",
      "tra vis",
      "follow ing",
      "p al",
      "par ti",
      "throw s",
      "gentle man",
      "ce ed",
      "ce iling",
      "ty pe",
      "d un",
      "fol ks",
      "wor ry",
      "da k",
      "sme ll",
      "k it",
      "individual s",
      "fo od",
      "w y",
      "pl aces",
      "we eks",
      "va il",
      "le y",
      "atte red",
      "a vail",
      "play ing",
      "res ist",
      "gr un",
      "cu lt",
      "modi fier",
      "lea ther",
      "sha pe",
      "pr ison",
      "sp end",
      "cl ust",
      "ear lier",
      "tic s",
      "l ate",
      "head s",
      "o st",
      "as king",
      "e red",
      "g s",
      "initi ative",
      "avan ti",
      "gil more",
      "en s",
      "lead s",
      "t u",
      "si mil",
      "mis ses",
      "th or",
      "simil ar",
      "en ed",
      "word s",
      "g ate",
      "avanti ka",
      "ad vent",
      "sk ull",
      "clar ota",
      "danger ous",
      "ro l",
      "is ts",
      "wound s",
      "bu y",
      "ca pe",
      "weap ons",
      "is hed",
      "th r",
      "dis covered",
      "f it",
      "possi bly",
      "per fect",
      "p ed",
      "ra ven",
      "run s",
      "avail able",
      "use s",
      "d c",
      "stand s",
      "s ke",
      "po tion",
      "opportun ity",
      "h one",
      "see med",
      "cro wn",
      "lo ad",
      "wi ld",
      "bu ilt",
      "ri ed",
      "in ten",
      "mis s",
      "sha ke",
      "a ks",
      "ess enti",
      "hone st",
      "d ry",
      "in ity",
      "ent ity",
      "concentr ation",
      "cap tain",
      "w ings",
      "oc c",
      "ho od",
      "lo cked",
      "in tell",
      "ex tra",
      "con f",
      "clo ak",
      "essenti ally",
      "d ust",
      "re ason",
      "cha in",
      "f act",
      "si ze",
      "i mag",
      "tary on",
      "f ro",
      "is ed",
      "ce ll",
      "b right",
      "je ct",
      "add ition",
      "2 8",
      "k new",
      "among st",
      "m us",
      "briarwood s",
      "tell s",
      "other s",
      "sur pr",
      "vie w",
      "contin ues",
      "can not",
      "complete ly",
      "z ed",
      "fing ers",
      "power ful",
      "burn ing",
      "previous ly",
      "m it",
      "door way",
      "l oud",
      "t iny",
      "low er",
      "led ge",
      "2 7",
      "slight ly",
      "cle an",
      "struct ure",
      "stay ing",
      "ll ing",
      "sur face",
      "in ing",
      "i ly",
      "grab s",
      "thro at",
      "li c",
      "sil ver",
      "in cl",
      "k y",
      "ter n",
      "s outh",
      "e per",
      "te e",
      "por tion",
      "whis pers",
      "coun t",
      "li am",
      "ke pt",
      "hun ter",
      "feel s",
      "pos ition",
      "d ru",
      "b and",
      "g if",
      "ch ance",
      "whisper ing",
      "pres ence",
      "t ally",
      "proble m",
      "ath le",
      "tr u",
      "te red",
      "most ly",
      "en chant",
      "gr ay",
      "o id",
      "ac id",
      "po p",
      "bl ing",
      "re ci",
      "cir c",
      "en joy",
      "rush ing",
      "end ed",
      "c ket",
      "a ign",
      "un less",
      "cont rol",
      "k ne",
      "quiet ly",
      "athle tics",
      "vic inity",
      "gas ps",
      "b orn",
      "ske let",
      "camp aign",
      "r or",
      "ra ther",
      "tri es",
      "hor se",
      "dwar f",
      "im port",
      "mat ter",
      "an im",
      "to tally",
      "h y",
      "ma le",
      "need s",
      "sing le",
      "p rom",
      "ri ous",
      "tra p",
      "em pire",
      "s ong",
      "ut e",
      "as ked",
      "tra ps",
      "ch at",
      "po ol",
      "ad es",
      "f y",
      "p y",
      "in sight",
      "eas y",
      "we a",
      "sigh s",
      "intell ig",
      "fin ishes",
      "qu ar",
      "destroy ed",
      "c ass",
      "cha ins",
      "fl ash",
      "shi eld",
      "a le",
      "pl ac",
      "twi ce",
      "b rain",
      "s co",
      "ro be",
      "li a",
      "tee th",
      "r ay",
      "sho o",
      "se ction",
      "sup posed",
      "in visible",
      "who osh",
      "spe cial",
      "it ies",
      "and ra",
      "pr of",
      "emp ty",
      "b ird",
      "ne cess",
      "cast ing",
      "o ce",
      "in spir",
      "be at",
      "lead er",
      "comm un",
      "seeming ly",
      "1 00",
      "tri ck",
      "is land",
      "gu lar",
      "sour ce",
      "fle sh",
      "sh all",
      "co ast",
      "ex peri",
      "e vil",
      "p an",
      "laugh ing",
      "or c",
      "app reci",
      "te am",
      "sk irts",
      "is ha",
      "r itual",
      "gre y",
      "hor n",
      "con ne",
      "check s",
      "si cal",
      "coll e",
      "occ asion",
      "addition al",
      "w ers",
      "re ve",
      "any more",
      "af f",
      "sho p",
      "op pos",
      "l as",
      "clo sed",
      "oce an",
      "pro per",
      "i th",
      "out skirts",
      "all ura",
      "fla mes",
      "sym bol",
      "g ers",
      "a po",
      "b ble",
      "bring ing",
      "div ine",
      "oppos ite",
      "parti ally",
      "who a",
      "bl ud",
      "tor so",
      "cass andra",
      "room s",
      "j es",
      "l ay",
      "got ten",
      "gl ad",
      "tal ies",
      "talies in",
      "pr one",
      "strike s",
      "cast s",
      "blud geon",
      "de f",
      "ra e",
      "hit ting",
      "a de",
      "stree t",
      "ch uck",
      "element s",
      "s aren",
      "mar isha",
      "se cre",
      "mo ves",
      "put ting",
      "st aff",
      "saren rae",
      "ke ts",
      "ca ught",
      "b one",
      "li es",
      "move d",
      "re action",
      "ag ree",
      "youn g",
      "or ig",
      "sto re",
      "o wed",
      "d 10",
      "entire ly",
      "lo oked",
      "s and",
      "li ft",
      "hor ri",
      "dist ant",
      "import ant",
      "glow ing",
      "in um",
      "hor ses",
      "find ing",
      "fight ing",
      "c ure",
      "i led",
      "comfor table",
      "relea se",
      "lear n",
      "cir cle",
      "d ed",
      "vo id",
      "ex it",
      "question s",
      "plat inum",
      "pu l",
      "dire ct",
      "cross bow",
      "ga thered",
      "sh ut",
      "human oid",
      "sc ri",
      "turn ed",
      "ac ts",
      "fi x",
      "coll ap",
      "de ck",
      "con tain",
      "bro ther",
      "hope fully",
      "wi l",
      "ss ing",
      "cre ep",
      "some times",
      "ta il",
      "bludgeon ing",
      "con tract",
      "re mind",
      "fe at",
      "sh ar",
      "que en",
      "is su",
      "tri ed",
      "fa il",
      "start ed",
      "conf used",
      "an ing",
      "bab y",
      "b ir",
      "de ed",
      "bl ind",
      "not e",
      "co in",
      "ce le",
      "te le",
      "open ing",
      "p unch",
      "be ard",
      "lear ned",
      "pa per",
      "plat form",
      "e ast",
      "norm al",
      "li d",
      "lar ger",
      "mis t",
      "ser ious",
      "b ite",
      "jes us",
      "pe l",
      "know ledge",
      "up per",
      "intellig ence",
      "h mm",
      "suc ceed",
      "dis gu",
      "men tion",
      "recent ly",
      "ex cept",
      "no body",
      "f fi",
      "b an",
      "st up",
      "coun ting",
      "hu h",
      "r um",
      "vi de",
      "ang ry",
      "b ility",
      "tell ing",
      "read ing",
      "bo ots",
      "bri ef",
      "i a",
      "w ise",
      "travel ing",
      "te st",
      "v ous",
      "of t",
      "u gh",
      "man ages",
      "phy sical",
      "z en",
      "iz ed",
      "apo lo",
      "a id",
      "s al",
      "dec ided",
      "me e",
      "or b",
      "his tory",
      "h at",
      "fre sh",
      "bu ll",
      "l f",
      "g en",
      "your selves",
      "recogn ize",
      "d 4",
      "swi m",
      "g lo",
      "pur ple",
      "th under",
      "sh irt",
      "return ed",
      "or s",
      "tal ks",
      "arrow s",
      "s ca",
      "v ine",
      "help ing",
      "de p",
      "dwar ven",
      "2 9",
      "le e",
      "as hes",
      "fe lt",
      "her self",
      "mis sing",
      "s on",
      "su m",
      "figu res",
      "sna ke",
      "me at",
      "leg s",
      "plac ed",
      "n one",
      "expe ct",
      "d ream",
      "st ab",
      "go li",
      "cl ut",
      "bas ically",
      "ner vous",
      "ur s",
      "am oun",
      "u h",
      "ar c",
      "tr ace",
      "hid den",
      "i ant",
      "di ed",
      "ci ent",
      "high er",
      "go bl",
      "st at",
      "assu me",
      "g le",
      "your s",
      "lea ves",
      "goli ath",
      "se ts",
      "ke g",
      "through out",
      "ion s",
      "cor p",
      "r up",
      "be come",
      "her o",
      "s at",
      "inspir ation",
      "glan cing",
      "ma p",
      "r at",
      "dr acon",
      "cl er",
      "advent ure",
      "b room",
      "al one",
      "shar p",
      "s now",
      "certain ly",
      "mater ial",
      "should ers",
      "r us",
      "ro cks",
      "d art",
      "g ain",
      "ear ly",
      "re gular",
      "stup id",
      "do re",
      "ent s",
      "re spon",
      "we st",
      "ex tre",
      "gr asp",
      "f ra",
      "im pres",
      "u sion",
      "en se",
      "mu l",
      "ci ally",
      "shout ing",
      "crown s",
      "ash ley",
      "re ck",
      "any where",
      "lit er",
      "name d",
      "car ved",
      "extre me",
      "build ings",
      "stree ts",
      "new s",
      "ball s",
      "ti ght",
      "p air",
      "not es",
      "fl u",
      "me mor",
      "po tions",
      "could n",
      "ro t",
      "ri ch",
      "for th",
      "s its",
      "lo ot",
      "s ink",
      "for ms",
      "cu rious",
      "stru ction",
      "me lee",
      "fe ar",
      "main tain",
      "dru id",
      "crow d",
      "no ises",
      "so lid",
      "cre ate",
      "g ri",
      "ari ly",
      "p ack",
      "in n",
      "explo sion",
      "per su",
      "sou l",
      "si r",
      "g ur",
      "h on",
      "hang ing",
      "i ed",
      "z ard",
      "lo se",
      "pus hed",
      "li ves",
      "prote ct",
      "dore i",
      "crowns guard",
      "st ones",
      "ac hed",
      "in cre",
      "u k",
      "si mple",
      "ug al",
      "vor ugal",
      "orig in",
      "f lan",
      "an na",
      "keep s",
      "j am",
      "mo tion",
      "give away",
      "hea vi",
      "ac les",
      "f low",
      "an cient",
      "c ard",
      "mis sion",
      "d ash",
      "kno ck",
      "apolo gi",
      "se par",
      "hold s",
      "par tic",
      "ser v",
      "fe y",
      "wr ite",
      "gu est",
      "ill s",
      "sc ry",
      "00 0",
      "t ro",
      "all ow",
      "pre par",
      "di g",
      "announce ments",
      "c rest",
      "appreci ate",
      "god s",
      "partic ular",
      "di ck",
      "po st",
      "li ving",
      "small er",
      "spo t",
      "circ um",
      "f ts",
      "month s",
      "squ are",
      "be a",
      "lan gu",
      "m ur",
      "g li",
      "com bat",
      "d run",
      "g ust",
      "res sed",
      "real ize",
      "mul ti",
      "p is",
      "de ar",
      "need ed",
      "pas ses",
      "vi ce",
      "interest ed",
      "i ent",
      "child ren",
      "amoun t",
      "li qu",
      "vis ual",
      "lo g",
      "wor ked",
      "h ug",
      "as ure",
      "cha se",
      "of fi",
      "ill usion",
      "st ance",
      "tr ack",
      "fi end",
      "imag ine",
      "ud ing",
      "si der",
      "prep are",
      "w ra",
      "u lt",
      "ps y",
      "ah lia",
      "st ream",
      "tri p",
      "aw are",
      "burn ed",
      "sw amp",
      "ilit ies",
      "o th",
      "we stru",
      "westru un",
      "lo ose",
      "suc cess",
      "me l",
      "fin ally",
      "contin u",
      "a void",
      "tr an",
      "old er",
      "er y",
      "ke v",
      "p per",
      "in c",
      "f ish",
      "th urs",
      "as c",
      "d 20",
      "know ing",
      "e ag",
      "or y",
      "fill ed",
      "sho ts",
      "glan ces",
      "com mon",
      "fun ny",
      "horri ble",
      "en ga",
      "return ing",
      "c il",
      "re main",
      "all en",
      "persu asion",
      "cat ches",
      "ren ce",
      "bu d",
      "e cho",
      "l ah",
      "ta ils",
      "ther n",
      "mo red",
      "sp in",
      "in ation",
      "es cape",
      "de ci",
      "cl u",
      "pri me",
      "pas sed",
      "throw ing",
      "prep ared",
      "leg end",
      "kid s",
      "wood en",
      "experi ence",
      "z o",
      "w ing",
      "smi le",
      "la w",
      "sp ent",
      "z ad",
      "do g",
      "ic es",
      "cr ate",
      "zad ash",
      "am mer",
      "in deed",
      "we ar",
      "fuck er",
      "mee ting",
      "int ro",
      "for get",
      "cl ass",
      "su g",
      "step ping",
      "th reat",
      "grun ts",
      "f ut",
      "ang le",
      "i er",
      "sl ashing",
      "l u",
      "some what",
      "spe aking",
      "deli lah",
      "ar mored",
      "re call",
      "up ward",
      "par ts",
      "ust r",
      "st y",
      "loc ation",
      "s que",
      "encoun tered",
      "disgu ise",
      "di ffi",
      "um ble",
      "tra de",
      "care ful",
      "s had",
      "la va",
      "kill ing",
      "gather ing",
      "thurs day",
      "deci de",
      "be am",
      "cho ose",
      "e ars",
      "n on",
      "dis tri",
      "if ic",
      "des cri",
      "liter ally",
      "om b",
      "fall ing",
      "i p",
      "for got",
      "attack ing",
      "light s",
      "re qui",
      "has n",
      "el ven",
      "sit u",
      "ab sol",
      "au di",
      "he at",
      "us ually",
      "notic ed",
      "y en",
      "an ge",
      "do dge",
      "g res",
      "i als",
      "des ign",
      "sun dry",
      "brea thing",
      "s ings",
      "t ure",
      "w ine",
      "ro bat",
      "ac robat",
      "mo on",
      "in ti",
      "sug gest",
      "l ist",
      "as ide",
      "var n",
      "spon sor",
      "ast e",
      "lat ive",
      "fol k",
      "el f",
      "s ad",
      "fing er",
      "we ren",
      "fe ast",
      "di an",
      "clust er",
      "a im",
      "p m",
      "kev dak",
      "issu e",
      "y ay",
      "z omb",
      "ge ek",
      "dis tract",
      "re lative",
      "extreme ly",
      "d ue",
      "ed ges",
      "writ ing",
      "gu ild",
      "r on",
      "ex ter",
      "ton gue",
      "ob ject",
      "u ri",
      "let ter",
      "re ma",
      "fall en",
      "d irt",
      "no se",
      "ca ge",
      "swe et",
      "fut ure",
      "th in",
      "lo ts",
      "all ies",
      "acrobat ics",
      "al d",
      "so ld",
      "es pe",
      "bo ard",
      "her d",
      "brea king",
      "espe cially",
      "wor st",
      "pi le",
      "bit ch",
      "l en",
      "no on",
      "um b",
      "ch allen",
      "tit an",
      "surpr ise",
      "sy ste",
      "inti mid",
      "gro ans",
      "tre ss",
      "direct ly",
      "gh ammer",
      "id ing",
      "down stairs",
      "off er",
      "com ic",
      "ans wer",
      "fli ck",
      "kra ghammer",
      "st un",
      "e ating",
      "ob vious",
      "sto ps",
      "w anna",
      "un e",
      "find s",
      "h ate",
      "s wo",
      "specif ically",
      "dag gers",
      "mis sed",
      "mater ials",
      "p en",
      "c and",
      "d an",
      "d ran",
      "ite ms",
      "char ge",
      "shif ting",
      "8 26",
      "ne cro",
      "ess ence",
      "sw ings",
      "m ut",
      "ye llow",
      "c up",
      "con sider",
      "le ans",
      "fe ed",
      "sc attered",
      "second s",
      "sl ayer",
      "er o",
      "gh ost",
      "carry ing",
      "claw s",
      "cra w",
      "bir th",
      "psy ch",
      "mes sage",
      "window s",
      "heavi ly",
      "v ill",
      "ru g",
      "th ous",
      "break fast",
      "cho ice",
      "thous and",
      "ne t",
      "pus hes",
      "re quest",
      "rad iant",
      "brea ks",
      "po cket",
      "de ception",
      "tun ne",
      "secre t",
      "spl it",
      "in vol",
      "up stairs",
      "reck less",
      "c ough",
      "li br",
      "moun t",
      "des c",
      "bro wn",
      "drun k",
      "liqu id",
      "great er",
      "des k",
      "re spect",
      "b or",
      "g gy",
      "s oft",
      "en sive",
      "tar get",
      "at tering",
      "se al",
      "f ist",
      "de tails",
      "pl ate",
      "action s",
      "the d",
      "ag re",
      "exter ior",
      "c tor",
      "fe male",
      "our selves",
      "pur pose",
      "ki ri",
      "ca ve",
      "ble ed",
      "sm art",
      "wy rm",
      "psych ic",
      "ta p",
      "re search",
      "hid ing",
      "ab ilities",
      "cont act",
      "sy las",
      "cra ft",
      "be ll",
      "necro tic",
      "b ye",
      "fan cy",
      "sc ar",
      "t end",
      "kra ken",
      "do cks",
      "ye lling",
      "br and",
      "coun ter",
      "sum mon",
      "du ck",
      "fair ly",
      "bea ure",
      "ap art",
      "under ground",
      "fu cked",
      "b ound",
      "ra id",
      "re g",
      "te m",
      "fo ld",
      "beaure gard",
      "wyrm wood",
      "of ten",
      "p ha",
      "cu l",
      "scream ing",
      "fr ustr",
      "char is",
      "who ever",
      "t at",
      "ok ing",
      "di ve",
      "gu ar",
      "should n",
      "sup port",
      "grapple d",
      "wor se",
      "van ish",
      "fun ction",
      "person al",
      "pour ing",
      "d m",
      "in spect",
      "whe ther",
      "hu ge",
      "dun ge",
      "he x",
      "as ses",
      "de eper",
      "drink s",
      "sa ved",
      "ou ch",
      "coun cil",
      "he ight",
      "distri ct",
      "m ir",
      "m ass",
      "st aring",
      "tr ouble",
      "flo ating",
      "ven ge",
      "p her",
      "slam ming",
      "inten se",
      "cele br",
      "ti e",
      "turn ing",
      "kno cked",
      "e z",
      "hear ing",
      "un i",
      "rad ius",
      "c as",
      "cha ir",
      "p un",
      "wand ering",
      "ash ari",
      "legend ary",
      "specif ic",
      "resist ance",
      "cloud s",
      "near ly",
      "dragon born",
      "m ask",
      "bo om",
      "s cho",
      "j u",
      "sc ared",
      "re r",
      "wa ve",
      "c ru",
      "c ards",
      "di am",
      "su ff",
      "diam ond",
      "moment s",
      "tunne ls",
      "as sho",
      "af fe",
      "clo ses",
      "incl uding",
      "van ishes",
      "b ast",
      "ho ping",
      "syste m",
      "ch in",
      "um at",
      "absol ute",
      "te ar",
      "d ressed",
      "k n",
      "neck l",
      "g an",
      "ne st",
      "to y",
      "p ir",
      "occasion ally",
      "sty le",
      "st i",
      "pass ing",
      "un able",
      "fi l",
      "r ise",
      "z ig",
      "ac le",
      "uri el",
      "drink ing",
      "dy ing",
      "v it",
      "ti es",
      "tru th",
      "gr and",
      "see k",
      "rich ter",
      "mountain s",
      "po or",
      "con side",
      "tra ve",
      "shadow s",
      "mas sive",
      "conside red",
      "lead ing",
      "cli ff",
      "da wn",
      "g ree",
      "ro lo",
      "ri ple",
      "sub scri",
      "riple y",
      "f aces",
      "s pi",
      "lo cal",
      "est ab",
      "k ward",
      "ly ing",
      "dunge ons",
      "under water",
      "m ble",
      "ter rain",
      "j ud",
      "we ak",
      "relative ly",
      "gu ide",
      "tor ch",
      "bud dy",
      "b ars",
      "dis si",
      "diffi cult",
      "wat ched",
      "me ant",
      "ac cent",
      "surround ing",
      "hun t",
      "libr ary",
      "se ver",
      "favor ite",
      "sha re",
      "respon si",
      "k is",
      "langu age",
      "hand le",
      "3 2",
      "f ought",
      "n d",
      "la in",
      "incre di",
      "i en",
      "help ed",
      "shi ps",
      "mat ic",
      "fire ball",
      "gobl in",
      "s ac",
      "stair case",
      "si ck",
      "sto r",
      "t t",
      "co re",
      "spec tive",
      "re w",
      "are as",
      "discus s",
      "re sp",
      "r ings",
      "fe llow",
      "ar ti",
      "ac ti",
      "sp read",
      "aw kward",
      "sc rap",
      "big ger",
      "mar ks",
      "thor dak",
      "ri d",
      "l ish",
      "ra ging",
      "gr in",
      "hal ved",
      "r and",
      "conscious ness",
      "b ath",
      "name s",
      "f al",
      "con v",
      "por tal",
      "ver se",
      "pe e",
      "min us",
      "norm ally",
      "c ab",
      "z ero",
      "ke s",
      "att acked",
      "half ling",
      "ca using",
      "con gr",
      "cur se",
      "un k",
      "af raid",
      "an e",
      "at ter",
      "ad or",
      "sup p",
      "de mon",
      "co st",
      "prof ic",
      "check ing",
      "sleep ing",
      "bot tle",
      "luck y",
      "in tent",
      "am ent",
      "pay ing",
      "enchant ment",
      "c kets",
      "t reat",
      "at er",
      "win ner",
      "pas sage",
      "scho ol",
      "ma d",
      "mother fucker",
      "ri ver",
      "thro wn",
      "po w",
      "tor s",
      "situ ation",
      "charis ma",
      "t ues",
      "me ss",
      "gra ve",
      "sh irts",
      "fire s",
      "peri od",
      "wh ack",
      "kind a",
      "pr oud",
      "cler ic",
      "di men",
      "dimen sion",
      "pa id",
      "fi ed",
      "x im",
      "cha os",
      "u ff",
      "robe s",
      "we ight",
      "tra m",
      "comp an",
      "b en",
      "po lit",
      "th y",
      "the s",
      "te a",
      "gno ll",
      "sign ed",
      "devil s",
      "te mp",
      "pick ing",
      "multi ple",
      "hundred s",
      "s an",
      "ex ha",
      "on ed",
      "us k",
      "p in",
      "p ent",
      "ses sion",
      "th read",
      "chan nel",
      "g ut",
      "n al",
      "ple asure",
      "ga mes",
      "tou ched",
      "be ach",
      "tra ining",
      "ring ton",
      "de te",
      "immedi ate",
      "f ting",
      "vi br",
      "zig gur",
      "sp it",
      "i oun",
      "a v",
      "stu ck",
      "v am",
      "fore ver",
      "bri dge",
      "gif t",
      "sp ark",
      "sa il",
      "grow ing",
      "zomb ie",
      "plan s",
      "real m",
      "necess arily",
      "no d",
      "love ly",
      "dar rington",
      "sto ck",
      "tele port",
      "f ru",
      "wal ked",
      "shoo ter",
      "be lt",
      "be comes",
      "ab and",
      "be ad",
      "ent ry",
      "fey wild",
      "p ac",
      "st ate",
      "sp id",
      "re li",
      "vis it",
      "sever al",
      "b ould",
      "sp or",
      "3 1",
      "ex c",
      "re ss",
      "ust ed",
      "dracon ia",
      "emer ge",
      "intro du",
      "wood s",
      "re tri",
      "che n",
      "n ers",
      "are s",
      "ho st",
      "b end",
      "al though",
      "ant ly",
      "gro aning",
      "discus sion",
      "skelet ons",
      "obvious ly",
      "rema ins",
      "ac y",
      "li ved",
      "but ton",
      "tal ked",
      "shad y",
      "pre vent",
      "rain ed",
      "dri ed",
      "ex is",
      "blow s",
      "scream s",
      "ziggur at",
      "i zing",
      "am ing",
      "du ll",
      "sharp shooter",
      "d ent",
      "l ou",
      "char ity",
      "ch ang",
      "ward s",
      "c lan",
      "eld er",
      "send ing",
      "i gh",
      "bl ink",
      "clu b",
      "corp se",
      "ind er",
      "play ed",
      "commun ity",
      "for ge",
      "vi a",
      "bar rel",
      "cli ck",
      "pal ace",
      "prom ise",
      "memor y",
      "on y",
      "sca les",
      "in ner",
      "table s",
      "gr ass",
      "pi cks",
      "dis tr",
      "chuck les",
      "clut ching",
      "close st",
      "tr acks",
      "hon or",
      "s sed",
      "pl ant",
      "fa ils",
      "bri e",
      "v alley",
      "ri e",
      "vo ices",
      "i mage",
      "at or",
      "ster n",
      "estab lish",
      "foot steps",
      "le an",
      "will ing",
      "ge m",
      "red u",
      "brie fly",
      "sil ence",
      "er ie",
      "fle e",
      "co de",
      "ble ssing",
      "hand ed",
      "big by",
      "arri ved",
      "tues day",
      "b t",
      "tat too",
      "ti ed",
      "separ ate",
      "c ree",
      "at ters",
      "fe a",
      "sto ries",
      "p ace",
      "rest ed",
      "care fully",
      "3 5",
      "appe ared",
      "circum stance",
      "rough ly",
      "pow der",
      "me al",
      "dis cover",
      "m r",
      "sn ar",
      "do ck",
      "pe ek",
      "go sh",
      "ha ste",
      "shif ts",
      "eag le",
      "congr at",
      "ins pire",
      "neckl ace",
      "shit ty",
      "eas ily",
      "north ward",
      "quar ters",
      "fo g",
      "visi bility",
      "twi ggy",
      "comp any",
      "charac ters",
      "pill ars",
      "wor ried",
      "mu d",
      "hea led",
      "fro zen",
      "er n",
      "all ic",
      "mon ster",
      "pel or",
      "se ll",
      "ke eper",
      "kit chen",
      "ent ered",
      "con struction",
      "pro du",
      "every where",
      "tra pped",
      "br an",
      "anim al",
      "n ast",
      "an ces",
      "ex ist",
      "invol ved",
      "d ad",
      "op s",
      "rus hes",
      "s us",
      "rest ing",
      "vi ol",
      "z es",
      "cor d",
      "mi les",
      "some how",
      "um n",
      "wy vern",
      "kne e",
      "sub ter",
      "set ting",
      "ten sion",
      "dro ps",
      "cry stal",
      "reve al",
      "absolute ly",
      "ye ll",
      "finish ing",
      "con su",
      "writ ten",
      "i o",
      "n es",
      "giant s",
      "bus y",
      "arcan a",
      "in ct",
      "pu b",
      "c tive",
      "ri de",
      "ent ly",
      "s pire",
      "m al",
      "me ter",
      "encoun ter",
      "im m",
      "dra wn",
      "spir itual",
      "retri e",
      "e qui",
      "ous ly",
      "smo oth",
      "congrat ul",
      "sp ray",
      "ang ri",
      "comple ted",
      "prepar ing",
      "do min",
      "f ades",
      "we t",
      "id enti",
      "range d",
      "mo m",
      "bon es",
      "war ri",
      "met allic",
      "en ing",
      "ra h",
      "week end",
      "o il",
      "fa iled",
      "es cap",
      "aw ful",
      "challen ge",
      "t roll",
      "re si",
      "spo ke",
      "spid er",
      "ru b",
      "dark ened",
      "honest ly",
      "tri be",
      "vi al",
      "road s",
      "ja medi",
      "u log",
      "think s",
      "burst s",
      "distr action",
      "ac tive",
      "min es",
      "au to",
      "hero es",
      "incredi ble",
      "angri ly",
      "ri c",
      "gno lls",
      "mus c",
      "826 la",
      "spir al",
      "g al",
      "sho ve",
      "cut ting",
      "congratul ations",
      "where ver",
      "sha pes",
      "t our",
      "lo ren",
      "um bles",
      "br on",
      "bar ri",
      "pic ked",
      "loren zo",
      "if f",
      "te xt",
      "ild an",
      "nast y",
      "p ants",
      "last s",
      "after noon",
      "dro pped",
      "comm and",
      "el s",
      "dwar ves",
      "v ines",
      "gener ally",
      "j oh",
      "bl ades",
      "d ance",
      "but t",
      "in flu",
      "al gar",
      "my ster",
      "bri an",
      "serious ly",
      "fin ished",
      "fro st",
      "ent ities",
      "mu ff",
      "show s",
      "j or",
      "ra ish",
      "per spective",
      "fo c",
      "tw ins",
      "y er",
      "up d",
      "ak y",
      "is m",
      "le ep",
      "as leep",
      "ru les",
      "raish an",
      "show ing",
      "e v",
      "al ter",
      "pre ss",
      "climb ing",
      "ac qui",
      "ho ok",
      "th ar",
      "lan tern",
      "b ill",
      "er t",
      "hun g",
      "listen ing",
      "g ates",
      "hel ps",
      "bol ts",
      "x hor",
      "re gard",
      "je ez",
      "other wise",
      "necess ary",
      "as y",
      "um ps",
      "bar bar",
      "t ab",
      "point ed",
      "return s",
      "t ink",
      "ra ised",
      "imp acts",
      "bould er",
      "po t",
      "sc roll",
      "creep y",
      "xhor has",
      "e an",
      "re comm",
      "ran ean",
      "du de",
      "subter ranean",
      "co at",
      "see king",
      "te ach",
      "temp or",
      "p age",
      "w inter",
      "clo th",
      "sli de",
      "fli es",
      "shoo ting",
      "pac ific",
      "hand ful",
      "kne es",
      "c ate",
      "se at",
      "po ses",
      "br ass",
      "trave led",
      "as sa",
      "pi red",
      "hi red",
      "h in",
      "con cer",
      "sho re",
      "p ouch",
      "la ke",
      "j un",
      "w rap",
      "it al",
      "con cla",
      "gno mes",
      "fea ther",
      "concla ve",
      "b lan",
      "loc ate",
      "redu ced",
      "l ves",
      "be acon",
      "origin ally",
      "critical role",
      "chamber s",
      "k night",
      "re pair",
      "ro gue",
      "pill ar",
      "li mit",
      "20 0",
      "exc use",
      "at ure",
      "stat ue",
      "wil hand",
      "tri g",
      "leap s",
      "gr as",
      "we b",
      "ite m",
      "it es",
      "ra ise",
      "stre t",
      "qu al",
      "sup pose",
      "pri est",
      "stone work",
      "car ts",
      "is ing",
      "li mp",
      "cal m",
      "mention ed",
      "birth day",
      "ble ss",
      "ow l",
      "b un",
      "ti p",
      "p umat",
      "t ur",
      "all owed",
      "co cked",
      "gold en",
      "reach ing",
      "e man",
      "t ask",
      "for tress",
      "let ting",
      "cu lar",
      "suff er",
      "damage d",
      "attemp ts",
      "f ren",
      "j ag",
      "ho p",
      "j are",
      "ra vine",
      "wor ship",
      "fac ing",
      "mus cle",
      "tri al",
      "des ig",
      "land ing",
      "je wel",
      "thank fully",
      "ri p",
      "bow l",
      "supp lies",
      "in visibility",
      "beast s",
      "shake s",
      "vide o",
      "ok en",
      "like s",
      "o g",
      "ma st",
      "g ap",
      "cut e",
      "fru it",
      "it ter",
      "cla im",
      "dun geon",
      "k ay",
      "pr in",
      "mar qu",
      "sp r",
      "mir ror",
      "clo ck",
      "cor rup",
      "p ound",
      "in ch",
      "ac cep",
      "bull shit",
      "h m",
      "as ing",
      "ass ist",
      "musc les",
      "ele ct",
      "swi r",
      "gu iding",
      "sme lls",
      "tran spor",
      "assho le",
      "sp ill",
      "dark vision",
      "clo thes",
      "be hold",
      "ha rel",
      "co ins",
      "con ven",
      "str ing",
      "thr one",
      "adventure r",
      "enga ge",
      "jare tt",
      "in ches",
      "sy n",
      "ver sion",
      "em bed",
      "do lan",
      "burn s",
      "chan ged",
      "drag ged",
      "pur chase",
      "wil de",
      "ma jor",
      "sc ent",
      "aband oned",
      "so ci",
      "un comfortable",
      "apologi ze",
      "sho ots",
      "ru bble",
      "ser vice",
      "drag ging",
      "y ard",
      "ac he",
      "ke en",
      "al pha",
      "hal a",
      "b ard",
      "vi li",
      "exis ten",
      "as um",
      "creat ed",
      "stay s",
      "pat tern",
      "de cent",
      "guest s",
      "con fli",
      "don ated",
      "too ls",
      "v ity",
      "end less",
      "out er",
      "appro aches",
      "wonder ing",
      "ree f",
      "amp hala",
      "remain ing",
      "use ful",
      "color s",
      "conne ction",
      "per for",
      "gl asses",
      "d usk",
      "whis pe",
      "concentr ate",
      "th ud",
      "ill ith",
      "pri ce",
      "dar ts",
      "wilde mount",
      "illith id",
      "sor ts",
      "sto od",
      "prote ction",
      "sym bo",
      "5 00",
      "ar my",
      "ve re",
      "fe sti",
      "po ly",
      "join ing",
      "announce ment",
      "le ts",
      "um bling",
      "sc en",
      "brea the",
      "wo lf",
      "b am",
      "o gre",
      "cl asp",
      "ti red",
      "co w",
      "ch ick",
      "search ing",
      "gres sive",
      "sc rat",
      "te ars",
      "blo ck",
      "audi ence",
      "b rush",
      "glo om",
      "yen k",
      "s cale",
      "tor n",
      "sou thern",
      "h an",
      "ma th",
      "op posed",
      "ci vili",
      "mar ked",
      "ar med",
      "im it",
      "existen ce",
      "cur l",
      "ob je",
      "kno cking",
      "stun ned",
      "m ace",
      "gr it",
      "god damn",
      "fac ts",
      "ien cy",
      "con fi",
      "crit ters",
      "affe cted",
      "es cor",
      "li zard",
      "hy dra",
      "le aky",
      "com b",
      "sp ine",
      "plan k",
      "pain t",
      "expe cted",
      "br ace",
      "bu l",
      "grow ls",
      "d up",
      "we bs",
      "can t",
      "15 0",
      "bleed ing",
      "p aren",
      "stealth y",
      "she pher",
      "hel met",
      "8 0",
      "po ckets",
      "travel er",
      "kay lie",
      "x ie",
      "th al",
      "che er",
      "ten ti",
      "clo thing",
      "dete ct",
      "g or",
      "back s",
      "att ached",
      "tent acles",
      "strange ly",
      "symbo ls",
      "m n",
      "dis appears",
      "u sh",
      "in no",
      "diffe rence",
      "b ay",
      "sna p",
      "to w",
      "horn s",
      "a wake",
      "c one",
      "u ti",
      "shepher ds",
      "pe ace",
      "ho les",
      "she lf",
      "got ta",
      "gg les",
      "pic ture",
      "the me",
      "li fts",
      "ir ty",
      "car ni",
      "catch ing",
      "jag ged",
      "u red",
      "she er",
      "crit role",
      "p up",
      "sh r",
      "af fect",
      "mis take",
      "col umn",
      "agre ed",
      "colle ct",
      "def ense",
      "p ment",
      "fo ster",
      "pur poses",
      "hu l",
      "dec is",
      "wand er",
      "z ah",
      "gr ate",
      "pre fer",
      "run es",
      "function al",
      "zah ra",
      "cha ined",
      "contin ent",
      "ob sc",
      "crack s",
      "ro ots",
      "resp ond",
      "poly mor",
      "a ked",
      "w end",
      "an ti",
      "po tenti",
      "swe at",
      "shout s",
      "e ts",
      "re lie",
      "de red",
      "ex t",
      "sc out",
      "perfor man",
      "ru in",
      "collap sed",
      "fast er",
      "ti ef",
      "sp ar",
      "whe never",
      "tief ling",
      "b oun",
      "f right",
      "po of",
      "lear ning",
      "si zed",
      "ru ined",
      "ang er",
      "ser ve",
      "fa ith",
      "four th",
      "pat ient",
      "responsi ble",
      "od es",
      "lad ies",
      "de cor",
      "sha king",
      "par ch",
      "b ought",
      "stick s",
      "cell ar",
      "recomm end",
      "festi val",
      "ri cal",
      "po d",
      "mer ch",
      "mi le",
      "r ist",
      "or ange",
      "carni val",
      "for t",
      "fr ay",
      "exp ensive",
      "fix ed",
      "f ate",
      "che ers",
      "help ful",
      "tu red",
      "ma il",
      "ce i",
      "ten se",
      "vers us",
      "ch rist",
      "wo ke",
      "grow s",
      "tra il",
      "figu red",
      "anim als",
      "desig ned",
      "pa le",
      "corp ses",
      "muff led",
      "good s",
      "gun s",
      "spe aks",
      "sk ill",
      "mar ius",
      "gent ly",
      "sp ins",
      "youn ger",
      "impres sive",
      "influ ence",
      "u ary",
      "as hed",
      "cree k",
      "ll owed",
      "sha k",
      "nor thern",
      "3 3",
      "v ate",
      "sc ary",
      "se x",
      "la ir",
      "con struct",
      "inst inct",
      "at mo",
      "open ed",
      "along side",
      "kis s",
      "d inner",
      "m ate",
      "sto pped",
      "grab bing",
      "shor thal",
      "deal ing",
      "li p",
      "wi fe",
      "ind ing",
      "har vest",
      "gust av",
      "d ou",
      "pill ow",
      "craw l",
      "rand om",
      "al y",
      "now here",
      "ex per",
      "bu ried",
      "i di",
      "sc ra",
      "boy s",
      "shak aste",
      "t in",
      "fl ayer",
      "tent acle",
      "mi x",
      "kid ding",
      "arti facts",
      "ma uk",
      "molly mauk",
      "remind er",
      "w ro",
      "continu ing",
      "st age",
      "ed ition",
      "are r",
      "heal th",
      "bas ic",
      "ar ament",
      "dis pel",
      "half way",
      "real ized",
      "sword s",
      "toy a",
      "arament e",
      "u ghter",
      "sa ke",
      "su ck",
      "da ughter",
      "iz on",
      "the ast",
      "ac tic",
      "vol can",
      "identi fy",
      "wro te",
      "as se",
      "requi re",
      "bill ow",
      "assa ult",
      "ut s",
      "di p",
      "ra k",
      "str on",
      "gg le",
      "tit le",
      "wra pped",
      "y or",
      "sh im",
      "dis appear",
      "cha mp",
      "tw itter",
      "barbar ian",
      "con stru",
      "ic ked",
      "ple s",
      "stair way",
      "lou der",
      "behold er",
      "play ers",
      "vic tory",
      "grey skull",
      "i ers",
      "sli p",
      "reli g",
      "to ss",
      "she et",
      "rap id",
      "echo ing",
      "in ward",
      "bar r",
      "ris ing",
      "h ou",
      "i ence",
      "ad ed",
      "wound ed",
      "si g",
      "te aring",
      "tu be",
      "ab y",
      "spl ash",
      "surround ed",
      "pro v",
      "smi les",
      "east ern",
      "an vil",
      "car ve",
      "call ing",
      "fla ming",
      "dri ft",
      "survi val",
      "foc used",
      "de fe",
      "ch ill",
      "sh as",
      "call s",
      "entire ty",
      "rak shas",
      "s wall",
      "or gan",
      "bo o",
      "rest rained",
      "serv ants",
      "dran as",
      "hung ry",
      "re mn",
      "to va",
      "st ed",
      "ve lo",
      "ye lls",
      "pi es",
      "b i",
      "j ug",
      "th rew",
      "spir it",
      "profic iency",
      "do me",
      "der s",
      "ga un",
      "cir cus",
      "barri er",
      "cit ies",
      "s ut",
      "w aste",
      "iz es",
      "pul se",
      "e mber",
      "dark er",
      "gre w",
      "off ers",
      "pro mo",
      "gro o",
      "investig ate",
      "distract ed",
      "m ish",
      "ne g",
      "su it",
      "car ri",
      "fill s",
      "stre aks",
      "dan cing",
      "g la",
      "ri di",
      "fo llowed",
      "bad ass",
      "shorthal t",
      "ridi cul",
      "ground s",
      "sun light",
      "establish ment",
      "og den",
      "event s",
      "hell s",
      "whispe red",
      "sh h",
      "play er",
      "we stern",
      "pro ve",
      "intimid ation",
      "venge ance",
      "me chan",
      "direction s",
      "emer ges",
      "r itch",
      "le aning",
      "for ces",
      "one l",
      "op y",
      "wea ther",
      "inno cent",
      "pe pper",
      "if y",
      "ex am",
      "set tle",
      "hor izon",
      "t ug",
      "est ate",
      "bu sh",
      "appear ance",
      "base ment",
      "marqu et",
      "c ine",
      "ta ste",
      "per form",
      "fra me",
      "relig ion",
      "b ust",
      "ac cept",
      "por tions",
      "excit ing",
      "sat che",
      "pir ate",
      "st ain",
      "pl ish",
      "id es",
      "mean time",
      "order s",
      "sque e",
      "e h",
      "p tion",
      "gr ant",
      "ner dy",
      "shor tly",
      "survi ve",
      "san ct",
      "4 5",
      "con test",
      "char ges",
      "dang ling",
      "scry ing",
      "polymor ph",
      "u an",
      "re ly",
      "draw ing",
      "serv ant",
      "l un",
      "re pe",
      "blast s",
      "sk ills",
      "len gth",
      "u de",
      "ll ed",
      "su l",
      "car ving",
      "pres sed",
      "swing ing",
      "zz le",
      "3 4",
      "p ink",
      "ch i",
      "ag gressive",
      "had n",
      "du cks",
      "confli ct",
      "v ish",
      "far m",
      "plan ning",
      "dream s",
      "chick en",
      "ut y",
      "wor m",
      "dark tow",
      "t v",
      "cu be",
      "ch ro",
      "op tions",
      "under standing",
      "grab bed",
      "relea sed",
      "vill age",
      "paren ts",
      "cro ssed",
      "pe st",
      "ni la",
      "remn ants",
      "p ark",
      "can trip",
      "alley way",
      "offi ce",
      "polit ical",
      "gras ping",
      "desc end",
      "performan ce",
      "shady creek",
      "th ie",
      "re cover",
      "ti ps",
      "ser pent",
      "boat s",
      "descri be",
      "l ines",
      "ac c",
      "el ves",
      "a led",
      "de bt",
      "vor s",
      "lands cape",
      "flan k",
      "ridicul ous",
      "in tri",
      "re load",
      "sa ges",
      "su cks",
      "whi p",
      "second ary",
      "3 00",
      "cele st",
      "d wend",
      "ma x",
      "po wers",
      "fir ing",
      "approach ing",
      "relea ses",
      "lo o",
      "eld ritch",
      "oc cur",
      "trig ger",
      "ho o",
      "ru le",
      "char m",
      "bal d",
      "embed ded",
      "rakshas a",
      "dwend al",
      "ag erie",
      "men agerie",
      "sign s",
      "pit ched",
      "gri p",
      "jun gle",
      "gloom stal",
      "notic es",
      "scen ari",
      "a sed",
      "c ation",
      "t ough",
      "d irty",
      "le m",
      "li onel",
      "gno mish",
      "3 6",
      "th orn",
      "sign al",
      "stick ing",
      "clust ers",
      "a ver",
      "j b",
      "l on",
      "in se",
      "co py",
      "man acles",
      "tra ined",
      "com par",
      "gro wn",
      "vi als",
      "ass ass",
      "fy ing",
      "swim ming",
      "soci e",
      "obje cts",
      "y o",
      "per pet",
      "el bow",
      "box es",
      "expect ing",
      "equi pment",
      "g aming",
      "re stor",
      "ay e",
      "hor ris",
      "ab ly",
      "fore head",
      "mag ma",
      "flow ers",
      "sut an",
      "ac tors",
      "sh attered",
      "con j",
      "des per",
      "attemp ting",
      "notic ing",
      "yen n",
      "atmo sphere",
      "s lo",
      "down ward",
      "mon d",
      "ene my",
      "l ack",
      "di a",
      "di ver",
      "wa ves",
      "cur led",
      "struct ures",
      "f au",
      "in v",
      "po ke",
      "stu dy",
      "inten tion",
      "fo ol",
      "tra ver",
      "sna ps",
      "lo ss",
      "po o",
      "day light",
      "pal ad",
      "collap se",
      "dissi p",
      "s pike",
      "end er",
      "sa ves",
      "s ends",
      "cl ay",
      "ni p",
      "perfect ly",
      "for med",
      "ad just",
      "od d",
      "med it",
      "cal i",
      "dar ling",
      "gobl ins",
      "webs ite",
      "ver ing",
      "blo wn",
      "blow ing",
      "flan king",
      "d 12",
      "st ation",
      "sing ular",
      "fa de",
      "00 pm",
      "gas ping",
      "ker ri",
      "sac red",
      "al field",
      "wat ers",
      "assu ming",
      "m ps",
      "te en",
      "joh n",
      "enchant ed",
      "restor ation",
      "j ac",
      "p lot",
      "crack ing",
      "re fer",
      "at ic",
      "sto mach",
      "tent s",
      "field s",
      "tem per",
      "h ill",
      "to ad",
      "sm ash",
      "comp lic",
      "arri val",
      "warm th",
      "quar ter",
      "2 d6",
      "ha il",
      "step ped",
      "cle ars",
      "own er",
      "ni co",
      "f led",
      "bo ost",
      "fo yer",
      "ex cell",
      "sho pping",
      "occasion al",
      "jewel ry",
      "en ces",
      "dis h",
      "t es",
      "it ive",
      "lo red",
      "ur ally",
      "k ers",
      "lo cks",
      "war ning",
      "coun try",
      "bird s",
      "nico dranas",
      "f if",
      "ad ing",
      "fore most",
      "par aly",
[...]
