{
  "version": "1.0",
  "truncation": null,
  "padding": null,
  "added_tokens": [
    {
      "id": 0,
      "content": "<PAD>",
      "single_word": false,
      "lstrip": false,
      "rstrip": false,
      "normalized": false,
      "special": true
    },
    {
      "id": 1,
      "content": "<BOS>",
      "single_word": false,
      "lstrip": false,
      "rstrip": false,
      "normalized": false,
      "special": true
    },
    {
      "id": 2,
      "content": "<EOS>",
      "single_word": false,
      "lstrip": false,
      "rstrip": false,
      "normalized": false,
      "special": true
    },
    {
      "id": 3,
      "content": "<UNK>",
      "single_word": false,
      "lstrip": false,
      "rstrip": false,
      "normalized": false,
      "special": true
    }
  ],
  "normalizer": {
    "type": "Sequence",
    "normalizers": [
      {
        "type": "NFKC"
      },
      {
        "type": "BertNormalizer",
        "clean_text": true,
        "handle_chinese_chars": true,
        "strip_accents": null,
        "lowercase": true
      }
    ]
  },
  "pre_tokenizer": {
    "type": "ByteLevel",
    "add_prefix_space": true,
    "trim_offsets": true,
    "use_regex": true
  },
  "post_processor": null,
  "decoder": {
    "type": "BPEDecoder",
    "suffix": "</w>"
  },
  "model": {
    "type": "BPE",
    "dropout": null,
    "unk_token": null,
    "continuing_subword_prefix": null,
    "end_of_word_suffix": null,
    "fuse_unk": false,
    "vocab": {
      "<PAD>": 0,
      "<BOS>": 1,
      "<EOS>": 2,
      "<UNK>": 3,
      "!": 4,
      "\"": 5,
      "#": 6,
      "$": 7,
      "%": 8,
      "&": 9,
      "'": 10,
      "(": 11,
      ")": 12,
      "*": 13,
      "+": 14,
      ",": 15,
      "-": 16,
      ".": 17,
      "/": 18,
      "0": 19,
      "1": 20,
      "2": 21,
      "3": 22,
      "4": 23,
      "5": 24,
      "6": 25,
      "7": 26,
      "8": 27,
      "9": 28,
      ":": 29,
      ";": 30,
      "<": 31,
      "=": 32,
      ">": 33,
      "?": 34,
      "@": 35,
      "[": 36,
      "\\": 37,
      "]": 38,
      "_": 39,
      "`": 40,
      "a": 41,
      "b": 42,
      "c": 43,
      "d": 44,
      "e": 45,
      "f": 46,
      "g": 47,
      "h": 48,
      "i": 49,
      "j": 50,
      "k": 51,
      "l": 52,
      "m": 53,
      "n": 54,
      "o": 55,
      "p": 56,
      "q": 57,
      "r": 58,
      "s": 59,
      "t": 60,
      "u": 61,
      "v": 62,
      "w": 63,
      "x": 64,
      "y": 65,
      "z": 66,
      "{": 67,
      "|": 68,
      "}": 69,
      "ª": 70,
      "«": 71,
      "Ã": 72,
      "â": 73,
      "ã": 74,
      "Ġ": 75,
      "Ģ": 76,
      "ĥ": 77,
      "Ħ": 78,
      "ĵ": 79,
      "Ķ": 80,
      "ķ": 81,
      "ĺ": 82,
      "Ļ": 83,
      "ľ": 84,
      "Ŀ": 85,
      "ŀ": 86,
      "Ł": 87,
      "Ġt": 88,
      "Ġa": 89,
      "Ġth": 90,
      "Ġi": 91,
      "ou": 92,
      "Ġs": 93,
      "Ġthe": 94,
      "in": 95,
      "Ġw": 96,
      "re": 97,
      "Ġo": 98,
      "Ġy": 99,
      "Ġh": 100,
      "Ġb": 101,
      "at": 102,
      "Ġyou": 103,
      "nd": 104,
      "er": 105,
      "ing": 106,
      "Ġc": 107,
      "Ġf": 108,
      "Ġd": 109,
      "Ġg": 110,
      "Ġto": 111,
      "ll": 112,
      "Ġm": 113,
      "Ġand": 114,
      "Ġp": 115,
      "an": 116,
      "on": 117,
      "Ġl": 118,
      "Ġof": 119,
      "es": 120,
      "Ġit": 121,
      "it": 122,
      "en": 123,
      "or": 124,
      "Ġn": 125,
      "is": 126,
      "ar": 127,
      "'s": 128,
      "Ġthat": 129,
      "Ġin": 130,
      "ed": 131,
      "st": 132,
      "ow": 133,
      "ve": 134,
      "gh": 135,
      "Ġwe": 136,
      "om": 137,
      "Ġbe": 138,
      "Ġgo": 139,
      "le": 140,
      "ay": 141,
      "Ġr": 142,
      "Ġwh": 143,
      "ke": 144,
      "Ġon": 145,
      "Ġha": 146,
      "Ġhe": 147,
      "ck": 148,
      "Ġu": 149,
      "ot": 150,
      "Ġe": 151,
      "et": 152,
      "ght": 153,
      "Ġis": 154,
      "al": 155,
      "as": 156,
      "Ġst": 157,
      "ight": 158,
      "Ġsh": 159,
      "Ġdo": 160,
      "se": 161,
      "ea": 162,
      "ld": 163,
      "ch": 164,
      "id": 165,
      "Ġas": 166,
      "ver": 167,
      "out": 168,
      "Ġre": 169,
      "Ġse": 170,
      "Ġthis": 171,
      "ly": 172,
      "ce": 173,
      "Ġfor": 174,
      "ut": 175,
      "all": 176,
      "Ġso": 177,
      "oo": 178,
      "ion": 179,
      "ent": 180,
      "am": 181,
      "Ġan": 182,
      "Ġj": 183,
      "im": 184,
      "ith": 185,
      "Ġcan": 186,
      "th": 187,
      "Ġk": 188,
      "Ġat": 189,
      "ur": 190,
      "Ġyour": 191,
      "ag": 192,
      "Ġall": 193,
      "Ġwith": 194,
      "Ġthere": 195,
      "ct": 196,
      "'t": 197,
      "ir": 198,
      "Ġare": 199,
      "ro": 200,
      "Ġhave": 201,
      "ack": 202,
      "ad": 203,
      "'re": 204,
      "Ġnot": 205,
      "Ġwhat": 206,
      "--": 207,
      "Ġup": 208,
      "Ġli": 209,
      "Ġright": 210,
      "ust": 211,
      "Ġsee": 212,
      "rou": 213,
      "ome": 214,
      "Ġout": 215,
      "Ġfr": 216,
      "'m": 217,
      "ould": 218,
      "Ġgoing": 219,
      "ant": 220,
      "ake": 221,
      "Ġone": 222,
      "Ġthey": 223,
      "Ġ(": 224,
      "ill": 225,
      "Ġ\"": 226,
      "Ġjust": 227,
      "Ġbut": 228,
      "Ġch": 229,
      "Ġno": 230,
      "eah": 231,
      "Ġtr": 232,
      "Ġyeah": 233,
      "ook": 234,
      "Ġme": 235,
      "Ġwas": 236,
      "us": 237,
      "ic": 238,
      "ere": 239,
      "Ġlike": 240,
      "au": 241,
      "kay": 242,
      "un": 243,
      "Ġokay": 244,
      "ard": 245,
      "Ġget": 246,
      "Ġint": 247,
      "od": 248,
      "Ġkn": 249,
      "Ġne": 250,
      "ally": 251,
      "Ġro": 252,
      "ain": 253,
      "Ġmo": 254,
      "Ġgu": 255,
      "Ġmy": 256,
      "Ġv": 257,
      "Ġlook": 258,
      "pp": 259,
      "ind": 260,
      "il": 261,
      "ast": 262,
      "Ġdon": 263,
      "Ġfrom": 264,
      "est": 265,
      "Ġknow": 266,
      "Ġ1": 267,
      "Ġor": 268,
      "Ġsp": 269,
      "Ġback": 270,
      "Ġab": 271,
      "Ġshe": 272,
      "Ġoh": 273,
      "age": 274,
      "very": 275,
      "Ġif": 276,
      "Ġfe": 277,
      "Ġpo": 278,
      "ra": 279,
      "ide": 280,
      "our": 281,
      "Ġher": 282,
      "Ġhis": 283,
      "art": 284,
      "ak": 285,
      "Ġpl": 286,
      "Ġsome": 287,
      ".\"": 288,
      "Ġhim": 289,
      "Ġinto": 290,
      "Ġany": 291,
      "ure": 292,
      "ep": 293,
      "one": 294,
      "Ġal": 295,
      "Ġnow": 296,
      "ers": 297,
      "ie": 298,
      "'ll": 299,
      "round": 300,
      "own": 301,
      "Ġthem": 302,
      "Ġguy": 303,
      "Ġde": 304,
      "ge": 305,
      "Ġcl": 306,
      "Ġ2": 307,
      "Ġtw": 308,
      "Ġhere": 309,
      "ter": 310,
      "Ġcon": 311,
      "ig": 312,
      "ive": 313,
      "um": 314,
      "qu": 315,
      "ell": 316,
      "Ġabout": 317,
      "Ġmake": 318,
      "ess": 319,
      "urn": 320,
      "Ġus": 321,
      "Ġdown": 322,
      "ore": 323,
      "el": 324,
      "itt": 325,
      "ri": 326,
      "ink": 327,
      "Ġwhere": 328,
      "int": 329,
      "Ġwell": 330,
      "and": 331,
      "Ġguys": 332,
      "Ġwant": 333,
      "op": 334,
      "nt": 335,
      "Ġway": 336,
      "ire": 337,
      "ab": 338,
      "Ġke": 339,
      "Ġwould": 340,
      "'ve": 341,
      "Ġover": 342,
      "Ġdid": 343,
      "her": 344,
      "Ġbl": 345,
      "Ġar": 346,
      "Ġtwo": 347,
      "Ġwho": 348,
      "Ġcom": 349,
      "ate": 350,
      "Ġoff": 351,
      "Ġsc": 352,
      "Ġthen": 353,
      "Ġsa": 354,
      "Ġpoint": 355,
      "ead": 356,
      "Ġtake": 357,
      "ven": 358,
      "ap": 359,
      "hing": 360,
      "way": 361,
      "ull": 362,
      "ity": 363,
      "Ġgood": 364,
      "ation": 365,
      "Ġwhi": 366,
      "Ġsay": 367,
      "ick": 368,
      "Ġdam": 369,
      "rough": 370,
      "Ġatt": 371,
      "ss": 372,
      "Ġthrough": 373,
      "uck": 374,
      "ong": 375,
      "ward": 376,
      "Ġdis": 377,
      "Ġhow": 378,
      "Ġman": 379,
      "Ġaround": 380,
      "Ġtim": 381,
      "Ġex": 382,
      "Ġdoes": 383,
      "lf": 384,
      "Ġvery": 385,
      "if": 386,
      "ine": 387,
      "alk": 388,
      "Ġle": 389,
      "ittle": 390,
      "ry": 391,
      "ort": 392,
      "Ġlittle": 393,
      "Ġhit": 394,
      "ul": 395,
      "Ġwor": 396,
      "Ġact": 397,
      "Ġthing": 398,
      "Ġper": 399,
      "Ġag": 400,
      "ther": 401,
      "Ġhas": 402,
      "reat": 403,
      "ree": 404,
      "Ġbeen": 405,
      "ace": 406,
      "ach": 407,
      "ous": 408,
      "Ġbec": 409,
      "Ġroll": 410,
      "ause": 411,
      "Ġwill": 412,
      "Ġthink": 413,
      "row": 414,
      "Ġby": 415,
      "Ġche": 416,
      "nds": 417,
      "Ġthan": 418,
      "Ġsu": 419,
      "Ġdamage": 420,
      "Ġgot": 421,
      "Ġturn": 422,
      "ame": 423,
      "Ġtime": 424,
      "Ġstill": 425,
      "Ġqu": 426,
      "Ġsl": 427,
      "Ġpre": 428,
      "Ġwat": 429,
      "Ġpro": 430,
      "Ġbecause": 431,
      "Ġlet": 432,
      "ice": 433,
      "Ġwere": 434,
      "mp": 435,
      "ving": 436,
      "ond": 437,
      "Ġyes": 438,
      "ol": 439,
      "Ġother": 440,
      "Ġcheck": 441,
      "Ġfl": 442,
      "are": 443,
      "Ġbr": 444,
      "Ġhad": 445,
      "Ġtheir": 446,
      "Ġmore": 447,
      "Ġcould": 448,
      "Ġagain": 449,
      "Ġshould": 450,
      "ies": 451,
      "Ġlo": 452,
      "Ġevery": 453,
      "Ġtry": 454,
      "ber": 455,
      "Ġour": 456,
      "Ġdr": 457,
      "Ġen": 458,
      "old": 459,
      "Ġsm": 460,
      "Ġits": 461,
      "Ġgro": 462,
      "ect": 463,
      "Ġbit": 464,
      "Ġpe": 465,
      "Ġreally": 466,
      "ass": 467,
      "Ġcome": 468,
      "ose": 469,
      "Ġside": 470,
      "ip": 471,
      "thing": 472,
      "Ġbeg": 473,
      "ble": 474,
      "lan": 475,
      "Ġattack": 476,
      "ish": 477,
      "ough": 478,
      "Ġgrog": 479,
      "ord": 480,
      "ood": 481,
      "ually": 482,
      "Ġfir": 483,
      "ite": 484,
      "fore": 485,
      "Ġac": 486,
      "ves": 487,
      "Ġbefore": 488,
      "Ġun": 489,
      "ist": 490,
      "ark": 491,
      "be": 492,
      "Ġthese": 493,
      "ft": 494,
      "ment": 495,
      "Ġneed": 496,
      "Ġpart": 497,
      "lau": 498,
      "Ġam": 499,
      "Ġfirst": 500,
      "Ġmay": 501,
      "Ġwhich": 502,
      "ath": 503,
      "os": 504,
      "ound": 505,
      "Ġbegin": 506,
      "Ġad": 507,
      "Ġlea": 508,
      "Ġfuck": 509,
      "ff": 510,
      "ody": 511,
      "Ġlooks": 512,
      "Ġfind": 513,
      "Ġcr": 514,
      "Ġund": 515,
      "Ġpull": 516,
      "Ġsw": 517,
      "ople": 518,
      "omet": 519,
      "Ġbot": 520,
      "Ġpoints": 521,
      "Ġkeep": 522,
      "Ġpeople": 523,
      "Ġhead": 524,
      "ious": 525,
      "Ġsomet": 526,
      "ear": 527,
      "act": 528,
      "Ġwa": 529,
      "ue": 530,
      "Ġtoo": 531,
      "Ġapp": 532,
      "Ġrest": 533,
      "self": 534,
      "Ġwhen": 535,
      "Ġmu": 536,
      "ase": 537,
      "ade": 538,
      "Ġco": 539,
      "Ġthank": 540,
      "so": 541,
      "Ġseem": 542,
      "Ġpi": 543,
      "side": 544,
      "Ġcur": 545,
      "Ġtak": 546,
      "Ġsec": 547,
      "Ġah": 548,
      "ning": 549,
      "Ġfeel": 550,
      "Ġfeet": 551,
      "Ġhand": 552,
      "Ġsomething": 553,
      "xt": 554,
      "Ġtoward": 555,
      "Ġgoes": 556,
      "Ġent": 557,
      "other": 558,
      "Ġmove": 559,
      "Ġmean": 560,
      "Ġca": 561,
      "Ġgi": 562,
      "Ġop": 563,
      "ty": 564,
      "ash": 565,
      "Ġstart": 566,
      "cy": 567,
      "Ġmuch": 568,
      "Ġhold": 569,
      "sh": 570,
      "Ġanything": 571,
      "ting": 572,
      "Ġfo": 573,
      "Ġput": 574,
      "Ġdoor": 575,
      "Ġrun": 576,
      "Ġcast": 577,
      "ance": 578,
      "Ġaway": 579,
      "Ġey": 580,
      "Ġwait": 581,
      "Ġwalk": 582,
      "Ġcont": 583,
      "Ġunder": 584,
      "Ġthree": 585,
      "Ġnext": 586,
      "wh": 587,
      "Ġlong": 588,
      "Ġ20": 589,
      "Ġhapp": 590,
      "Ġwatch": 591,
      "ang": 592,
      "Ġtowards": 593,
      "Ġuse": 594,
      "ax": 595,
      "vel": 596,
      "Ġscan": 597,
      "ady": 598,
      "Ġarm": 599,
      "Ġlooking": 600,
      "pt": 601,
      "Ġahead": 602,
      "able": 603,
      "Ġroom": 604,
      "ross": 605,
      "Ġhel": 606,
      "Ġscanlan": 607,
      "ac": 608,
      "Ġmaybe": 609,
      "Ġte": 610,
      "wn": 611,
      "Ġkey": 612,
      "ons": 613,
      "Ġboth": 614,
      "ghter": 615,
      "vant": 616,
      "iv": 617,
      "Ġalso": 618,
      "Ġsure": 619,
      "Ġeven": 620,
      "av": 621,
      "Ġsecond": 622,
      "Ġve": 623,
      "Ġactually": 624,
      "..": 625,
      "Ġthings": 626,
      "iz": 627,
      "Ġopen": 628,
      "Ġtalk": 629,
      "att": 630,
      "Ġgl": 631,
      "Ġten": 632,
      "Ġbeh": 633,
      "air": 634,
      "orm": 635,
      "Ġbo": 636,
      "Ġpr": 637,
      "ple": 638,
      "ild": 639,
      "ket": 640,
      "Ġhelp": 641,
      "ical": 642,
      "Ġdrag": 643,
      "Ġspell": 644,
      "ush": 645,
      "Ġwork": 646,
      "em": 647,
      "Ġlight": 648,
      "Ġcity": 649,
      "per": 650,
      "Ġaf": 651,
      "ings": 652,
      "Ġshit": 653,
      "Ġdoing": 654,
      "ably": 655,
      "Ġlot": 656,
      "Ġsor": 657,
      "leth": 658,
      "Ġgreat": 659,
      "laughter": 660,
      "Ġplus": 661,
      "Ġbu": 662,
      "Ġthose": 663,
      "Ġthrow": 664,
      "Ġkeyleth": 665,
      "Ġ3": 666,
      "Ġbet": 667,
      "Ġgive": 668,
      "Ġpercy": 669,
      "ction": 670,
      "les": 671,
      "Ġfire": 672,
      "ount": 673,
      "Ġbehind": 674,
      "Ġgod": 675,
      "Ġhear": 676,
      "ever": 677,
      "Ġleft": 678,
      "Ġbeing": 679,
      "bably": 680,
      "Ġsorry": 681,
      "Ġtell": 682,
      "Ġdark": 683,
      "ered": 684,
      "Ġgra": 685,
      "Ġstr": 686,
      "red": 687,
      "Ġprobably": 688,
      "Ġday": 689,
      "Ġonly": 690,
      "Ġwall": 691,
      "Ġmom": 692,
      "Ġafter": 693,
      "ual": 694,
      "?\"": 695,
      "Ġhits": 696,
      "Ġvax": 697,
      "sp": 698,
      "Ġhappen": 699,
      "Ġpike": 700,
      "Ġanother": 701,
      "ary": 702,
      "ntly": 703,
      "Ġground": 704,
      "'d": 705,
      "ool": 706,
      "leb": 707,
      "Ġwhile": 708,
      "ud": 709,
      "Ġfar": 710,
      "reak": 711,
      "Ġbig": 712,
      "na": 713,
      "ek": 714,
      "ling": 715,
      "Ġend": 716,
      "Ġacross": 717,
      "Ġaction": 718,
      "Ġlast": 719,
      "Ġmoment": 720,
      "Ġsmall": 721,
      "Ġwater": 722,
      "Ġvo": 723,
      "vantage": 724,
      "Ġfew": 725,
      "Ġaw": 726,
      "ail": 727,
      "Ġpret": 728,
      "Ġcor": 729,
      "Ġkind": 730,
      "Ġrem": 731,
      "body": 732,
      "Ġmag": 733,
      "ful": 734,
      "mm": 735,
      "li": 736,
      "ence": 737,
      "Ġdidn": 738,
      "iss": 739,
      "ont": 740,
      "ange": 741,
      "Ġcar": 742,
      "Ġcreat": 743,
      "ather": 744,
      "fe": 745,
      "Ġask": 746,
      "Ġtop": 747,
      "pe": 748,
      "Ġimp": 749,
      "Ġmin": 750,
      "Ġnat": 751,
      "Ġpretty": 752,
      "igh": 753,
      "Ġgr": 754,
      "Ġel": 755,
      "Ġfive": 756,
      "Ġcurre": 757,
      "Ġmight": 758,
      "Ġkill": 759,
      "Ġmak": 760,
      "ost": 761,
      "ial": 762,
      "Ġagainst": 763,
      "Ġwhy": 764,
      "Ġfrie": 765,
      "Ġcaleb": 766,
      "Ġvex": 767,
      "Ġlar": 768,
      "vent": 769,
      "ise": 770,
      "ix": 771,
      "Ġstep": 772,
      "Ġ15": 773,
      "Ġdist": 774,
      "Ġmost": 775,
      "ren": 776,
      "Ġonce": 777,
      "Ġfine": 778,
      "ved": 779,
      "Ġspe": 780,
      "Ġface": 781,
      "Ġdoesn": 782,
      "Ġfront": 783,
      "Ġhalf": 784,
      "Ġrec": 785,
      "ump": 786,
      "Ġear": 787,
      "oot": 788,
      "Ġfour": 789,
      "ts": 790,
      "Ġform": 791,
      "Ġstay": 792,
      "Ġguard": 793,
      "Ġfin": 794,
      "ately": 795,
      "Ġsn": 796,
      "Ġstand": 797,
      "Ġsk": 798,
      "Ġplan": 799,
      "ird": 800,
      "cept": 801,
      "Ġfucking": 802,
      "ering": 803,
      "ions": 804,
      "Ġmade": 805,
      "Ġsur": 806,
      "Ġwithin": 807,
      "Ġeach": 808,
      "Ġset": 809,
      "Ġcent": 810,
      "Ġplace": 811,
      "Ġmany": 812,
      "Ġseems": 813,
      "atch": 814,
      "Ġtrying": 815,
      "ester": 816,
      "Ġcoming": 817,
      "iff": 818,
      "Ġnew": 819,
      "Ġste": 820,
      "ove": 821,
      "ily": 822,
      "Ġcreature": 823,
      "ears": 824,
      "erg": 825,
      "Ġgold": 826,
      "Ġbel": 827,
      "Ġinside": 828,
      "Ġreal": 829,
      "Ġcurrently": 830,
      "Ġem": 831,
      "get": 832,
      "ces": 833,
      "oh": 834,
      "ated": 835,
      "ps": 836,
      "led": 837,
      "Ġeyes": 838,
      "we": 839,
      "Ġthough": 840,
      "Ġchar": 841,
      "Ġdire": 842,
      "ural": 843,
      "eak": 844,
      "Ġforward": 845,
      "ock": 846,
      "pl": 847,
      "ger": 848,
      "form": 849,
      "Ġbad": 850,
      "Ġlarge": 851,
      "Ġret": 852,
      "ign": 853,
      "Ġpass": 854,
      "Ġnott": 855,
      "Ġheal": 856,
      "inket": 857,
      "Ġeveryone": 858,
      "Ġinv": 859,
      "Ġtrinket": 860,
      "Ġstone": 861,
      "Ġdragon": 862,
      "Ġbreak": 863,
      "Ġtakes": 864,
      "jord": 865,
      "Ġnight": 866,
      "Ġfjord": 867,
      "ought": 868,
      "Ġbody": 869,
      "Ġshow": 870,
      "Ġenough": 871,
      "lease": 872,
      "Ġfall": 873,
      "Ġpers": 874,
      "Ġweek": 875,
      "Ġcool": 876,
      "Ġz": 877,
      "Ġcomes": 878,
      "Ġhor": 879,
      "Ġjester": 880,
      "Ġsort": 881,
      "Ġsaid": 882,
      "uff": 883,
      "llow": 884,
      "Ġcall": 885,
      "ug": 886,
      "Ġpast": 887,
      "00": 888,
      "Ġtra": 889,
      "aw": 890,
      "Ġplay": 891,
      "ater": 892,
      "Ġed": 893,
      "Ġbegins": 894,
      "Ġbeau": 895,
      "Ġelse": 896,
      "most": 897,
      "ible": 898,
      "to": 899,
      "laugh": 900,
      "Ġsix": 901,
      "Ġnatural": 902,
      "amp": 903,
      "ner": 904,
      "Ġbon": 905,
      "Ġnever": 906,
      "sel": 907,
      "ory": 908,
      "ey": 909,
      "Ġfam": 910,
      "Ġclose": 911,
      "Ġgiant": 912,
      "Ġjo": 913,
      "Ġslow": 914,
      "ready": 915,
      "Ġmiss": 916,
      "Ġcre": 917,
      "bs": 918,
      "Ġnice": 919,
      "Ġalready": 920,
      "ans": 921,
      "tain": 922,
      "Ġcontin": 923,
      "Ġparty": 924,
      "Ġsame": 925,
      "!\"": 926,
      "ating": 927,
      "dd": 928,
      "Ġsaving": 929,
      "day": 930,
      "edi": 931,
      "ress": 932,
      "Ġmet": 933,
      "ens": 934,
      "Ġwr": 935,
      "Ġcou": 936,
      "Ġdes": 937,
      "Ġbook": 938,
      "Ġfun": 939,
      "Ġlove": 940,
      "Ġleave": 941,
      "Ġser": 942,
      "ense": 943,
      "Ġreach": 944,
      "Ġpick": 945,
      "Ġbring": 946,
      "Ġhigh": 947,
      "Ġquick": 948,
      "Ġbar": 949,
      "Ġalmost": 950,
      "az": 951,
      "Ġminut": 952,
      "Ġgets": 953,
      "aps": 954,
      "ically": 955,
      "Ġgrou": 956,
      "Ġimm": 957,
      "Ġname": 958,
      "Ġlead": 959,
      "Ġtree": 960,
      "Ġclos": 961,
      "Ġeye": 962,
      "Ġdone": 963,
      "Ġarmor": 964,
      "Ġair": 965,
      "Ġoutside": 966,
      "Ġvis": 967,
      "Ġter": 968,
      "Ġadvantage": 969,
      "...": 970,
      "Ġbetter": 971,
      "Ġcrit": 972,
      "Ġnothing": 973,
      "Ġsays": 974,
      "âĢ": 975,
      "ness": 976,
      "ied": 977,
      "Ġdiff": 978,
      "Ġid": 979,
      "Ġcham": 980,
      "vers": 981,
      "Ġwar": 982,
      "Ġgetting": 983,
      "Ġcenter": 984,
      "ib": 985,
      "Ġbonus": 986,
      "Ġhard": 987,
      "Ġeight": 988,
      "Ġpie": 989,
      "ower": 990,
      "Ġseen": 991,
      "Ġsteal": 992,
      "Ġgroup": 993,
      "Ġplease": 994,
      "Ġdirection": 995,
      "Ġdisc": 996,
      "Ġholding": 997,
      "Ġmind": 998,
      "Ġhop": 999,
      "laughs": 1000,
      "cess": 1001,
      "Ġton": 1002,
      "Ġthought": 1003,
      "ounds": 1004,
      "Ġhands": 1005,
      "Ġ19": 1006,
      "Ġfight": 1007,
      "less": 1008,
      "Ġglan": 1009,
      "Ġown": 1010,
      "Ġsound": 1011,
      "ception": 1012,
      "Ġass": 1013,
      "og": 1014,
      "Ġlau": 1015,
      "Ġfig": 1016,
      "Ġele": 1017,
      "Ġevent": 1018,
      "mb": 1019,
      "Ġind": 1020,
      "Ġfollow": 1021,
      "Ġ18": 1022,
      "Ġdec": 1023,
      "ah": 1024,
      "Ġmar": 1025,
      "Ġgre": 1026,
      "Ġship": 1027,
      "Ġnear": 1028,
      ").": 1029,
      "Ġdef": 1030,
      "Ġreturn": 1031,
      "ince": 1032,
      "Ġeverything": 1033,
      "Ġho": 1034,
      "Ġmagic": 1035,
      "Ġblood": 1036,
      "Ġ12": 1037,
      "ina": 1038,
      "ize": 1039,
      "Ġfly": 1040,
      "Ġmach": 1041,
      "itch": 1042,
      "aring": 1043,
      "Ġfigure": 1044,
      "pping": 1045,
      "Ġwind": 1046,
      "Ġpush": 1047,
      "Ġchamber": 1048,
      "Ġ17": 1049,
      "Ġtown": 1050,
      "Ġburn": 1051,
      "Ġfound": 1052,
      "Ġmaking": 1053,
      "vern": 1054,
      "Ġwhatever": 1055,
      "Ġquite": 1056,
      "Ġunt": 1057,
      "Ġperson": 1058,
      "idd": 1059,
      "Ġquest": 1060,
      "nel": 1061,
      "Ġadd": 1062,
      "ru": 1063,
      "eath": 1064,
      "Ġsle": 1065,
      "Ġonto": 1066,
      "Ġimmedi": 1067,
      "Ġfull": 1068,
      "Ġarea": 1069,
      "Ġstri": 1070,
      "Ġever": 1071,
      "unch": 1072,
      "oud": 1073,
      "Ġdead": 1074,
      "no": 1075,
      "Ġ16": 1076,
      "Ġfriends": 1077,
      "fort": 1078,
      "Ġwent": 1079,
      "ius": 1080,
      "ode": 1081,
      "Ġtemp": 1082,
      "Ġshot": 1083,
      "Ġmachina": 1084,
      "Ġbest": 1085,
      "Ġhour": 1086,
      "Ġ30": 1087,
      "Ġcle": 1088,
      "Ġinter": 1089,
      "Ġblack": 1090,
      "Ġold": 1091,
      "ition": 1092,
      "Ġedge": 1093,
      "Ġgrab": 1094,
      "onna": 1095,
      "cent": 1096,
      "asha": 1097,
      "Ġflo": 1098,
      "Ġres": 1099,
      "Ġstuff": 1100,
      "gether": 1101,
      "ouse": 1102,
      "Ġtravel": 1103,
      "Ġlife": 1104,
      "ially": 1105,
      "oun": 1106,
      "Ġdiffere": 1107,
      "Ġseven": 1108,
      "Ġused": 1109,
      "Ġsince": 1110,
      "Ġsy": 1111,
      "cing": 1112,
      "Ġyasha": 1113,
      "Ġwhole": 1114,
      "Ġtogether": 1115,
      "Ġtable": 1116,
      "Ġentire": 1117,
      "Ġ4": 1118,
      "Ġitself": 1119,
      "Ġbuild": 1120,
      "Ġcouple": 1121,
      "Ġgonna": 1122,
      "Ġyet": 1123,
      "Ġland": 1124,
      "let": 1125,
      "Ġtun": 1126,
      "Ġstop": 1127,
      "Ġsaw": 1128,
      "ank": 1129,
      "ream": 1130,
      "Ġnum": 1131,
      "airs": 1132,
      "ates": 1133,
      "Ġbro": 1134,
      "ways": 1135,
      "Ġ[": 1136,
      "te": 1137,
      "ins": 1138,
      "Ġcour": 1139,
      "Ġlaugh": 1140,
      "Ġsit": 1141,
      "Ġtalking": 1142,
      "wood": 1143,
      "Ġeventually": 1144,
      "Ġcra": 1145,
      "âĢĻ": 1146,
      "Ġrolled": 1147,
      "Ġcame": 1148,
      "Ġpur": 1149,
      "cl": 1150,
      "und": 1151,
      "Ġgone": 1152,
      "Ġword": 1153,
      "Ġred": 1154,
      "Ġstealth": 1155,
      "he": 1156,
      "estone": 1157,
      "Ġslowly": 1158,
      "ains": 1159,
      "Ġalong": 1160,
      "Ġuntil": 1161,
      "Ġhum": 1162,
      "Ġ14": 1163,
      "Ġhey": 1164,
      "Ġleast": 1165,
      "Ġnine": 1166,
      "Ġposs": 1167,
      "ier": 1168,
      "Ġcatch": 1169,
      "Ġvoice": 1170,
      "come": 1171,
      "gth": 1172,
      "Ġperception": 1173,
      "Ġcare": 1174,
      "Ġelement": 1175,
      "Ġends": 1176,
      "can": 1177,
      "ides": 1178,
      "Ġtaking": 1179,
      "Ġheav": 1180,
      "Ġinst": 1181,
      "ows": 1182,
      "Ġweap": 1183,
      "ken": 1184,
      "Ġwhit": 1185,
      "Ġyourself": 1186,
      "Ġremem": 1187,
      "pped": 1188,
      "Ġmovement": 1189,
      "Ġidea": 1190,
      "Ġmanag": 1191,
      "where": 1192,
      "amm": 1193,
      "yond": 1194,
      "erest": 1195,
      "itting": 1196,
      "by": 1197,
      "Ġimmediately": 1198,
      "Ġarrow": 1199,
      "ison": 1200,
      "Ġdro": 1201,
      "Ġtonight": 1202,
      "Ġfur": 1203,
      "ention": 1204,
      "Ġawes": 1205,
      "Ġrock": 1206,
      "up": 1207,
      "dden": 1208,
      "outh": 1209,
      "Ġdra": 1210,
      "Ġbatt": 1211,
      "Ġsun": 1212,
      "Ġawesome": 1213,
      "Ġlevel": 1214,
      "Ġsudden": 1215,
      "Ġtook": 1216,
      "selves": 1217,
      "atter": 1218,
      "vil": 1219,
      "Ġguards": 1220,
      "Ġmon": 1221,
      "Ġexp": 1222,
      "Ġupon": 1223,
      "Ġdifferent": 1224,
      "Ġwel": 1225,
      "Ġhaven": 1226,
      "emp": 1227,
      "Ġsoon": 1228,
      "Ġfore": 1229,
      "Ġcritical": 1230,
      "Ġra": 1231,
      "ouch": 1232,
      "Ġbeyond": 1233,
      "Ġwhitestone": 1234,
      "Ġtrue": 1235,
      "Ġ13": 1236,
      "Ġable": 1237,
      "Ġ25": 1238,
      "Ġinterest": 1239,
      "Ġhaving": 1240,
      "Ġpot": 1241,
      "Ġtor": 1242,
      "lly": 1243,
      "rible": 1244,
      "Ġappro": 1245,
      "Ġgen": 1246,
      "Ġvox": 1247,
      "Ġgame": 1248,
      "Ġopp": 1249,
      "wer": 1250,
      "Ġsupp": 1251,
      "Ġfoot": 1252,
      "Ġru": 1253,
      "Ġfinish": 1254,
      "Ġdest": 1255,
      "ura": 1256,
      "Ġturns": 1257,
      "ween": 1258,
      "Ġep": 1259,
      "ract": 1260,
      "Ġdrink": 1261,
      "ned": 1262,
      "Ġremember": 1263,
      "ave": 1264,
      "Ġbetween": 1265,
      "Ġhair": 1266,
      "Ġrel": 1267,
      "aster": 1268,
      "Ġ11": 1269,
      "Ġbas": 1270,
      "Ġhell": 1271,
      "Ġnumber": 1272,
      "Ġhowever": 1273,
      "Ġhall": 1274,
      "Ġmark": 1275,
      "Ġfriend": 1276,
      "rength": 1277,
      "Ġconst": 1278,
      "kin": 1279,
      "Ġwalking": 1280,
      "Ġwithout": 1281,
      "Ġstrength": 1282,
      "irc": 1283,
      "Ġcomple": 1284,
      "Ġtunnel": 1285,
      "Ġbri": 1286,
      "ys": 1287,
      "Ġdistance": 1288,
      "Ġhun": 1289,
      "ult": 1290,
      "Ġread": 1291,
      "Ġwelcome": 1292,
      "Ġwood": 1293,
      "Ġminutes": 1294,
      "Ġtot": 1295,
      "Ġsword": 1296,
      "Ġpower": 1297,
      "ield": 1298,
      "ors": 1299,
      "lt": 1300,
      "ks": 1301,
      "iet": 1302,
      "Ġcons": 1303,
      "com": 1304,
      "ative": 1305,
      "Ġdisad": 1306,
      "Ġenerg": 1307,
      "ular": 1308,
      "Ġdisadvantage": 1309,
      "Ġshif": 1310,
      "Ġbus": 1311,
      "Ġcomm": 1312,
      "Ġconf": 1313,
      "Ġash": 1314,
      "Ġsomeone": 1315,
      "Ġtre": 1316,
      "Ġinform": 1317,
      "ics": 1318,
      "Ġattemp": 1319,
      "Ġpulls": 1320,
      "ival": 1321,
      "Ġcirc": 1322,
      "Ġsim": 1323,
      "Ġport": 1324,
      "vious": 1325,
      "inite": 1326,
      "Ġsleep": 1327,
      "Ġrole": 1328,
      "oney": 1329,
      "Ġhouse": 1330,
      "Ġmakes": 1331,
      "Ġhope": 1332,
      "man": 1333,
      "Ġshoulder": 1334,
      "orth": 1335,
      "Ġsend": 1336,
      "Ġepis": 1337,
      "Ġspeak": 1338,
      "Ġsense": 1339,
      "Ġ21": 1340,
      "Ġcomp": 1341,
      "war": 1342,
      "Ġti": 1343,
      "Ġemp": 1344,
      "Ġcourse": 1345,
      "Ġvar": 1346,
      "Ġfamily": 1347,
      "Ġamaz": 1348,
      "ffect": 1349,
      "Ġeverybody": 1350,
      "Ġimpact": 1351,
      "Ġheard": 1352,
      "Ġenergy": 1353,
      "Ġtary": 1354,
      "Ġmatt": 1355,
      "Ġdag": 1356,
      "gu": 1357,
      "ying": 1358,
      "Ġooh": 1359,
      "ieve": 1360,
      "ats": 1361,
      "Ġyep": 1362,
      "Ġbur": 1363,
      "Ġ5": 1364,
      "Ġfree": 1365,
      "Ġsave": 1366,
      "Ġmus": 1367,
      "Ġmor": 1368,
      "cious": 1369,
      "Ġround": 1370,
      "Ġdeep": 1371,
      "Ġsaying": 1372,
      "Ġcorner": 1373,
      "sing": 1374,
      "Ġblade": 1375,
      "ivid": 1376,
      "ron": 1377,
      "gr": 1378,
      "ph": 1379,
      "ior": 1380,
      "Ġdice": 1381,
      "ian": 1382,
      "ither": 1383,
      "ility": 1384,
      "Ġdefinite": 1385,
      "ape": 1386,
      "bl": 1387,
      "Ġdeal": 1388,
      "ale": 1389,
      "Ġinsp": 1390,
      "Ġanyone": 1391,
      "ushing": 1392,
      "Ġspec": 1393,
      "Ġweird": 1394,
      "Ġhome": 1395,
      "ully": 1396,
      "Ġdefinitely": 1397,
      "Ġes": 1398,
      "Ġpres": 1399,
      "Ġwond": 1400,
      "Ġph": 1401,
      "Ġsteps": 1402,
      "Ġwanted": 1403,
      "Ġabove": 1404,
      "Ġmolly": 1405,
      "Ġbattle": 1406,
      "Ġ--": 1407,
      "Ġevening": 1408,
      "Ġsil": 1409,
      "Ġgives": 1410,
      "Ġdang": 1411,
      "Ġrunning": 1412,
      "Ġdwar": 1413,
      "cr": 1414,
      "Ġlock": 1415,
      "estig": 1416,
      "Ġext": 1417,
      "Ġcut": 1418,
      "Ġtaken": 1419,
      "Ġbreat": 1420,
      "Ġhuman": 1421,
      "ile": 1422,
      "Ġbott": 1423,
      "Ġmoving": 1424,
      "berius": 1425,
      "Ġcol": 1426,
      "Ġcap": 1427,
      "Ġkeeping": 1428,
      "Ġben": 1429,
      "Ġcamp": 1430,
      "Ġtemple": 1431,
      "Ġdie": 1432,
      "Ġrush": 1433,
      "Ġreg": 1434,
      "Ġinformation": 1435,
      "Ġattacks": 1436,
      "Ġindivid": 1437,
      "Ġshort": 1438,
      "ations": 1439,
      "Ġsing": 1440,
      "Ġapproach": 1441,
      "ew": 1442,
      "Ġready": 1443,
      "Ġfloor": 1444,
      "aint": 1445,
      "Ġjump": 1446,
      "fully": 1447,
      "more": 1448,
      "Ġmeet": 1449,
      "Ġvarious": 1450,
      "Ġmoney": 1451,
      "ars": 1452,
      "Ġtiberius": 1453,
      "iness": 1454,
      "der": 1455,
      "Ġrighty": 1456,
      "oke": 1457,
      "ited": 1458,
      "Ġpath": 1459,
      "Ġrange": 1460,
      "Ġstra": 1461,
      "Ġamazing": 1462,
      "uce": 1463,
      "Ġepisode": 1464,
      "Ġmorning": 1465,
      "ief": 1466,
      "Ġyears": 1467,
      "Ġalways": 1468,
      "Ġexc": 1469,
      "Ġshoot": 1470,
      "ertain": 1471,
      "stand": 1472,
      "Ġfair": 1473,
      "Ġtal": 1474,
      "Ġslam": 1475,
      "like": 1476,
      "sion": 1477,
      "Ġeither": 1478,
      "Ġquestion": 1479,
      "Ġglance": 1480,
      "Ġgather": 1481,
      "Ġmanage": 1482,
      "che": 1483,
      "Ġheavy": 1484,
      "Ġgn": 1485,
      "Ġprep": 1486,
      "Ġindividual": 1487,
      "Ġmain": 1488,
      "Ġprot": 1489,
      "arch": 1490,
      "Ġ24": 1491,
      "Ġhappened": 1492,
      "roll": 1493,
      "ues": 1494,
      "Ġstanding": 1495,
      "asp": 1496,
      "aces": 1497,
      "rect": 1498,
      "Ġstre": 1499,
      "Ġ6": 1500,
      "its": 1501,
      "Ġgener": 1502,
      "Ġmeans": 1503,
      "ained": 1504,
      "Ġav": 1505,
      "Ġcold": 1506,
      "Ġcontinue": 1507,
      "Ġunc": 1508,
      "Ġsqu": 1509,
      "end": 1510,
      "ames": 1511,
      "Ġbol": 1512,
      "igg": 1513,
      "Ġcart": 1514,
      "Ġwow": 1515,
      "Ġlist": 1516,
      "Ġlear": 1517,
      "Ġbelieve": 1518,
      "Ġdeath": 1519,
      "ities": 1520,
      "Ġinvestig": 1521,
      "Ġshad": 1522,
      "Ġguess": 1523,
      "Ġfurther": 1524,
      "Ġhealing": 1525,
      "Ġdays": 1526,
      "dom": 1527,
      "Ġstrange": 1528,
      "Ġbag": 1529,
      "Ġspace": 1530,
      "Ġstrong": 1531,
      "arwood": 1532,
      "Ġgent": 1533,
      "Ġsign": 1534,
      "Ġbriarwood": 1535,
      "ls": 1536,
      "Ġresp": 1537,
      "Ġhang": 1538,
      "Ġcorrect": 1539,
      "ia": 1540,
      "Ġdestro": 1541,
      "ted": 1542,
      "ci": 1543,
      "ime": 1544,
      "fortun": 1545,
      "Ġcoll": 1546,
      "Ġterrible": 1547,
      "Ġmount": 1548,
      "Ġdex": 1549,
      "iddle": 1550,
      "Ġtea": 1551,
      "Ġarcan": 1552,
      "Ġpieces": 1553,
      "Ġnotice": 1554,
      "Ġstrike": 1555,
      "cus": 1556,
      "cture": 1557,
      "Ġmyself": 1558,
      "Ġbusiness": 1559,
      "Ġsounds": 1560,
      "Ġunderstand": 1561,
      "Ġ22": 1562,
      "you": 1563,
      "Ġplat": 1564,
      "Ġunfortun": 1565,
      "iding": 1566,
      "?!": 1567,
      "Ġtouch": 1568,
      "Ġdu": 1569,
      "Ġappear": 1570,
      "rought": 1571,
      "orn": 1572,
      "ee": 1573,
      "umpkin": 1574,
      "mor": 1575,
      "Ġsafe": 1576,
      "Ġappears": 1577,
      "Ġthird": 1578,
      "Ġob": 1579,
      "Ġexpl": 1580,
      "uring": 1581,
      "Ġdou": 1582,
      "Ġdri": 1583,
      "Ġtimes": 1584,
      "Ġ'": 1585,
      "Ġsam": 1586,
      "Ġbrought": 1587,
      "Ġmetal": 1588,
      "Ġsuper": 1589,
      "umb": 1590,
      "Ġfast": 1591,
      "Ġmiddle": 1592,
      "Ġbear": 1593,
      "Ġwhite": 1594,
      "ili": 1595,
      "Ġfrumpkin": 1596,
      "Ġglow": 1597,
      "aut": 1598,
      "Ġap": 1599,
      "Ġusing": 1600,
      "kes": 1601,
      "Ġisn": 1602,
      "Ġwis": 1603,
      "Ġsuch": 1604,
      "ired": 1605,
      "Ġcross": 1606,
      "Ġmagical": 1607,
      "Ġann": 1608,
      "Ġcloud": 1609,
      "Ġwon": 1610,
      "Ġnorth": 1611,
      "the": 1612,
      "Ġquiet": 1613,
      "Ġwish": 1614,
      "Ġloc": 1615,
      "ots": 1616,
      "Ġtent": 1617,
      "Ġlive": 1618,
      "Ġslight": 1619,
      "Ġmanaged": 1620,
      "Ġsent": 1621,
      "Ġcalled": 1622,
      "con": 1623,
      "Ġchest": 1624,
      "Ġanyway": 1625,
      "Ġbrings": 1626,
      "Ġglass": 1627,
      "Ġfail": 1628,
      "als": 1629,
      "Ġfill": 1630,
      "Ġhur": 1631,
      "Ġcomplete": 1632,
      "foot": 1633,
      "Ġprevious": 1634,
      "Ġhappy": 1635,
      "ared": 1636,
      "Ġ23": 1637,
      "Ġleg": 1638,
      "Ġwonder": 1639,
      "Ġbeneath": 1640,
      "pet": 1641,
      "Ġgrow": 1642,
      "Ġkilled": 1643,
      "Ġce": 1644,
      "oth": 1645,
      "Ġpay": 1646,
      "Ġstraight": 1647,
      "Ġang": 1648,
      "Ġsneak": 1649,
      "ced": 1650,
      "centr": 1651,
      "Ġsuddenly": 1652,
      "Ġhide": 1653,
      "Ġbra": 1654,
      "Ġwasn": 1655,
      "ches": 1656,
      "ged": 1657,
      "Ġenc": 1658,
      "Ġunfortunately": 1659,
      "Ġspl": 1660,
      "Ġwom": 1661,
      "asion": 1662,
      "ring": 1663,
      "Ġblast": 1664,
      "app": 1665,
      "oof": 1666,
      "Ġseeing": 1667,
      "Ġconcentr": 1668,
      "Ġquickly": 1669,
      "Ġweapon": 1670,
      "Ġmist": 1671,
      "Ġknock": 1672,
      "Ġart": 1673,
      "Ġlow": 1674,
      "Ġdet": 1675,
      "Ġdagger": 1676,
      "osed": 1677,
      "Ġinc": 1678,
      "cheering": 1679,
      "Ġthanks": 1680,
      "Ġfant": 1681,
      "oid": 1682,
      "ets": 1683,
      "Ġmother": 1684,
      "Ġones": 1685,
      "Ġroad": 1686,
      "Ġworld": 1687,
      "Ġbunch": 1688,
      "here": 1689,
      "--\"": 1690,
      "Ġbottom": 1691,
      "Ġvan": 1692,
      "Ġjoin": 1693,
      "Ġtower": 1694,
      "Ġla": 1695,
      "Ġess": 1696,
      "isper": 1697,
      "what": 1698,
      "Ġeas": 1699,
      "Ġbeaut": 1700,
      "Ġdestroy": 1701,
      "Ġwisdom": 1702,
      "Ġattention": 1703,
      "Ġbelow": 1704,
      "Ġappare": 1705,
      "well": 1706,
      "Ġhon": 1707,
      "Ġconvers": 1708,
      "iling": 1709,
      "Ġdrop": 1710,
      "Ġactual": 1711,
      "Ġwatching": 1712,
      "Ġsuc": 1713,
      "Ġfing": 1714,
      "Ġcertain": 1715,
      "ject": 1716,
      "iliar": 1717,
      "irt": 1718,
      "ging": 1719,
      "iny": 1720,
      "Ġcad": 1721,
      "Ġannoun": 1722,
      "Ġmouth": 1723,
      "Ġsky": 1724,
      "Ġgentle": 1725,
      "Ġnope": 1726,
      "land": 1727,
      "Ġcrack": 1728,
      "Ġins": 1729,
      "Ġfol": 1730,
      "ima": 1731,
      "Ġdanger": 1732,
      "Ġstick": 1733,
      "Ġcloser": 1734,
      "Ġapparently": 1735,
      "Ġcase": 1736,
      "Ġbow": 1737,
      "Ġhimself": 1738,
      "Ġcreatures": 1739,
      "Ġpiece": 1740,
      "light": 1741,
      "Ġbase": 1742,
      "ik": 1743,
      "Ġgreen": 1744,
      "cri": 1745,
      "Ġtech": 1746,
      "Ġsub": 1747,
      "ilt": 1748,
      "ises": 1749,
      "unity": 1750,
      "Ġ8": 1751,
      "astic": 1752,
      "Ġta": 1753,
      "ral": 1754,
      "Ġlater": 1755,
      "Ġhours": 1756,
      "Ġkima": 1757,
      "umm": 1758,
      "ges": 1759,
      "Ġtold": 1760,
      "Ġinit": 1761,
      "Ġfocus": 1762,
      "Ġdamn": 1763,
      "Ġbeautif": 1764,
      "ored": 1765,
      "Ġbuilding": 1766,
      "ten": 1767,
      "Ġspeed": 1768,
      "Ġcharact": 1769,
      "Ġprotect": 1770,
      "Ġwin": 1771,
      "Ġfamiliar": 1772,
      "ster": 1773,
      "Ġim": 1774,
      "Ġprocess": 1775,
      "Ġlightning": 1776,
      "Ġstarting": 1777,
      "Ġlady": 1778,
      "ards": 1779,
      "Ġhappening": 1780,
      "Ġeffect": 1781,
      "Ġelemental": 1782,
      "Ġclo": 1783,
      "Ġmer": 1784,
      "Ġdragons": 1785,
      "me": 1786,
      "not": 1787,
      "Ġtechn": 1788,
      "bed": 1789,
      "Ġinvestigation": 1790,
      "Ġattempt": 1791,
      "Ġbed": 1792,
      "Ġchild": 1793,
      "Ġvec": 1794,
      "Ġarms": 1795,
      "Ġmod": 1796,
      "zy": 1797,
      "Ġwaiting": 1798,
      "Ġluck": 1799,
      "Ġblue": 1800,
      "Ġill": 1801,
      "Ġsmell": 1802,
      "isp": 1803,
      "Ġvecna": 1804,
      "Ġsea": 1805,
      "Ġtotal": 1806,
      "arm": 1807,
      "Ġneck": 1808,
      "overed": 1809,
      "uceus": 1810,
      "Ġsitting": 1811,
      "Ġbare": 1812,
      "leas": 1813,
      "Ġbroken": 1814,
      "Ġplane": 1815,
      "Ġcaduceus": 1816,
      "Ġball": 1817,
      "Ġhappens": 1818,
      "Ġless": 1819,
      "Ġbeautiful": 1820,
      "ister": 1821,
      "ages": 1822,
      "irl": 1823,
      "Ġanybody": 1824,
      "Ġago": 1825,
      "Ġpulled": 1826,
      "Ġboat": 1827,
      "ently": 1828,
      "Ġworking": 1829,
      "Ġpier": 1830,
      "Ġwoman": 1831,
      "Ġstarts": 1832,
      "read": 1833,
      "Ġcount": 1834,
      "Ġfantastic": 1835,
      "Ġkick": 1836,
      "bing": 1837,
      "ern": 1838,
      "Ġfaint": 1839,
      "Ġpat": 1840,
      "Ġgun": 1841,
      "ses": 1842,
      "Ġmess": 1843,
      "Ġsomebody": 1844,
      "ub": 1845,
      "onscious": 1846,
      "Ġconversation": 1847,
      "Ġflying": 1848,
      "Ġty": 1849,
      "king": 1850,
      "Ġfalls": 1851,
      "Ġbox": 1852,
      "Ġesc": 1853,
      "Ġtoday": 1854,
      "Ġwouldn": 1855,
      "Ġcarpet": 1856,
      "cc": 1857,
      "ley": 1858,
      "lo": 1859,
      "ution": 1860,
      "Ġsides": 1861,
      "ĠĠ": 1862,
      "ason": 1863,
      "Ġheading": 1864,
      "ask": 1865,
      "Ġbolt": 1866,
      "Ġswing": 1867,
      "Ġhallway": 1868,
      "Ġdi": 1869,
      "ific": 1870,
      "Ġcover": 1871,
      "Ġunconscious": 1872,
      "irts": 1873,
      "Ġwand": 1874,
      "Ġearth": 1875,
      "ayer": 1876,
      "pr": 1877,
      "cket": 1878,
      "udge": 1879,
      "Ġrad": 1880,
      "Ġgil": 1881,
      "Ġseries": 1882,
      "ourn": 1883,
      "Ġminute": 1884,
      "Ġstairs": 1885,
      "ments": 1886,
      "Ġcavern": 1887,
      "Ġbarely": 1888,
      "Ġtavern": 1889,
      "Ġcarry": 1890,
      "Ġenter": 1891,
      "Ġworth": 1892,
      "Ġvas": 1893,
      "ashing": 1894,
      "Ġdevil": 1895,
      "Ġleaving": 1896,
      "haps": 1897,
      "Ġdraw": 1898,
      "Ġhu": 1899,
      "Ġlift": 1900,
      "Ġdoors": 1901,
      "Ġclim": 1902,
      "ume": 1903,
      "ided": 1904,
      "Ġdouble": 1905,
      "Ġwants": 1906,
      "Ġrough": 1907,
      "chant": 1908,
      "Ġlisten": 1909,
      "aterial": 1910,
      "Ġbooks": 1911,
      "Ġrequ": 1912,
      "Ġdel": 1913,
      "Ġentr": 1914,
      "Ġpain": 1915,
      "aught": 1916,
      "Ġdiv": 1917,
      "bat": 1918,
      "ork": 1919,
      "Ġundead": 1920,
      "Ġforest": 1921,
      "Ġinterior": 1922,
      "Ġthick": 1923,
      "Ġgeneral": 1924,
      "ized": 1925,
      "Ġnature": 1926,
      "Ġthr": 1927,
      "Ġclar": 1928,
      "Ġstru": 1929,
      "Ġgiven": 1930,
      "Ġpri": 1931,
      "Ġyell": 1932,
      "Ġpossible": 1933,
      "iting": 1934,
      "Ġvision": 1935,
      "Ġmonth": 1936,
      "Ġdexter": 1937,
      "Ġmaterial": 1938,
      "used": 1939,
      "Ġdarkness": 1940,
      "Ġwalls": 1941,
      "oose": 1942,
      "Ġnoise": 1943,
      "Ġexact": 1944,
      "itual": 1945,
      "Ġtrees": 1946,
      "Ġcloak": 1947,
      "Ġboy": 1948,
      "Ġwrong": 1949,
      "Ġwide": 1950,
      "Ġinf": 1951,
      "Ġspells": 1952,
      "cival": 1953,
      "Ġfav": 1954,
      "Ġdiscus": 1955,
      "Ġinvis": 1956,
      "ching": 1957,
      "Ġthemselves": 1958,
      "Ġswe": 1959,
      "Ġholy": 1960,
      "Ġocc": 1961,
      "Ġspir": 1962,
      "lier": 1963,
      "ibly": 1964,
      "Ġdexterity": 1965,
      "Ġheart": 1966,
      "Ġsomewhere": 1967,
      "Ġnorm": 1968,
      "neath": 1969,
      "Ġunderneath": 1970,
      "Ġinteresting": 1971,
      "Ġsees": 1972,
      "Ġputs": 1973,
      "Ġdot": 1974,
      "Ġcry": 1975,
      "Ġtechnically": 1976,
      "Ġstructure": 1977,
      "Ġlaura": 1978,
      "ience": 1979,
      "sc": 1980,
      "entially": 1981,
      "Ġemon": 1982,
      "Ġbits": 1983,
      "Ġgrapp": 1984,
      "Ġshift": 1985,
      "Ġfre": 1986,
      "Ġpoison": 1987,
      "Ġarcane": 1988,
      "Ġsol": 1989,
      "Ġsurv": 1990,
      "Ġnearby": 1991,
      "Ġref": 1992,
      "Ġiron": 1993,
      "blem": 1994,
      "Ġwalks": 1995,
      "Ġannounce": 1996,
      "acks": 1997,
      "Ġgiving": 1998,
      "Ġpercival": 1999,
      "Ġice": 2000,
      "Ġnein": 2001,
      "ball": 2002,
      "Ġprom": 2003,
      "gg": 2004,
      "Ġasks": 2005,
      "Ġlost": 2006,
      "Ġjourn": 2007,
      "Ġbeginning": 2008,
      "Ġgave": 2009,
      "Ġclaw": 2010,
      "rie": 2011,
      "Ġperhaps": 2012,
      "Ġnotic": 2013,
      "Ġmusic": 2014,
      "Ġmine": 2015,
      "Ġshadow": 2016,
      "Ġking": 2017,
      "Ġexcited": 2018,
      "imp": 2019,
      "Ġseeming": 2020,
      "Ġmass": 2021,
      "Ġspend": 2022,
      "Ġbrief": 2023,
      "Ġsymb": 2024,
      "Ġknows": 2025,
      "Ġlord": 2026,
      "Ġmountain": 2027,
      "Ġhello": 2028,
      "Ġsymbol": 2029,
      "itution": 2030,
      "heim": 2031,
      "Ġamong": 2032,
      "Ġresist": 2033,
      "Ġmust": 2034,
      "aining": 2035,
      "Ġbreath": 2036,
      "selheim": 2037,
      "Ġtrust": 2038,
      "Ġcastle": 2039,
      "Ġmemb": 2040,
      "Ġsister": 2041,
      "Ġyoun": 2042,
      "Ġgnome": 2043,
      "Ġduring": 2044,
      "Ġwonderful": 2045,
      "ines": 2046,
      "Ġsurround": 2047,
      "Ġfan": 2048,
      "ened": 2049,
      "Ġstory": 2050,
      "Ġvasselheim": 2051,
      "Ġconstitution": 2052,
      "Ġbod": 2053,
      "Ġwarm": 2054,
      "singing": 2055,
      "unk": 2056,
      "Ġmembers": 2057,
      "Ġburst": 2058,
      "ute": 2059,
      "Ġexper": 2060,
      "Ġrope": 2061,
      "Ġtwitch": 2062,
      "Ġreaches": 2063,
      "Ġrep": 2064,
      "Ġmodif": 2065,
      "ilar": 2066,
      "Ġmansion": 2067,
      "Ġfinal": 2068,
      "Ġ7": 2069,
      "Ġalive": 2070,
      "Ġproblem": 2071,
      "Ġcrazy": 2072,
      "Ġstorm": 2073,
      "Ġvanish": 2074,
      "level": 2075,
      "Ġopens": 2076,
      "Ġri": 2077,
      "Ġcrew": 2078,
      "Ġiniti": 2079,
      "ants": 2080,
      "Ġwearing": 2081,
      "Ġtrans": 2082,
      "Ġforce": 2083,
      "Ġtall": 2084,
      "Ġvic": 2085,
      "Ġsphere": 2086,
      "ny": 2087,
      "Ġbeast": 2088,
      "face": 2089,
      "Ġthinking": 2090,
      "ship": 2091,
      "ald": 2092,
      "Ġshout": 2093,
      "Ġbodies": 2094,
      "Ġner": 2095,
      "Ġring": 2096,
      "Ġhot": 2097,
      "lee": 2098,
      "Ġpulling": 2099,
      "Ġtomor": 2100,
      "stairs": 2101,
      "Ġtomorrow": 2102,
      "ids": 2103,
      "Ġkra": 2104,
      "Ġduerg": 2105,
      "ogn": 2106,
      "Ġpour": 2107,
      "hand": 2108,
      "Ġdisapp": 2109,
      "Ġflash": 2110,
      "ika": 2111,
      "Ġduergar": 2112,
      "Ġinstead": 2113,
      "eth": 2114,
      "oop": 2115,
      "Ġ60": 2116,
      "gro": 2117,
      "bow": 2118,
      "Ġfeeling": 2119,
      "Ġcentral": 2120,
      "Ġslams": 2121,
      "Ġ26": 2122,
      "Ġsour": 2123,
      "Ġloud": 2124,
      "Ġheld": 2125,
      "Ġpit": 2126,
      "Ġarch": 2127,
      "ota": 2128,
      "Ġexactly": 2129,
      "Ġrecogn": 2130,
      "Ġhurt": 2131,
      "Ġhi": 2132,
      "Ġreact": 2133,
      "Ġbegan": 2134,
      "Ġjob": 2135,
      "een": 2136,
      "Ġshak": 2137,
      "Ġjourney": 2138,
      "Ġopport": 2139,
      "Ġpiercing": 2140,
      "Ġentrance": 2141,
      "Ġrage": 2142,
      "Ġpap": 2143,
      "Ġpill": 2144,
      "undred": 2145,
      "Ġmighty": 2146,
      "Ġpushing": 2147,
      "Ġ40": 2148,
      "over": 2149,
      "Ġcolor": 2150,
      "Ġdoty": 2151,
      "Ġclear": 2152,
      "Ġisland": 2153,
      "bo": 2154,
      "Ġlonger": 2155,
      "Ġthrows": 2156,
      "Ġfollowing": 2157,
      "ceed": 2158,
      "Ġvi": 2159,
      "Ġcal": 2160,
      "Ġcrow": 2161,
      "Ġfolks": 2162,
      "Ġer": 2163,
      "inity": 2164,
      "Ġworry": 2165,
      "Ġhundred": 2166,
      "Ġceiling": 2167,
      "jo": 2168,
      "Ġgentleman": 2169,
      "ism": 2170,
      "fect": 2171,
      "Ġindividuals": 2172,
      "iles": 2173,
      "Ġsmoke": 2174,
      "attered": 2175,
      "Ġweeks": 2176,
      "that": 2177,
      "Ġaren": 2178,
      "Ġtrick": 2179,
      "Ġfood": 2180,
      "Ġtit": 2181,
      "Ġwindow": 2182,
      "Ġcharacter": 2183,
      "rol": 2184,
      "Ġmodifier": 2185,
      "imm": 2186,
      "Ġearlier": 2187,
      "Ġpal": 2188,
      "Ġdart": 2189,
      "els": 2190,
      "Ġavail": 2191,
      "Ġclust": 2192,
      "ised": 2193,
      "Ġasking": 2194,
      "Ġinitiative": 2195,
      "Ġ50": 2196,
      "Ġleads": 2197,
      "sw": 2198,
      "Ġexist": 2199,
      "avis": 2200,
      "Ġavant": 2201,
      "arp": 2202,
      "Ġplaces": 2203,
      "Ġknown": 2204,
      "Ġhole": 2205,
      "Ġavantika": 2206,
      "Ġgirl": 2207,
      "ents": 2208,
      "Ġwounds": 2209,
      "Ġmid": 2210,
      "Ġtravis": 2211,
      "Ġgilmore": 2212,
      "Ġconsid": 2213,
      "Ġspr": 2214,
      "Ġheads": 2215,
      "ze": 2216,
      "Ġscream": 2217,
      "Ġmisses": 2218,
      "Ġweapons": 2219,
      "Ġsimilar": 2220,
      "Ġdangerous": 2221,
      "ane": 2222,
      "Ġshape": 2223,
      "Ġphys": 2224,
      "Ġwest": 2225,
      "Ġclarota": 2226,
      "ret": 2227,
      "oosh": 2228,
      "ole": 2229,
      "asps": 2230,
      "Ġadvent": 2231,
      "Ġruns": 2232,
      "Ġfavor": 2233,
      "Ġwy": 2234,
      "Ġhamm": 2235,
      "athered": 2236,
      "Ġopportunity": 2237,
      "Ġdc": 2238,
      "Ġstands": 2239,
      "Ġseemed": 2240,
      "Ġpotion": 2241,
      "Ġsouth": 2242,
      "Ġchange": 2243,
      "Ġavailable": 2244,
      "Ġsight": 2245,
      "Ġdiscovered": 2246,
      "ighs": 2247,
      "rap": 2248,
      "Ġperfect": 2249,
      "Ġoth": 2250,
      "Ġconcentration": 2251,
      "ton": 2252,
      "Ġline": 2253,
      "ures": 2254,
      "Ġdun": 2255,
      "omes": 2256,
      "ades": 2257,
      "Ġorder": 2258,
      "Ġability": 2259,
      "olog": 2260,
      "Ġworks": 2261,
      "Ġfather": 2262,
      "Ġske": 2263,
      "Ġeat": 2264,
      "Ġraven": 2265,
      "Ġwords": 2266,
      "under": 2267,
      "Ġarri": 2268,
      "Ġwings": 2269,
      "Ġfact": 2270,
      "Ġessentially": 2271,
      "Ġentity": 2272,
      "aced": 2273,
      "Ġdod": 2274,
      "iew": 2275,
      "Ġhonest": 2276,
      "Ġintell": 2277,
      "Ġflame": 2278,
      "Ġdust": 2279,
      "gue": 2280,
      "Ġreason": 2281,
      "Ġplaying": 2282,
      "Ġthro": 2283,
      "esh": 2284,
      "east": 2285,
      "Ġknew": 2286,
      "Ġbright": 2287,
      "Ġpos": 2288,
      "sk": 2289,
      "Ġyear": 2290,
      "Ġamongst": 2291,
      "Ġskin": 2292,
      "Ġacid": 2293,
      "Ġextra": 2294,
      "Ġsearch": 2295,
      "Ġleather": 2296,
      "Ġbriarwoods": 2297,
      "Ġcaptain": 2298,
      "Ġtells": 2299,
      "oning": 2300,
      "Ġchain": 2301,
      "Ġblow": 2302,
      "Ġcannot": 2303,
      "Ġcompletely": 2304,
      "Ġlit": 2305,
      "Ġaddition": 2306,
      "Ġfingers": 2307,
      "aff": 2308,
      "Ġabs": 2309,
      "Ġtaryon": 2310,
      "Ġothers": 2311,
      "Ġ28": 2312,
      "Ġrolls": 2313,
      "Ġcho": 2314,
      "Ġcontinues": 2315,
      "Ġdoorway": 2316,
      "Ġdock": 2317,
      "Ġleap": 2318,
      "Ġcat": 2319,
      "Ġgate": 2320,
      "work": 2321,
      "io": 2322,
      "Ġplatform": 2323,
      "Ġpunch": 2324,
      "Ġpreviously": 2325,
      "Ġpossibly": 2326,
      "Ġcrown": 2327,
      "Ġ27": 2328,
      "Ġstaying": 2329,
      "Ġsurface": 2330,
      "Ġax": 2331,
      "Ġsurpr": 2332,
      "Ġexpect": 2333,
      "Ġpowerful": 2334,
      "ones": 2335,
      "Ġgrabs": 2336,
      "Ġtiny": 2337,
      "Ġmem": 2338,
      "look": 2339,
      "ispers": 2340,
      "Ġdisp": 2341,
      "Ġslightly": 2342,
      "Ġcontract": 2343,
      "Ġsize": 2344,
      "Ġbless": 2345,
      "Ġfeels": 2346,
      "guard": 2347,
      ",\"": 2348,
      "Ġways": 2349,
      "ressed": 2350,
      "count": 2351,
      "Ġforg": 2352,
      "Ġbuilt": 2353,
      "Ġchat": 2354,
      "Ġdirect": 2355,
      "Ġath": 2356,
      "ispering": 2357,
      "Ġsilver": 2358,
      "Ġbab": 2359,
      "Ġprison": 2360,
      "Ġimport": 2361,
      "Ġpresence": 2362,
      "Ġthroat": 2363,
      "Ġathlet": 2364,
      "zz": 2365,
      "Ġburning": 2366,
      "Ġstair": 2367,
      "Ġrid": 2368,
      "alt": 2369,
      "Ġchance": 2370,
      "aning": 2371,
      "Ġdesign": 2372,
      "Ġitem": 2373,
      "cer": 2374,
      "Ġfro": 2375,
      "10": 2376,
      "Ġgrasp": 2377,
      "Ġpurp": 2378,
      "Ġportion": 2379,
      "Ġliam": 2380,
      "aign": 2381,
      "Ġmostly": 2382,
      "Ġenchant": 2383,
      "Ġincl": 2384,
      "Ġathletics": 2385,
      "Ġgif": 2386,
      "ammer": 2387,
      "Ġvicinity": 2388,
      "Ġenjo": 2389,
      "Ġcontrol": 2390,
      "Ġcampaign": 2391,
      "Ġjaw": 2392,
      "Ġhist": 2393,
      "Ġsou": 2394,
      "Ġskelet": 2395,
      "Ġunless": 2396,
      "Ġrather": 2397,
      "Ġwild": 2398,
      "Ġhunter": 2399,
      "Ġdwarf": 2400,
      "Ġwound": 2401,
      "Ġimag": 2402,
      "Ġmatter": 2403,
      "fuck": 2404,
      "onds": 2405,
      "Ġroof": 2406,
      "ased": 2407,
      "Ġconstru": 2408,
      "Ġobject": 2409,
      "Ġneeds": 2410,
      "Ġempire": 2411,
      "Ġoppos": 2412,
      "Ġtotally": 2413,
      "ices": 2414,
      "Ġest": 2415,
      "Ġcell": 2416,
      "Ġtries": 2417,
      "ales": 2418,
      "Ġsingle": 2419,
      "bers": 2420,
      "Ġrolling": 2421,
      "Ġtraps": 2422,
      "pper": 2423,
      "Ġfinishes": 2424,
      "Ġpresent": 2425,
      "rest": 2426,
      "),": 2427,
      "Ġintellig": 2428,
      "Ġinsight": 2429,
      "Ġduck": 2430,
      "aste": 2431,
      "Ġtwice": 2432,
      "Ġtri": 2433,
      "Ġpop": 2434,
      "Ġpress": 2435,
      "ips": 2436,
      "Ġmusc": 2437,
      "Ġmen": 2438,
      "Ġspecial": 2439,
      "br": 2440,
      "Ġdep": 2441,
      "Ġdestroyed": 2442,
      "Ġteeth": 2443,
      "Ġchr": 2444,
      "Ġkept": 2445,
      "Ġsupposed": 2446,
      "Ġeasy": 2447,
      "andra": 2448,
      "Ġbrain": 2449,
      "Ġcurrent": 2450,
      "Ġchains": 2451,
      "Ġappre": 2452,
      "ledge": 2453,
      "Ġsource": 2454,
      "Ġflesh": 2455,
      "Ġyoung": 2456,
      "atic": 2457,
      "Ġcass": 2458,
      "Ġempty": 2459,
      "imes": 2460,
      "Ġdunge": 2461,
      "Ġsch": 2462,
      "Ġritual": 2463,
      "Ġlocked": 2464,
      "Ġble": 2465,
      "Ġshield": 2466,
      "Ġseemingly": 2467,
      "nect": 2468,
      "Ġsong": 2469,
      "Ġdar": 2470,
      "cean": 2471,
      "Ġoutsk": 2472,
      "Ġview": 2473,
      "Ġgray": 2474,
      "Ġpool": 2475,
      "Ġinspir": 2476,
      "isha": 2477,
      "gasps": 2478,
      "ns": 2479,
      "Ġtar": 2480,
      "Ġanymore": 2481,
      "Ġinvisible": 2482,
      "fall": 2483,
      "Ġchecks": 2484,
      "Ġhorse": 2485,
      "Ġanim": 2486,
      "Ġasked": 2487,
      "Ġris": 2488,
      "Ġhammer": 2489,
      "Ġiss": 2490,
      "Ġappreci": 2491,
      "Ġoutskirts": 2492,
      "Ġpocket": 2493,
      "Ġcoast": 2494,
      "Ġaxe": 2495,
      "oes": 2496,
      "urs": 2497,
      "Ġdivine": 2498,
      "Ġallura": 2499,
      "Ġevil": 2500,
      "Ġbludge": 2501,
      "Ġflames": 2502,
      "Ġopposite": 2503,
      "Ġpartially": 2504,
      "ined": 2505,
      "Ġdeck": 2506,
      "Ġadditional": 2507,
      "Ġoccasion": 2508,
      "iesin": 2509,
      "noll": 2510,
      "Ġpar": 2511,
      "Ġproper": 2512,
      "Ġbuy": 2513,
      "Ġstrikes": 2514,
      "Ġreve": 2515,
      "ured": 2516,
      "Ġmaster": 2517,
      "amed": 2518,
      "ude": 2519,
      "Ġcassandra": 2520,
      "sighs": 2521,
      "Ġprone": 2522,
      "Ġhitting": 2523,
      "Ġclass": 2524,
      "Ġgnoll": 2525,
      "rae": 2526,
      "Ġnecess": 2527,
      "ries": 2528,
      "Ġelements": 2529,
      "Ġstreet": 2530,
      "Ġlate": 2531,
      "Ġsaren": 2532,
      "Ġtorso": 2533,
      "grun": 2534,
      "Ġtaliesin": 2535,
      "Ġcaught": 2536,
      "Ġled": 2537,
      "ex": 2538,
      "Ġsarenrae": 2539,
      "Ġhorses": 2540,
      "Ġteam": 2541,
      "Ġdick": 2542,
      "Ġocean": 2543,
      "ery": 2544,
      "vered": 2545,
      "Ġprof": 2546,
      "Ġentirely": 2547,
      "inum": 2548,
      "Ġstore": 2549,
      "Ġtrap": 2550,
      "Ġorig": 2551,
      "Ġimportant": 2552,
      "Ġmarisha": 2553,
      "usion": 2554,
      "yes": 2555,
      "Ġsand": 2556,
      "fortable": 2557,
      "Ġfinding": 2558,
      "Ġrob": 2559,
      "Ġglad": 2560,
      "Ġallow": 2561,
      "Ġlooked": 2562,
      "Ġskull": 2563,
      "ground": 2564,
      "Ġdistant": 2565,
      "Ġfighting": 2566,
      "Ġquestions": 2567,
      "Ġplatinum": 2568,
      "Ġrelease": 2569,
      "Ġputting": 2570,
      "ails": 2571,
      "Ġshall": 2572,
      "Ġbased": 2573,
      "Ġhumanoid": 2574,
      "Ġglowing": 2575,
      "Ġdru": 2576,
      "Ġsund": 2577,
      "Ġcoun": 2578,
      "omb": 2579,
      "Ġbludgeoning": 2580,
      "Ġcreep": 2581,
      "Ġsometimes": 2582,
      "une": 2583,
      "mon": 2584,
      "Ġremind": 2585,
      "pect": 2586,
      "Ġgathered": 2587,
      "Ġtried": 2588,
      "Ġgh": 2589,
      "anged": 2590,
      "Ġclosed": 2591,
      "ient": 2592,
      "Ġhopefully": 2593,
      "20": 2594,
      "ung": 2595,
      "Ġqueen": 2596,
      "Ġcrowd": 2597,
      "Ġfell": 2598,
      "Ġstaff": 2599,
      "Ġnote": 2600,
      "ests": 2601,
      "Ġfort": 2602,
      "aming": 2603,
      "Ġlearned": 2604,
      "Ġhar": 2605,
      "Ġbird": 2606,
      "esus": 2607,
      "they": 2608,
      "Ġwhoa": 2609,
      "Ġcoin": 2610,
      "aged": 2611,
      "Ġstarted": 2612,
      "Ġclean": 2613,
      "000": 2614,
      "Ġforgot": 2615,
      "Ġbringing": 2616,
      "idden": 2617,
      "ires": 2618,
      "Ġog": 2619,
      "ault": 2620,
      "Ġserious": 2621,
      "Ġintelligence": 2622,
      "ils": 2623,
      "Ġlarger": 2624,
      "Ġrecently": 2625,
      "Ġshut": 2626,
      "Ġsucceed": 2627,
      "iant": 2628,
      "Ġconnect": 2629,
      "Ġpaper": 2630,
      "Ġdisgu": 2631,
      "Ġlower": 2632,
      "Ġcollect": 2633,
      "Ġnobody": 2634,
      "Ġjesus": 2635,
      "Ġterr": 2636,
      "Ġtele": 2637,
      "Ġself": 2638,
      "Ġturned": 2639,
      "Ġboots": 2640,
      "Ġexcept": 2641,
      "Ġcircle": 2642,
      "Ġjam": 2643,
      "ishing": 2644,
      "cend": 2645,
      "Ġblind": 2646,
      "ists": 2647,
      "Ġorb": 2648,
      "vous": 2649,
      "Ġmanages": 2650,
      "Ġstup": 2651,
      "Ġopening": 2652,
      "Ġsuck": 2653,
      "Ġleader": 2654,
      "Ġbone": 2655,
      "Ġcasts": 2656,
      "Ġtraveling": 2657,
      "Ġknowledge": 2658,
      "Ġphysical": 2659,
      "Ġhistory": 2660,
      "Ġcasting": 2661,
      "Ġmention": 2662,
      "Ġmeant": 2663,
      "master": 2664,
      "Ġdecided": 2665,
      "Ġmoves": 2666,
      "ried": 2667,
      "vis": 2668,
      "Ġrooms": 2669,
      "Ġagree": 2670,
      "Ġyourselves": 2671,
      "whispering": 2672,
      "ric": 2673,
      "ibility": 2674,
      "Ġrecognize": 2675,
      "Ġrushing": 2676,
      "line": 2677,
      "uth": 2678,
      "aging": 2679,
      "Ġfie": 2680,
      "Ġloot": 2681,
      "Ġreturned": 2682,
      "arily": 2683,
      "Ġbaby": 2684,
      "ills": 2685,
      "Ġposition": 2686,
      "Ġapolog": 2687,
      "ien": 2688,
      "Ġtear": 2689,
      "Ġherself": 2690,
      "Ġrain": 2691,
      "use": 2692,
      "Ġfigures": 2693,
      "Ġfelt": 2694,
      "ok": 2695,
      "Ġband": 2696,
      "Ġpack": 2697,
      "Ġbroom": 2698,
      "Ġstupid": 2699,
      "Ġstab": 2700,
      "Ġblock": 2701,
      "Ġhelping": 2702,
      "Ġtight": 2703,
      "Ġlay": 2704,
      "Ġconfused": 2705,
      "Ġtrou": 2706,
      "Ġge": 2707,
      "Ġclut": 2708,
      "sy": 2709,
      "Ġlegs": 2710,
      "Ġdream": 2711,
      "Ġbull": 2712,
      "Ġbasically": 2713,
      "Ġreaction": 2714,
      "how": 2715,
      "Ġseal": 2716,
      "Ġja": 2717,
      "Ġbeat": 2718,
      "Ġrese": 2719,
      "Ġmeat": 2720,
      "Ġamount": 2721,
      "Ġ29": 2722,
      "la": 2723,
      "wl": 2724,
      "Ġfield": 2725,
      "Ġkeg": 2726,
      "Ġhigher": 2727,
      "Ġmap": 2728,
      "Ġassume": 2729,
      "Ġstud": 2730,
      "Ġthroughout": 2731,
      "Ġlearn": 2732,
      "Ġyours": 2733,
      "Ġhidden": 2734,
      "Ġtrace": 2735,
      "Ġbecome": 2736,
      "Ġinspiration": 2737,
      "Ġgoli": 2738,
      "Ġsolid": 2739,
      "Ġgoliath": 2740,
      "reme": 2741,
      "Ġangry": 2742,
      "Ġmissing": 2743,
      "gers": 2744,
      "Ġgobl": 2745,
      "otic": 2746,
      "Ġglancing": 2747,
      "Ġdracon": 2748,
      "Ġquietly": 2749,
      "Ġpan": 2750,
      "Ġhy": 2751,
      "Ġrip": 2752,
      "Ġshoulders": 2753,
      "Ġsnow": 2754,
      "Ġregular": 2755,
      "Ġtelling": 2756,
      "looking": 2757,
      "Ġearly": 2758,
      "Ġdwarven": 2759,
      "Ġalley": 2760,
      "Ġsubs": 2761,
      "Ġkeeps": 2762,
      "Ġrocks": 2763,
      "otion": 2764,
      "Ġvor": 2765,
      "Ġcloth": 2766,
      "Ġalone": 2767,
      "Ġdash": 2768,
      "Ġpartic": 2769,
      "Ġnormal": 2770,
      "Ġpleas": 2771,
      "Ġcrowns": 2772,
      "Ġashley": 2773,
      "Ġcler": 2774,
      "Ġanywhere": 2775,
      "Ġmm": 2776,
      "Ġbuildings": 2777,
      "Ġstreets": 2778,
      "Ġadventure": 2779,
      "Ġextreme": 2780,
      "Ġarc": 2781,
      "Ġcovered": 2782,
      "Ġnamed": 2783,
      "Ġtalks": 2784,
      "Ġarrows": 2785,
      "Ġseek": 2786,
      "Ġclimb": 2787,
      "Ġnews": 2788,
      "Ġcouldn": 2789,
      "par": 2790,
      "Ġuses": 2791,
      "Ġpotions": 2792,
      "Ġbite": 2793,
      "Ġcompan": 2794,
      "Ġforth": 2795,
      "Ġtype": 2796,
      "Ġrub": 2797,
      "Ġmelee": 2798,
      "Ġsits": 2799,
      "Ġfac": 2800,
      "Ġsharp": 2801,
      "Ġforget": 2802,
      "ares": 2803,
      "Ġsink": 2804,
      "ination": 2805,
      "Ġmult": 2806,
      "Ġnotes": 2807,
      "Ġshop": 2808,
      "Ġmaintain": 2809,
      "bar": 2810,
      "Ġhal": 2811,
      "eed": 2812,
      "Ġtap": 2813,
      "Ġdefe": 2814,
      "ert": 2815,
      "ify": 2816,
      "cause": 2817,
      "Ġcaus": 2818,
      "of": 2819,
      "Ġconscious": 2820,
      "Ġsets": 2821,
      "this": 2822,
      "Ġleaves": 2823,
      "Ġpersu": 2824,
      "Ġobs": 2825,
      "Ġglo": 2826,
      "Ġcreate": 2827,
      "enge": 2828,
      "ugal": 2829,
      "Ġnecr": 2830,
      "Ġlose": 2831,
      "Ġpushed": 2832,
      "Ġsuccess": 2833,
      "Ġenjoy": 2834,
      "orei": 2835,
      "whoosh": 2836,
      "Ġencount": 2837,
      "Ġmotherfuck": 2838,
      "Ġsoul": 2839,
      "--?": 2840,
      "Ġcrownsguard": 2841,
      "Ġaid": 2842,
      "Ġbrother": 2843,
      "Ġsir": 2844,
      "Ġreb": 2845,
      "Ġemerg": 2846,
      "Ġliter": 2847,
      "Ġhanging": 2848,
      "lish": 2849,
      "Ġeld": 2850,
      "rew": 2851,
      "Ġhood": 2852,
      "Ġsimple": 2853,
      "cient": 2854,
      "Ġcertainly": 2855,
      "Ġreleas": 2856,
      "Ġvorugal": 2857,
      "Ġnone": 2858,
      "acles": 2859,
      "Ġaware": 2860,
      "Ġinclud": 2861,
      "arn": 2862,
      "Ġma": 2863,
      "Ġflank": 2864,
      "ky": 2865,
      "Ġorigin": 2866,
      "Ġsumm": 2867,
      "Ġsepar": 2868,
      "Ġgivea": 2869,
      "Ġnoises": 2870,
      "ef": 2871,
      "Ġdim": 2872,
      "Ġcarved": 2873,
      "role": 2874,
      "Ġsupport": 2875,
      "Ġ&": 2876,
      "Ġcurious": 2877,
      "Ġmed": 2878,
      "Ġancient": 2879,
      "Ġ10": 2880,
      "Ġpeek": 2881,
      "Ġliqu": 2882,
      "ote": 2883,
      "Ġannouncements": 2884,
      "Ġparticular": 2885,
      "Ġhast": 2886,
      "tering": 2887,
      "osion": 2888,
      "Ġgods": 2889,
      "Ġrespect": 2890,
      "head": 2891,
      "uckles": 2892,
      "ressive": 2893,
      "Ġlav": 2894,
      "Ġinspect": 2895,
      "counting": 2896,
      "Ġlege": 2897,
      "Ġdiscuss": 2898,
      "Ġcircum": 2899,
      "Ġwake": 2900,
      "Ġlang": 2901,
      "Ġdev": 2902,
      "Ġsmaller": 2903,
      "Ġpow": 2904,
      "Ġnod": 2905,
      "Ġfear": 2906,
      "oned": 2907,
      "Ġlives": 2908,
      "sn": 2909,
      "Ġlangu": 2910,
      "ror": 2911,
      "Ġ100": 2912,
      "Ġrealize": 2913,
      "Ġappreciate": 2914,
      "Ġmonths": 2915,
      "Ġspark": 2916,
      "ms": 2917,
      "Ġfresh": 2918,
      "Ġsuff": 2919,
      "Ġscry": 2920,
      "attering": 2921,
      "ances": 2922,
      "itical": 2923,
      "Ġcure": 2924,
      "Ġaffect": 2925,
      "room": 2926,
      "Ġvisual": 2927,
      "lia": 2928,
      "zen": 2929,
      "Ġneeded": 2930,
      "Ġchildren": 2931,
      "Ġholds": 2932,
      "Ġdrift": 2933,
      "uc": 2934,
      "val": 2935,
      "Ġfiend": 2936,
      "Ġdog": 2937,
      "Ġtab": 2938,
      "Ġthunder": 2939,
      "Ġcrest": 2940,
      "Ġgem": 2941,
      "Ġut": 2942,
      "Ġgotten": 2943,
      "ahlia": 2944,
      "Ġimagine": 2945,
      "Ġreading": 2946,
      "Ġhug": 2947,
      "Ġugh": 2948,
      "ilities": 2949,
      "Ġpu": 2950,
      "ruun": 2951,
      "Ġwestruun": 2952,
      "Ġdruid": 2953,
      "Ġworked": 2954,
      "Ġswamp": 2955,
      "Ġfinally": 2956,
      "Ġequ": 2957,
      "Ġcombat": 2958,
      "Ġflick": 2959,
      "Ġolder": 2960,
      "Ġinterested": 2961,
      "Ġcontinu": 2962,
      "akes": 2963,
      "Ġsmile": 2964,
      "Ġtran": 2965,
      "Ġsmart": 2966,
      "ursday": 2967,
      "there": 2968,
      "Ġale": 2969,
      "Ġglances": 2970,
      "cil": 2971,
      "Ġhorrible": 2972,
      "Ġthursday": 2973,
      "Ġkev": 2974,
      "Ġbarre": 2975,
      "Ġreturning": 2976,
      "du": 2977,
      "Ġspecif": 2978,
      "ming": 2979,
      "Ġstor": 2980,
      "Ġspons": 2981,
      "Ġpersuasion": 2982,
      "ensive": 2983,
      "Ġpurple": 2984,
      "Ġcatches": 2985,
      "Ġstat": 2986,
      "Ġvisible": 2987,
      "case": 2988,
      "Ġliving": 2989,
      "born": 2990,
      "Ġloose": 2991,
      "Ġperform": 2992,
      "Ġvol": 2993,
      "Ġwrite": 2994,
      "Ġmur": 2995,
      "Ġwhisper": 2996,
      "Ġspot": 2997,
      "Ġburned": 2998,
      "Ġlegend": 2999,
      "Ġrecall": 3000,
      "Ġescape": 3001,
      "Ġfey": 3002,
      "Ġkids": 3003,
      "Ġwooden": 3004,
      "Ġtransp": 3005,
      "Ġlaw": 3006,
      "Ġfit": 3007,
      "Ġeag": 3008,
      "Ġslamm": 3009,
      "whispers": 3010,
      "Ġexperience": 3011,
      "Ġcircumst": 3012,
      "adash": 3013,
      "Ġplaced": 3014,
      "Ġzadash": 3015,
      "ration": 3016,
      "Ġcrossbow": 3017,
      "anna": 3018,
      "Ġexit": 3019,
      "Ġsection": 3020,
      "Ġcryst": 3021,
      "Ġda": 3022,
      "Ġspent": 3023,
      "Ġpost": 3024,
      "reg": 3025,
      "Ġintro": 3026,
      "Ġprime": 3027,
      "Ġsweet": 3028,
      "Ġaim": 3029,
      "Ġstones": 3030,
      "cho": 3031,
      "Ġdiss": 3032,
      "Ġknowing": 3033,
      "Ġshake": 3034,
      "Ġdear": 3035,
      "water": 3036,
      "port": 3037,
      "Ġcost": 3038,
      "Ġsomewhat": 3039,
      "Ġspin": 3040,
      "Ġnervous": 3041,
      "rict": 3042,
      "Ġthrowing": 3043,
      "Ġsnake": 3044,
      "ilah": 3045,
      "Ġfunny": 3046,
      "Ġtarget": 3047,
      "res": 3048,
      "Ġaud": 3049,
      "Ġank": 3050,
      "Ġvers": 3051,
      "Ġupward": 3052,
      "Ġmoved": 3053,
      "Ġthreat": 3054,
      "Ġlim": 3055,
      "Ġpassed": 3056,
      "Ġdelilah": 3057,
      "ident": 3058,
      "Ġfem": 3059,
      "Ġarr": 3060,
      "Ġdisguise": 3061,
      "Ġencountered": 3062,
      "Ġx": 3063,
      "Ġuh": 3064,
      "Ġdiffic": 3065,
      "Ġscr": 3066,
      "Ġslashing": 3067,
      "cially": 3068,
      "Ġreveal": 3069,
      "Ġbeard": 3070,
      "Ġdecide": 3071,
      "Ġdirt": 3072,
      "Ġears": 3073,
      "Ġfeat": 3074,
      "Ġfut": 3075,
      "dy": 3076,
      "Ġtrade": 3077,
      "Ġcareful": 3078,
      "Ġpa": 3079,
      "Ġliterally": 3080,
      "Ġhasn": 3081,
      "Ġpsy": 3082,
      "men": 3083,
      "ife": 3084,
      "Ġdistract": 3085,
      "Ġlava": 3086,
      "Ġshr": 3087,
      "Ġtrack": 3088,
      "Ġattacking": 3089,
      "Ġparts": 3090,
      "Ġkilling": 3091,
      "Ġsitu": 3092,
      "Ġdiam": 3093,
      "Ġstream": 3094,
      "Ġyen": 3095,
      "Ġcha": 3096,
      "Ġdodge": 3097,
      "Ġsad": 3098,
      "Ġheat": 3099,
      "irth": 3100,
      "Ġord": 3101,
      "Ġcontact": 3102,
      "Ġabsol": 3103,
      "ari": 3104,
      "Ġacro": 3105,
      "Ġtroll": 3106,
      "rupt": 3107,
      "for": 3108,
      "dak": 3109,
      "Ġgathering": 3110,
      "Ġavoid": 3111,
      "Ġacrobat": 3112,
      "varn": 3113,
      "Ġsugg": 3114,
      "Ġusually": 3115,
      "Ġexter": 3116,
      "Ġlocation": 3117,
      "inct": 3118,
      "Ġhat": 3119,
      "Ġdescri": 3120,
      "Ġfeast": 3121,
      "Ġweren": 3122,
      "Ġsell": 3123,
      "Ġcluster": 3124,
      "Ġstepping": 3125,
      "ension": 3126,
      "Ġwra": 3127,
      "Ġwear": 3128,
      "Ġflow": 3129,
      "atively": 3130,
      "Ġcard": 3131,
      "iri": 3132,
      "ma": 3133,
      "Ġextremely": 3134,
      "Ġpurch": 3135,
      "Ġrot": 3136,
      "Ġshirt": 3137,
      "Ġlands": 3138,
      "Ġwine": 3139,
      "Ġprepared": 3140,
      "impact": 3141,
      "Ġfix": 3142,
      "Ġkevdak": 3143,
      "Ġlad": 3144,
      "Ġnose": 3145,
      "Ġedges": 3146,
      "Ġillusion": 3147,
      "Ġguild": 3148,
      "Ġindeed": 3149,
      "Ġfalling": 3150,
      "eez": 3151,
      "Ġgeek": 3152,
      "Ġacrobatics": 3153,
      "Ġmage": 3154,
      "Ġran": 3155,
      "Ġtail": 3156,
      "Ġeng": 3157,
      "pecially": 3158,
      "Ġnoticed": 3159,
      "de": 3160,
      "ether": 3161,
      "Ġaside": 3162,
      "Ġcult": 3163,
      "Ġsold": 3164,
      "Ġworst": 3165,
      "izing": 3166,
      "Ġfuture": 3167,
      "rib": 3168,
      "sword": 3169,
      "Ġallies": 3170,
      "Ġpsych": 3171,
      "oma": 3172,
      "imid": 3173,
      "fast": 3174,
      "Ġmoon": 3175,
      "Ġletter": 3176,
      "Ġsecret": 3177,
      "Ġshots": 3178,
      "Ġtitan": 3179,
      "stem": 3180,
      "Ġespecially": 3181,
      "Ġdirectly": 3182,
      "Ġtoss": 3183,
      "ghammer": 3184,
      "Ġdownstairs": 3185,
      "Ġherd": 3186,
      "Ġcomic": 3187,
      "Ġzomb": 3188,
      "Ġpile": 3189,
      "Ġthin": 3190,
      "Ġsho": 3191,
      "Ġreck": 3192,
      "Ġsurprise": 3193,
      "Ġfallen": 3194,
      "26": 3195,
      "Ġwindows": 3196,
      "Ġkraghammer": 3197,
      "Ġsyl": 3198,
      "Ġsto": 3199,
      "oles": 3200,
      "Ġyay": 3201,
      "Ġfinds": 3202,
      "grunts": 3203,
      "Ġhate": 3204,
      "Ġdom": 3205,
      "que": 3206,
      "Ġchall": 3207,
      "itty": 3208,
      "Ġstops": 3209,
      "nce": 3210,
      "Ġmaterials": 3211,
      "Ġmis": 3212,
      "plic": 3213,
      "Ġitems": 3214,
      "Ġupper": 3215,
      "go": 3216,
      "yl": 3217,
      "Ġessence": 3218,
      "Ġpasses": 3219,
      "Ġprepare": 3220,
      "Ġarmored": 3221,
      "ening": 3222,
      "Ġsystem": 3223,
      "Ġgiveaway": 3224,
      "Ġspecifically": 3225,
      "wise": 3226,
      "ala": 3227,
      "Ġmeeting": 3228,
      "Ġcand": 3229,
      "Ġban": 3230,
      "Ġswings": 3231,
      "lu": 3232,
      "Ġboo": 3233,
      "Ġoffer": 3234,
      "Ġseconds": 3235,
      "Ġbreaking": 3236,
      "Ġcarrying": 3237,
      "laughing": 3238,
      "Ġdaggers": 3239,
      "Ġobvious": 3240,
      "ners": 3241,
      "eared": 3242,
      "Ġsoft": 3243,
      "Ġchoose": 3244,
      "Ġvial": 3245,
      "do": 3246,
      "ider": 3247,
      "Ġclaws": 3248,
      "Ġwanna": 3249,
      "Ġstun": 3250,
      "Ġheavily": 3251,
      "Ġscattered": 3252,
      "regard": 3253,
      "eding": 3254,
      "ousand": 3255,
      "Ġbreathing": 3256,
      "Ġ826": 3257,
      "Ġbitch": 3258,
      "Ġsquare": 3259,
      "Ġissue": 3260,
      "Ġresearch": 3261,
      "Ġleans": 3262,
      "Ġmissed": 3263,
      "Ġpushes": 3264,
      "iple": 3265,
      "Ġchoice": 3266,
      "ched": 3267,
      "Ġmessage": 3268,
      "Ġradiant": 3269,
      "Ġinn": 3270,
      "rip": 3271,
      "Ġbreaks": 3272,
      "Ġagre": 3273,
      "Ġghost": 3274,
      "Ġstreak": 3275,
      "Ġhunt": 3276,
      "Ġdrunk": 3277,
      "Ġfireball": 3278,
      "Ġinvol": 3279,
      "Ġbreakfast": 3280,
      "Ġreckless": 3281,
      "Ġlibr": 3282,
      "Ġspread": 3283,
      "Ġrul": 3284,
      "Ġdistrict": 3285,
      "Ġdesk": 3286,
      "Ġdm": 3287,
      "Ġpen": 3288,
      "rm": 3289,
      "Ġupstairs": 3290,
      "Ġgreater": 3291,
      "fer": 3292,
      "Ġcollaps": 3293,
      "tle": 3294,
      "Ġeating": 3295,
      "Ġdetails": 3296,
      "oring": 3297,
      "ugg": 3298,
      "Ġourselves": 3299,
      "Ġdeception": 3300,
      "Ġexterior": 3301,
      "Ġpsychic": 3302,
      "Ġacc": 3303,
      "Ġvict": 3304,
      "aze": 3305,
      "Ġjew": 3306,
      "Ġfilled": 3307,
      "gar": 3308,
      "Ġfist": 3309,
      "Ġbudd": 3310,
      "Ġfinger": 3311,
      "Ġpurpose": 3312,
      "Ġconstruct": 3313,
      "Ġthousand": 3314,
      "Ġspeaking": 3315,
      "Ġaccept": 3316,
      "Ġwyrm": 3317,
      "Ġmask": 3318,
      "Ġopt": 3319,
      "acon": 3320,
      "Ġhiding": 3321,
      "Ġkiri": 3322,
      "Ġhorn": 3323,
      "Ġlights": 3324,
      "Ġdocks": 3325,
      "Ġgrapple": 3326,
      "Ġshifting": 3327,
      "yeah": 3328,
      "Ġbal": 3329,
      "Ġslayer": 3330,
      "Ġbirth": 3331,
      "Ġfemale": 3332,
      "Ġnecrotic": 3333,
      "Ġintimid": 3334,
      "Ġfancy": 3335,
      "Ġapart": 3336,
      "Ġdan": 3337,
      "Ġquart": 3338,
      "Ġcharge": 3339,
      "Ġunderground": 3340,
      "Ġyellow": 3341,
      "Ġage": 3342,
      "Ġscar": 3343,
      "swer": 3344,
      "Ġsylas": 3345,
      "Ġbutt": 3346,
      "ube": 3347,
      "Ġdue": 3348,
      "Ġfairly": 3349,
      "Ġceleb": 3350,
      "Ġservant": 3351,
      "Ġwyrmwood": 3352,
      "Ġdin": 3353,
      "Ġanswer": 3354,
      "Ġshouldn": 3355,
      "yle": 3356,
      "ament": 3357,
      "Ġworse": 3358,
      "Ġmember": 3359,
      "cast": 3360,
      "Ġcharism": 3361,
      "Ġsaved": 3362,
      "Ġcas": 3363,
      "roud": 3364,
      "Ġcouncil": 3365,
      "Ġwhether": 3366,
      "Ġhuge": 3367,
      "Ġhex": 3368,
      "Ġstaring": 3369,
      "yn": 3370,
      "Ġ$": 3371,
      "Ġrow": 3372,
      "Ġbath": 3373,
      "izes": 3374,
      "Ġscroll": 3375,
      "ero": 3376,
      "Ġfucked": 3377,
      "Ġdrinks": 3378,
      "Ġknocked": 3379,
      "Ġmad": 3380,
      "Ġbeauregard": 3381,
      "Ġcommon": 3382,
      "Ġpouring": 3383,
      "Ġdive": 3384,
      "usted": 3385,
      "Ġballs": 3386,
      "Ġemer": 3387,
      "oint": 3388,
      "Ġwhoever": 3389,
      "Ġhearing": 3390,
      "Ġgrey": 3391,
      "Ġfloating": 3392,
      "Ġradius": 3393,
      "Ġliquid": 3394,
      "Ġchin": 3395,
      "Ġgrappled": 3396,
      "Ġlegendary": 3397,
      "Ġorc": 3398,
      "Ġturning": 3399,
      "Ġresistance": 3400,
      "Ġdig": 3401,
      "step": 3402,
      "ha": 3403,
      "Ġashari": 3404,
      "Ġteleport": 3405,
      "groans": 3406,
      "Ġwandering": 3407,
      "Ġdifficult": 3408,
      "Ġson": 3409,
      "Ġhelm": 3410,
      "Ġnearly": 3411,
      "rs": 3412,
      "thank": 3413,
      "umble": 3414,
      "Ġpersonal": 3415,
      "Ġintense": 3416,
      "Ġmoments": 3417,
      "Ġtunnels": 3418,
      "Ġkne": 3419,
      "Ġtend": 3420,
      "Ġ9": 3421,
      "Ġdragonborn": 3422,
      "riel": 3423,
      "Ġpol": 3424,
      "atters": 3425,
      "Ġvanishes": 3426,
      "âĢĶ": 3427,
      "Ġclouds": 3428,
      "itten": 3429,
      "Ġhoping": 3430,
      "dra": 3431,
      "Ġpin": 3432,
      "Ġchan": 3433,
      "Ġfunction": 3434,
      "field": 3435,
      "yell": 3436,
      "Ġheight": 3437,
      "right": 3438,
      "set": 3439,
      "umbling": 3440,
      "Ġswim": 3441,
      "Ġbeach": 3442,
      "Ġprov": 3443,
      "Ġdeeper": 3444,
      "Ġneckl": 3445,
      "Ġoccasionally": 3446,
      "Ġsens": 3447,
      "Ġcards": 3448,
      "Ġcave": 3449,
      "Ġspecific": 3450,
      "Ġhook": 3451,
      "Ġcock": 3452,
      "acle": 3453,
      "ooth": 3454,
      "Ġsundry": 3455,
      "bles": 3456,
      "Ġassh": 3457,
      "Ġcloses": 3458,
      "Ġabsolute": 3459,
      "Ġkraken": 3460,
      "hor": 3461,
      "Ġcage": 3462,
      "chter": 3463,
      "Ġvill": 3464,
      "aded": 3465,
      "Ġmountains": 3466,
      "Ġbast": 3467,
      "Ġconv": 3468,
      "Ġshadows": 3469,
      "Ġconsidered": 3470,
      "Ġdied": 3471,
      "Ġuriel": 3472,
      "Ġeast": 3473,
      "Ġhuh": 3474,
      "Ġcliff": 3475,
      "Ġleading": 3476,
      "Ġul": 3477,
      "opy": 3478,
      "kward": 3479,
      "Ġpir": 3480,
      "ites": 3481,
      "Ġmassive": 3482,
      "Ġunable": 3483,
      "vy": 3484,
      "Ġperi": 3485,
      "Ġdungeons": 3486,
      "Ġguide": 3487,
      "shot": 3488,
      "sl": 3489,
      "ital": 3490,
      "Ġterrain": 3491,
      "Ġtruth": 3492,
      "shoot": 3493,
      "Ġrelatively": 3494,
      "Ġunderwater": 3495,
      "Ġassum": 3496,
      "Ġripley": 3497,
      "Ġmut": 3498,
      "Ġoften": 3499,
      "Ġbrown": 3500,
      "ras": 3501,
      "Ġcab": 3502,
      "oming": 3503,
      "Ġshap": 3504,
      "Ġ32": 3505,
      "Ġchannel": 3506,
      "Ġlibrary": 3507,
      "Ġshare": 3508,
      "Ġfrust": 3509,
      "Ġincluding": 3510,
      "Ġdissip": 3511,
      "Ġbuddy": 3512,
      "Ġconcl": 3513,
      "Ġrespons": 3514,
      "Ġincred": 3515,
      "Ġsurrounding": 3516,
      "Ġinstinct": 3517,
      "Ġdrinking": 3518,
      "Ġsubscri": 3519,
      "ator": 3520,
      "Ġrap": 3521,
      "Ġwatched": 3522,
      "Ġtro": 3523,
      "Ġhelped": 3524,
      "Ġgodd": 3525,
      "Ġcorp": 3526,
      "Ġlanguage": 3527,
      "Ġfavorite": 3528,
      "min": 3529,
      "Ġacqu": 3530,
      "Ġtorch": 3531,
      "Ġstaircase": 3532,
      "Ġbars": 3533,
      "Ġattach": 3534,
      "Ġdawn": 3535,
      "Ġscen": 3536,
      "Ġfought": 3537,
      "Ġfaces": 3538,
      "Ġscared": 3539,
      "ti": 3540,
      "Ġhost": 3541,
      "ulous": 3542,
      "Ġgar": 3543,
      "Ġsever": 3544,
      "Ġareas": 3545,
      "Ġpoor": 3546,
      "Ġelven": 3547,
      "Ġcomfortable": 3548,
      "hmm": 3549,
      "lock": 3550,
      "urat": 3551,
      "ordak": 3552,
      "Ġcrate": 3553,
      "Ġsick": 3554,
      "ature": 3555,
      "ablish": 3556,
      "Ġbigger": 3557,
      "ram": 3558,
      "Ġkit": 3559,
      "Ġslamming": 3560,
      "Ġpicture": 3561,
      "Ġgoblin": 3562,
      "keep": 3563,
      "idge": 3564,
      "Ġhalved": 3565,
      "Ġfellow": 3566,
      "sings": 3567,
      "Ġattacked": 3568,
      "Ġhandle": 3569,
      "Ġhalfling": 3570,
      "mph": 3571,
      "Ġcausing": 3572,
      "raid": 3573,
      "ession": 3574,
      "Ġafraid": 3575,
      "aunt": 3576,
      "Ġconsciousness": 3577,
      "Ġwil": 3578,
      "Ġvide": 3579,
      "Ġawkward": 3580,
      "usk": 3581,
      "ished": 3582,
      "Ġprofic": 3583,
      "vice": 3584,
      "Ġbre": 3585,
      "Ġmatch": 3586,
      "Ġaccent": 3587,
      "Ġpassage": 3588,
      "Ġwinner": 3589,
      "Ġminus": 3590,
      "Ġnormally": 3591,
      "Ġtrouble": 3592,
      "Ġmotherfucker": 3593,
      "my": 3594,
      "verse": 3595,
      "oren": 3596,
      "Ġsleeping": 3597,
      "iggy": 3598,
      "Ġthrown": 3599,
      "Ġtongue": 3600,
      "Ġgrass": 3601,
      "Ġcharisma": 3602,
      "book": 3603,
      "Ġtues": 3604,
      "ading": 3605,
      "odes": 3606,
      "ifact": 3607,
      "Ġsplit": 3608,
      "Ġtuesday": 3609,
      "Ġweak": 3610,
      "Ġdeb": 3611,
      "Ġpassing": 3612,
      "Ġzero": 3613,
      "Ġperiod": 3614,
      "ris": 3615,
      "Ġaut": 3616,
      "Ġgames": 3617,
      "Ġkinda": 3618,
      "Ġenchantment": 3619,
      "Ġcleric": 3620,
      "Ġsituation": 3621,
      "Ġsoc": 3622,
      "Ġartifact": 3623,
      "break": 3624,
      "Ġpaint": 3625,
      "antly": 3626,
      "Ġcurse": 3627,
      "Ġnames": 3628,
      "Ġfa": 3629,
      "Ġproud": 3630,
      "Ġalc": 3631,
      "Ġstar": 3632,
      "Ġriver": 3633,
      "Ġwed": 3634,
      "Ġfish": 3635,
      "Ġchaos": 3636,
      "ping": 3637,
      "zo": 3638,
      "Ġkid": 3639,
      "Ġbound": 3640,
      "Ġrecent": 3641,
      "Ġtramm": 3642,
      "Ġpaying": 3643,
      "Ġev": 3644,
      "Ġvamp": 3645,
      "Ġthordak": 3646,
      "Ġly": 3647,
      "Ġwee": 3648,
      "Ġrobes": 3649,
      "Ġraging": 3650,
      "raction": 3651,
      "aking": 3652,
      "Ġwriting": 3653,
      "Ġhundreds": 3654,
      "Ġvib": 3655,
      "Ġthread": 3656,
      "Ġpul": 3657,
      "Ġcongr": 3658,
      "Ġzigg": 3659,
      "Ġcraft": 3660,
      "wild": 3661,
      "Ġspo": 3662,
      "Ġimmediate": 3663,
      "Ġsurviv": 3664,
      "Ġnest": 3665,
      "Ġenem": 3666,
      "Ġrise": 3667,
      "Ġintent": 3668,
      "ashes": 3669,
      "alley": 3670,
      "Ġlots": 3671,
      "Ġioun": 3672,
      "Ġgrand": 3673,
      "though": 3674,
      "Ġident": 3675,
      "Ġstock": 3676,
      "Ġbridge": 3677,
      "Ġforever": 3678,
      "ians": 3679,
      "top": 3680,
      "Ġfully": 3681,
      "Ġencoun": 3682,
      "Ġsat": 3683,
      "Ġfal": 3684,
      "Ġmir": 3685,
      "str": 3686,
      "gn": 3687,
      "Ġstuck": 3688,
      "asty": 3689,
      "Ġclick": 3690,
      "Ġdarring": 3691,
      "Ġplans": 3692,
      "Ġaff": 3693,
      "itter": 3694,
      "Ġecho": 3695,
      "agged": 3696,
      "Ġestablish": 3697,
      "aked": 3698,
      "play": 3699,
      "rer": 3700,
      "Ġrequest": 3701,
      "Ġbecomes": 3702,
      "Ġpicking": 3703,
      "Ġpaid": 3704,
      "Ġtraining": 3705,
      "Ġgrin": 3706,
      "pm": 3707,
      "Ġgift": 3708,
      "Ġfeywild": 3709,
      "mit": 3710,
      "ters": 3711,
      "Ġsig": 3712,
      "Ġchecking": 3713,
      "ression": 3714,
      "Ġlovely": 3715,
      "Ġportal": 3716,
      "Ġdressed": 3717,
      "ads": 3718,
      "Ġwo": 3719,
      "Ġwhe": 3720,
      "Ġcla": 3721,
      "Ġbelt": 3722,
      "Ġseveral": 3723,
      "okay": 3724,
      "Ġpel": 3725,
      "Ġkiss": 3726,
      "rif": 3727,
      "Ġsponsor": 3728,
      "Ġwalked": 3729,
      "Ġfru": 3730,
      "Ġweight": 3731,
      "Ġadj": 3732,
      "Ġrealm": 3733,
      "Ġdraconia": 3734,
      "Ġmultiple": 3735,
      "Ġactions": 3736,
      "Ġskeletons": 3737,
      "Ġremains": 3738,
      "Ġdevils": 3739,
      "Ġnecessarily": 3740,
      "Ġscrap": 3741,
      "Ġsail": 3742,
      "Ġshouting": 3743,
      "Ġsharpshoot": 3744,
      "Ġthor": 3745,
      "Ġtool": 3746,
      "Ġval": 3747,
      "Ġpleasure": 3748,
      "Ġemerge": 3749,
      "Ġalthough": 3750,
      "aret": 3751,
      "Ġwoods": 3752,
      "Ġdetect": 3753,
      "Ġprevent": 3754,
      "Ġlocal": 3755,
      "oc": 3756,
      "key": 3757,
      "Ġentry": 3758,
      "udd": 3759,
      "Ġfails": 3760,
      "Ġtalked": 3761,
      "Ġzombie": 3762,
      "pes": 3763,
      "uh": 3764,
      "Ġ35": 3765,
      "Ġcharity": 3766,
      "Ġmaj": 3767,
      "Ġziggurat": 3768,
      "Ġshady": 3769,
      "Ġ31": 3770,
      "Ġstate": 3771,
      "Ġsending": 3772,
      "Ġdull": 3773,
      "Ġblink": 3774,
      "sm": 3775,
      "Ġlived": 3776,
      "Ġcorpse": 3777,
      "Ġfold": 3778,
      "Ġcommunity": 3779,
      "Ġpac": 3780,
      "oos": 3781,
      "Ġpalace": 3782,
      "Ġmemory": 3783,
      "steps": 3784,
      "Ġsharpshooter": 3785,
      "Ġsal": 3786,
      "Ġur": 3787,
      "Ġscales": 3788,
      "Ġ-": 3789,
      "Ġbould": 3790,
      "Ġdried": 3791,
      "Ġfolk": 3792,
      "Ġtables": 3793,
      "Ġcam": 3794,
      "ony": 3795,
      "Ġgrowing": 3796,
      "Ġrav": 3797,
      "Ġclosest": 3798,
      "back": 3799,
      "grow": 3800,
      "ending": 3801,
      "Ġobviously": 3802,
      "Ġment": 3803,
      "ims": 3804,
      "Ġpromise": 3805,
      "Ġclutching": 3806,
      "erie": 3807,
      "vision": 3808,
      "Ġuni": 3809,
      "Ġhung": 3810,
      "Ġclub": 3811,
      "eless": 3812,
      "Ġschool": 3813,
      "based": 3814,
      "lect": 3815,
      "Ġvoices": 3816,
      "ulations": 3817,
      "Ġimage": 3818,
      "Ġredu": 3819,
      "Ġlucky": 3820,
      "Ġgust": 3821,
      "Ġintern": 3822,
      "Ġbarrel": 3823,
      "Ġbigby": 3824,
      "Ġbriefly": 3825,
      "Ġblessing": 3826,
      "\".": 3827,
      "Ġpract": 3828,
      "eam": 3829,
      "Ġforge": 3830,
      "Ġlie": 3831,
      "Ġseparate": 3832,
      "umbles": 3833,
      "omm": 3834,
      "Ġcarefully": 3835,
      "Ġarrived": 3836,
      "Ġtatt": 3837,
      "Ġcircumstance": 3838,
      "Ġdarrington": 3839,
      "Ġuncom": 3840,
      "eter": 3841,
      "Ġdimension": 3842,
      "Ġfog": 3843,
      "Ġhonor": 3844,
      "Ġnor": 3845,
      "Ġneg": 3846,
      "ta": 3847,
      "lie": 3848,
      "Ġshifts": 3849,
      "Ġabilities": 3850,
      "rily": 3851,
      "Ġdiscover": 3852,
      "Ġpy": 3853,
      "kend": 3854,
      "ints": 3855,
      "Ġcob": 3856,
      "Ġtext": 3857,
      "Ġnecklace": 3858,
      "Ġtracks": 3859,
      "Ġsmooth": 3860,
      "Ġkitch": 3861,
      "Ġpouch": 3862,
      "Ġshore": 3863,
      "Ġvalley": 3864,
      "Ġwilling": 3865,
      "shit": 3866,
      "Ġcharacters": 3867,
      "Ġdisappear": 3868,
      "Ġcook": 3869,
      "allic": 3870,
      "wards": 3871,
      "Ġlaughter": 3872,
      "Ġinspire": 3873,
      "Ġnorthward": 3874,
      "Ġeasily": 3875,
      "Ġroughly": 3876,
      "eng": 3877,
      "Ġgosh": 3878,
      "Ġkash": 3879,
      "Ġunf": 3880,
      "Ġplant": 3881,
      "Ġentered": 3882,
      "antic": 3883,
      "Ġforms": 3884,
      "leep": 3885,
      "Ġexte": 3886,
      "has": 3887,
      "Ġcode": 3888,
      "Ġpace": 3889,
      "Ġtwiggy": 3890,
      "lict": 3891,
      "Ġmission": 3892,
      "Ġhaste": 3893,
      "Ġeagle": 3894,
      "Ġinvolved": 3895,
      "Ġkitchen": 3896,
      "Ġeverywhere": 3897,
      "Ġpea": 3898,
      "Ġtrial": 3899,
      "Ġtwins": 3900,
      "Ġfrost": 3901,
      "Ġcond": 3902,
      "Ġmiles": 3903,
      "Ġlying": 3904,
      "richter": 3905,
      "Ġrushes": 3906,
      "Ġsubter": 3907,
      "Ġpelor": 3908,
      "Ġtief": 3909,
      "stone": 3910,
      "Ġshitty": 3911,
      "Ġspect": 3912,
      "Ġsomehow": 3913,
      "Ġwyvern": 3914,
      "Ġrolo": 3915,
      "now": 3916,
      "Ġsan": 3917,
      "Ġrobe": 3918,
      "Ġfinishing": 3919,
      "Ġdoub": 3920,
      "Ġpillars": 3921,
      "ified": 3922,
      "Ġhealed": 3923,
      "Ġhealth": 3924,
      "Ġver": 3925,
      "Ġtest": 3926,
      "Ġarcana": 3927,
      "Ġdistraction": 3928,
      "Ġcrystal": 3929,
      "Ġbran": 3930,
      "Ġresting": 3931,
      "Ġanimal": 3932,
      "Ġcongrat": 3933,
      "Ġelder": 3934,
      "ipping": 3935,
      "Ġmil": 3936,
      "Ġworship": 3937,
      "Ġboard": 3938,
      "Ġgiants": 3939,
      "Ġoil": 3940,
      "ively": 3941,
      "Ġencounter": 3942,
      "Ġknee": 3943,
      "Ġspiritual": 3944,
      "Ġscreaming": 3945,
      "lies": 3946,
      "Ġbusy": 3947,
      "Ġcapt": 3948,
      "Ġtask": 3949,
      "iment": 3950,
      "Ġfeed": 3951,
      "Ġpreparing": 3952,
      "Ġabsolutely": 3953,
      "Ġfades": 3954,
      "Ġflee": 3955,
      "Ġvisit": 3956,
      "Ġstories": 3957,
      "Ġden": 3958,
      "Ġworried": 3959,
      "Ġtrip": 3960,
      "rah": 3961,
      "Ġperspect": 3962,
      "Ġdrops": 3963,
      "Ġviol": 3964,
      "Ġweekend": 3965,
      "Ġpum": 3966,
      "Ġum": 3967,
      "Ġalter": 3968,
      "Ġfailed": 3969,
      "night": 3970,
      "Ġign": 3971,
      "Ġcompleted": 3972,
      "but": 3973,
      "Ġspider": 3974,
      "ds": 3975,
      "itters": 3976,
      "Ġfrozen": 3977,
      "Ġfest": 3978,
      "Ġawful": 3979,
      "Ġow": 3980,
      "Ġswarm": 3981,
      "rant": 3982,
      "Ġvine": 3983,
      "Ġmonster": 3984,
      "ded": 3985,
      "noon": 3986,
      "Ġaccom": 3987,
      "Ġrelig": 3988,
      "Ġchallenge": 3989,
      "wind": 3990,
      "Ġfires": 3991,
      "critical": 3992,
      "Ġexplosion": 3993,
      "Ġescap": 3994,
      "Ġspiral": 3995,
      "Ġsuggest": 3996,
      "Ġulog": 3997,
      "Ġcause": 3998,
      "ization": 3999,
      "hood": 4000,
      "Ġtoy": 4001,
      "Ġwherever": 4002,
      "athers": 4003,
      "Ġsilence": 4004,
      "Ġincredible": 4005,
      "Ġmax": 4006,
      "Ġemb": 4007,
      "Ġgnolls": 4008,
      "orenzo": 4009,
      "iers": 4010,
      "Ġmeal": 4011,
      "Ġaband": 4012,
      "Ġthinks": 4013,
      "ildan": 4014,
      "Ġlasts": 4015,
      "Ġbones": 4016,
      "Ġcommand": 4017,
      "Ġangle": 4018,
      "Ġangrily": 4019,
      "rane": 4020,
      "va": 4021,
      "Ġward": 4022,
      "Ġnon": 4023,
      "Ġride": 4024,
      "ipe": 4025,
      "Ġdarkened": 4026,
      "Ġcharm": 4027,
      "Ġlorenzo": 4028,
      "Ġbursts": 4029,
      "pher": 4030,
      "time": 4031,
      "Ġcant": 4032,
      "Ġcutting": 4033,
      "Ġjamedi": 4034,
      "Ġstom": 4035,
      "Ġtrapped": 4036,
      "Ġwarri": 4037,
      "Ġshove": 4038,
      "Ġdry": 4039,
      "Ġpicks": 4040,
      "Ġpicked": 4041,
      "Ġdropped": 4042,
      "Ġconsider": 4043,
      "Ġplate": 4044,
      "Ġmetallic": 4045,
      "Ġdwarves": 4046,
      "Ġamph": 4047,
      "Ġmarks": 4048,
      "Ġteach": 4049,
      "Ġinflu": 4050,
      "Ġperspective": 4051,
      "oon": 4052,
      "outing": 4053,
      "Ġupd": 4054,
      "good": 4055,
      "chuckles": 4056,
      "Ġentities": 4057,
      "Ġshows": 4058,
      "Ġalgar": 4059,
      "ishan": 4060,
      "Ġgenerally": 4061,
      "Ġrules": 4062,
      "Ġdem": 4063,
      "Ġsetting": 4064,
      "Ġshowing": 4065,
      "Ġseriously": 4066,
      "Ġchang": 4067,
      "Ġblows": 4068,
      "Ġhonestly": 4069,
      "gan": 4070,
      "Ġheroes": 4071,
      "Ġjewel": 4072,
      "antern": 4073,
      "Ġraishan": 4074,
      "Ġray": 4075,
      "Ġmyster": 4076,
      "Ġshimm": 4077,
      "oses": 4078,
      "Ġxhor": 4079,
      "Ġshapes": 4080,
      "Ġcongratulations": 4081,
      "Ġplayed": 4082,
      "orc": 4083,
      "Ġvines": 4084,
      "Ġhelps": 4085,
      "Ġclimbing": 4086,
      "Ġador": 4087,
      "gy": 4088,
      "Ġspoke": 4089,
      "Ġreturns": 4090,
      "Ġspray": 4091,
      "den": 4092,
      "Ġlantern": 4093,
      "Ġasleep": 4094,
      "Ġbrass": 4095,
      "rum": 4096,
      "Ġbolts": 4097,
      "ashed": 4098,
      "Ġassist": 4099,
      "groaning": 4100,
      "Ġxhorhas": 4101,
      "zard": 4102,
      "Ġjoh": 4103,
      "Ġjeez": 4104,
      "Ġdescend": 4105,
      "Ġsubterrane": 4106,
      "Ġsubterranean": 4107,
      "Ġbill": 4108,
      "Ġotherwise": 4109,
      "Ġlistening": 4110,
      "Ġcalm": 4111,
      "inder": 4112,
      "Ġdrawn": 4113,
      "Ġtrail": 4114,
      "Ġbarbar": 4115,
      "Ġpacific": 4116,
      "ran": 4117,
      "Ġbeam": 4118,
      "Ġhandful": 4119,
      "Ġknees": 4120,
      "Ġamb": 4121,
      "Ġraised": 4122,
      "Ġhired": 4123,
      "Ġker": 4124,
      "gel": 4125,
      "Ġrestr": 4126,
      "Ġbrian": 4127,
      "Ġconstruction": 4128,
      "Ġbirthday": 4129,
      "Ġpatch": 4130,
      "ining": 4131,
      "Ġbard": 4132,
      "amn": 4133,
      "Ġwritten": 4134,
      "Ġtempor": 4135,
      "Ġtorn": 4136,
      "Ġgnomes": 4137,
      "Ġconclave": 4138,
      "fire": 4139,
      "Ġbat": 4140,
      "Ġreduced": 4141,
      "wers": 4142,
      "Ġbeacon": 4143,
      "Ġdude": 4144,
      "Ġoffic": 4145,
      "Ġfootsteps": 4146,
      "Ġmat": 4147,
      "Ġdeli": 4148,
      "Ġgrave": 4149,
      "ait": 4150,
      "Ġfortress": 4151,
      "Ġoriginally": 4152,
      "Ġlake": 4153,
      "Ġwet": 4154,
      "Ġslide": 4155,
      "Ġpage": 4156,
      "ising": 4157,
      "Ġknight": 4158,
      "Ġcrush": 4159,
      "Ġfinished": 4160,
      "hold": 4161,
      "Ġleaps": 4162,
      "Ġshooting": 4163,
      "Ġnic": 4164,
      "Ġrif": 4165,
      "Ġsuppose": 4166,
      "Ġsla": 4167,
      "Ġstonework": 4168,
      "Ġwilhand": 4169,
      "vest": 4170,
      "Ġlimp": 4171,
      "Ġrogue": 4172,
      "Ġvia": 4173,
      "Ġcow": 4174,
      "Ġlean": 4175,
      "Ġshakes": 4176,
      "Ġstatue": 4177,
      "Ġdad": 4178,
      "aughter": 4179,
      "Ġcarts": 4180,
      "Ġgates": 4181,
      "Ġgolden": 4182,
      "Ġchambers": 4183,
      "ne": 4184,
      "Ġves": 4185,
      "Ġeman": 4186,
      "off": 4187,
      "any": 4188,
      "ously": 4189,
      "Ġattempts": 4190,
      "Ġdance": 4191,
      "Ġmr": 4192,
      "Ġblades": 4193,
      "Ġrings": 4194,
      "illed": 4195,
      "Ġcheek": 4196,
      "Ġallowed": 4197,
      "Ġravine": 4198,
      "Ġlocate": 4199,
      "mo": 4200,
      "Ġciv": 4201,
      "Ġdiscussion": 4202,
      "Ġwrap": 4203,
      "nding": 4204,
      "Ġnar": 4205,
      "Ġrand": 4206,
      "Ġremo": 4207,
      "Ġmarqu": 4208,
      "house": 4209,
      "Ġsuffer": 4210,
      "Ġinvisibility": 4211,
      "Ġcreepy": 4212,
      "Ġclothes": 4213,
      "Ġclasp": 4214,
      "uts": 4215,
      "Ġletting": 4216,
      "idding": 4217,
      "Ġcocked": 4218,
      "Ġchair": 4219,
      "elf": 4220,
      "pent": 4221,
      "Ġlion": 4222,
      "Ġproject": 4223,
      "Ġreaching": 4224,
      "Ġbeasts": 4225,
      "Ġvideo": 4226,
      "rated": 4227,
      "owing": 4228,
      "Ġdungeon": 4229,
      "Ġthar": 4230,
      "Ġpatter": 4231,
      "Ġtraveled": 4232,
      "Ġbes": 4233,
      "rop": 4234,
      "ption": 4235,
      "Ġsupplies": 4236,
      "Ġmuscle": 4237,
      "Ġfarm": 4238,
      "reaking": 4239,
      "Ġwinter": 4240,
      "Ġflies": 4241,
      "Ġpillar": 4242,
      "Ġmuscles": 4243,
      "Ġtip": 4244,
      "Ġtied": 4245,
      "Ġsus": 4246,
      "Ġsigned": 4247,
      "gs": 4248,
      "Ġpet": 4249,
      "vere": 4250,
      "Ġseeking": 4251,
      "arel": 4252,
      "Ġwave": 4253,
      "Ġmentioned": 4254,
      "Ġdarkvision": 4255,
      "itched": 4256,
      "Ġlanding": 4257,
      "Ġnecessary": 4258,
      "Ġfruit": 4259,
      "arett": 4260,
      "Ġthankfully": 4261,
      "criticalrole": 4262,
      "Ġguiding": 4263,
      "Ġdemon": 4264,
      "Ġtransport": 4265,
      "harel": 4266,
      "ives": 4267,
      "Ġrug": 4268,
      "type": 4269,
      "Ġcoins": 4270,
      "Ġbowl": 4271,
      "Ġthrone": 4272,
      "Ġdomin": 4273,
      "Ġlikes": 4274,
      "rier": 4275,
      "Ġbottle": 4276,
      "Ġsmells": 4277,
      "Ġfreed": 4278,
      "hammer": 4279,
      "Ġshepher": 4280,
      "Ġbehold": 4281,
      "Ġdragged": 4282,
      "Ġpumat": 4283,
      "Ġtie": 4284,
      "Ġodd": 4285,
      "Ġjarett": 4286,
      "Ġbelong": 4287,
      "Ġmajor": 4288,
      "af": 4289,
      "Ġprog": 4290,
      "Ġapologize": 4291,
      "hip": 4292,
      "iving": 4293,
      "Ġchuck": 4294,
      "Ġrubble": 4295,
      "Ġasshole": 4296,
      "ali": 4297,
      "Ġpurchase": 4298,
      "Ġinches": 4299,
      "Ġdamaged": 4300,
      "Ġtransform": 4301,
      "Ġfil": 4302,
      "othing": 4303,
      "Ġregard": 4304,
      "Ġbrand": 4305,
      "Ġpowder": 4306,
      "Ġpiss": 4307,
      "Ġdolan": 4308,
      "Ġafternoon": 4309,
      "Ġrecomm": 4310,
      "Ġq": 4311,
      "Ġweb": 4312,
      "Ġtink": 4313,
      "Ġowl": 4314,
      "Ġalph": 4315,
      "Ġkeen": 4316,
      "Ġremain": 4317,
      "Ġembed": 4318,
      "Ġgloom": 4319,
      "unt": 4320,
      "Ġdonated": 4321,
      "Ġuncomfortable": 4322,
      "gl": 4323,
      "Ġfu": 4324,
      "Ġguest": 4325,
      "Ġendless": 4326,
      "Ġshoots": 4327,
      "arent": 4328,
      "Ġstays": 4329,
      "pses": 4330,
      "Ġcommun": 4331,
      "Ġwondering": 4332,
      "Ġapproaches": 4333,
      "Ġfacing": 4334,
      "Ġrecommend": 4335,
      "Ġcough": 4336,
      "Ġreef": 4337,
      "Ġguests": 4338,
      "Ġremaining": 4339,
      "Ġelect": 4340,
      "Ġamphala": 4341,
      "ruction": 4342,
      "Ġtools": 4343,
      "Ġasum": 4344,
      "Ġdragging": 4345,
      "Ġcarn": 4346,
      "Ġcute": 4347,
      "Ġconcentrate": 4348,
      "Ġâ": 4349,
      "emount": 4350,
      "click": 4351,
      "Ġillith": 4352,
      "Ġdarts": 4353,
      "Ġwildemount": 4354,
      "Ġuseful": 4355,
      "Ġchanged": 4356,
      "Ġexha": 4357,
      "Ġarmy": 4358,
      "Ġannouncement": 4359,
      "ribly": 4360,
      "Ġorn": 4361,
      "Ġmines": 4362,
      "Ġexcuse": 4363,
      "Ġcoat": 4364,
      "Ġcolors": 4365,
      "mos": 4366,
      "icket": 4367,
      "Ġouter": 4368,
      "Ġraise": 4369,
      "Ġkay": 4370,
      "Ġbub": 4371,
      "Ġprice": 4372,
      "Ġtears": 4373,
      "agon": 4374,
      "Ġsorts": 4375,
      "Ġstret": 4376,
      "Ġaudience": 4377,
      "Ġmath": 4378,
      "Ġascend": 4379,
      "Ġtort": 4380,
      "Ġyenk": 4381,
      "duce": 4382,
      "outher": 4383,
      "Ġcurl": 4384,
      "Ġcreated": 4385,
      "Ġsearching": 4386,
      "outhern": 4387,
      "fr": 4388,
      "Ġopposed": 4389,
      "Ġconflict": 4390,
      "Ġexistence": 4391,
      "Ġogre": 4392,
      "nder": 4393,
      "Ġarrest": 4394,
      "Ġbullshit": 4395,
      "ara": 4396,
      "Ġscratch": 4397,
      "omatic": 4398,
      "Ġescort": 4399,
      "Ġhydra": 4400,
      "co": 4401,
      "mas": 4402,
      "Ġwiz": 4403,
      "Ġcup": 4404,
      "ixed": 4405,
      "Ġships": 4406,
      "Ġgoddamn": 4407,
      "Ġwhispers": 4408,
      "Ġki": 4409,
      "Ġcritters": 4410,
      "Ġtension": 4411,
      "Ġdecent": 4412,
      "iety": 4413,
      "Ġpriest": 4414,
      "Ġbleeding": 4415,
      "Ġwing": 4416,
      "Ġally": 4417,
      "Ġlick": 4418,
      "Ġleaky": 4419,
      "cle": 4420,
      "ops": 4421,
      "Ġpockets": 4422,
      "Ġjagged": 4423,
      "Ġclothing": 4424,
      "Ġcheer": 4425,
      "Ġstealthy": 4426,
      "Ġtentacles": 4427,
      "Ġsymbols": 4428,
      "Ġdisappears": 4429,
      "vor": 4430,
      "Ġinno": 4431,
      "Ġboom": 4432,
      "Ġtraveler": 4433,
      "Ġbreathe": 4434,
      "cra": 4435,
      "Ġdusk": 4436,
      "irty": 4437,
      "Ġhelmet": 4438,
      "oration": 4439,
      "Ġstrangely": 4440,
      "Ġobsc": 4441,
      "Ġstunned": 4442,
      "Ġshepherds": 4443,
      "ĠâĻ": 4444,
      "Ġkaylie": 4445,
      "Ġtreat": 4446,
      "Ġtheme": 4447,
      "Ġsheer": 4448,
      "ieves": 4449,
      "Ġhorns": 4450,
      "Ġattached": 4451,
      "Ġelf": 4452,
      "reek": 4453,
      "Ġcolum": 4454,
      "Ġmistake": 4455,
      "Ġchase": 4456,
      "Ġburns": 4457,
      "Ġhul": 4458,
      "Ġink": 4459,
      "Ġlies": 4460,
      "Ġcatching": 4461,
      "Ġwander": 4462,
      "Ġpurposes": 4463,
      "sed": 4464,
      "Ġshirts": 4465,
      "Ġlizard": 4466,
      "rand": 4467,
      "ahra": 4468,
      "Ġtribe": 4469,
      "Ġchick": 4470,
      "axe": 4471,
      "Ġchrist": 4472,
      "Ġagreed": 4473,
      "Ġnasty": 4474,
      "lymor": 4475,
      "Ġbam": 4476,
      "enty": 4477,
      "Ġlifts": 4478,
      "Ġsweat": 4479,
      "fl": 4480,
      "Ġpants": 4481,
      "Ġgotta": 4482,
      "Ġcontain": 4483,
      "Ġawake": 4484,
      "Ġlaughing": 4485,
      "Ġruin": 4486,
      "bling": 4487,
      "Ġtired": 4488,
      "Ġhmm": 4489,
      "Ġroots": 4490,
      "Ġunlock": 4491,
      "Ġcorrupt": 4492,
      "xim": 4493,
      "Ġadv": 4494,
      "Ġtiefling": 4495,
      "Ġfle": 4496,
      "Ġfright": 4497,
      "Ġprefer": 4498,
      "Ġrunes": 4499,
      "Ġzahra": 4500,
      "Ġlearning": 4501,
      "Ġprotection": 4502,
      "Ġkerr": 4503,
      "Ġparent": 4504,
      "Ġcontinent": 4505,
      "eline": 4506,
      "scream": 4507,
      "Ġproficien": 4508,
      "Ġbay": 4509,
      "Ġwhenever": 4510,
      "Ġfoster": 4511,
      "Ġdecis": 4512,
      "Ġjoining": 4513,
      "uary": 4514,
      "Ġpod": 4515,
      "place": 4516,
      "scape": 4517,
      "Ġshaking": 4518,
      "Ġpeace": 4519,
      "Ġbought": 4520,
      "Ġfestival": 4521,
      "Ġfaster": 4522,
      "Ġladies": 4523,
      "Ġcollapsed": 4524,
      "Ġabandoned": 4525,
      "lymorph": 4526,
      "Ġbell": 4527,
      "Ġglasses": 4528,
      "Ġfray": 4529,
      "12": 4530,
      "Ġfren": 4531,
      "Ġchained": 4532,
      "Ġhelpful": 4533,
      "Ġfourth": 4534,
      "imming": 4535,
      "Ġcellar": 4536,
      "rate": 4537,
      "inding": 4538,
      "anger": 4539,
      "Ġservice": 4540,
      "Ġalpha": 4541,
      "hin": 4542,
      "itions": 4543,
      "ryce": 4544,
      "Ġsnap": 4545,
      "Ġruined": 4546,
      "Ġcarnival": 4547,
      "auk": 4548,
      "Ġ150": 4549,
      "Ġanimals": 4550,
      "ec": 4551,
      "Ġfate": 4552,
      "Ġansw": 4553,
      "Ġcorpses": 4554,
      "Ġfunctional": 4555,
      "Ġgap": 4556,
      "Ġshorth": 4557,
      "Ġgoods": 4558,
      "Ġguns": 4559,
      "fell": 4560,
      "Ġcone": 4561,
      "ustom": 4562,
      "while": 4563,
      "Ġspins": 4564,
      "Ġfigured": 4565,
      "Ġyounger": 4566,
      "Ġinfluence": 4567,
      "Ġtour": 4568,
      "ila": 4569,
      "Ġfaith": 4570,
      "thern": 4571,
      "kn": 4572,
      "Ġscary": 4573,
      "Ġversus": 4574,
      "Ġpale": 4575,
      "Ġtwist": 4576,
      "Ġalongside": 4577,
      "gasp": 4578,
      "Ġmace": 4579,
      "Ġgrabbing": 4580,
      "Ġstopped": 4581,
      "Ġdinner": 4582,
      "Ġ33": 4583,
      "Ġgently": 4584,
      "miss": 4585,
      "Ġagg": 4586,
      "Ġmagn": 4587,
      "Ġimpressive": 4588,
      "Ġatmos": 4589,
      "Ġactiv": 4590,
      "yelling": 4591,
      "Ġresponsible": 4592,
      "Ġmotion": 4593,
      "Ġwebs": 4594,
      "Ġmel": 4595,
      "iculous": 4596,
      "ugs": 4597,
      "Ġdefense": 4598,
      "Ġshakaste": 4599,
      "Ġkidding": 4600,
      "Ġgrows": 4601,
      "Ġdispel": 4602,
      "mauk": 4603,
      "Ġlair": 4604,
      "handed": 4605,
      "Ġreminder": 4606,
      "Ġrandom": 4607,
      "yer": 4608,
      "aly": 4609,
      "Ġhero": 4610,
      "Ġfootfall": 4611,
      "ache": 4612,
      "Ġbasic": 4613,
      "Ġdealing": 4614,
      "Ġsinging": 4615,
      "Ġnorthern": 4616,
      "oa": 4617,
      "Ġlab": 4618,
      "allow": 4619,
      "imit": 4620,
      "Ġarament": 4621,
      "Ġhalfway": 4622,
      "Ġrealized": 4623,
      "coming": 4624,
      "Ġtentacle": 4625,
      "Ġartifacts": 4626,
      "Ġaramente": 4627,
      "phere": 4628,
      "Ġmollymauk": 4629,
      "Ġdesigned": 4630,
      "Ġdress": 4631,
      "Ġcontinuing": 4632,
      "Ġmud": 4633,
      "Ġtense": 4634,
      "Ġassault": 4635,
      "ysk": 4636,
      "Ġrequire": 4637,
      "Ġmarked": 4638,
      "Ġtitle": 4639,
      "expl": 4640,
      "Ġtoya": 4641,
      "ety": 4642,
      "Ġrece": 4643,
      "Ġ200": 4644,
      "outs": 4645,
      "Ġnowhere": 4646,
      "Ġmarius": 4647,
      "Ġstairway": 4648,
      "Ġvolcan": 4649,
      "Ġsouthern": 4650,
      "Ġwrote": 4651,
      "Ġgustav": 4652,
      "yskull": 4653,
      "ends": 4654,
      "Ġdip": 4655,
      "Ġuk": 4656,
      "Ġcann": 4657,
      "Ġchamp": 4658,
      "Ġsheet": 4659,
      "Ġinward": 4660,
      "Ġtwitter": 4661,
      "Ġskills": 4662,
      "Ġbeholder": 4663,
      "Ġeaster": 4664,
      "Ġpolymorph": 4665,
      "Ġwife": 4666,
      "Ġpair": 4667,
      "yal": 4668,
      "Ġsex": 4669,
      "amble": 4670,
      "Ġbacks": 4671,
      "Ġplayers": 4672,
      "Ġbarbarian": 4673,
      "Ġbrush": 4674,
      "Ġsmiles": 4675,
      "Ġbadass": 4676,
      "Ġcracks": 4677,
      "Ġsut": 4678,
      "Ġpoo": 4679,
      "Ġparch": 4680,
      "isk": 4681,
      "Ġanvil": 4682,
      "Ġsurvival": 4683,
      "Ġvictory": 4684,
      "Ġborn": 4685,
      "Ġdwe": 4686,
      "shas": 4687,
      "Ġentirety": 4688,
      "Ġsession": 4689,
      "Ġpark": 4690,
      "Ġslip": 4691,
      "Ġending": 4692,
      "load": 4693,
      "Ġsurrounded": 4694,
      "Ġservants": 4695,
      "Ġtova": 4696,
      "Ġmast": 4697,
      "Ġren": 4698,
      "Ġopened": 4699,
      "Ġcustom": 4700,
      "Ġdaughter": 4701,
      "Ġrod": 4702,
      "Ġflaming": 4703,
      "Ġhoriz": 4704,
      "Ġexpensive": 4705,
      "Ġmirror": 4706,
      "Ġproficiency": 4707,
      "Ġrak": 4708,
      "Ġcalls": 4709,
      "Ġgreyskull": 4710,
      "Ġwounded": 4711,
      "Ġrakshas": 4712,
      "uan": 4713,
      "Ġcomb": 4714,
      "Ġbarrier": 4715,
      "huh": 4716,
      "Ġholes": 4717,
      "Ġlod": 4718,
      "Ġwhisp": 4719,
      "cell": 4720,
      "Ġremn": 4721,
      "Ġmonst": 4722,
      "Ġcarve": 4723,
      "Ġimpro": 4724,
      "hey": 4725,
      "chan": 4726,
      "Ġanger": 4727,
      "Ġdarker": 4728,
      "Ġdiamond": 4729,
      "Ġwrapped": 4730,
      "Ġgrit": 4731,
      "Ġcrawl": 4732,
      "Ġcircus": 4733,
      "Ġdistracted": 4734,
      "Ġrestrained": 4735,
      "Ġjung": 4736,
      "Ġcompany": 4737,
      "Ġstreaks": 4738,
      "Ġthrew": 4739,
      "reen": 4740,
      "stalk": 4741,
      "iled": 4742,
      "Ġfollowed": 4743,
      "Ġridiculous": 4744,
      "Ġsanct": 4745,
      "Ġmarquet": 4746,
      "Ġeastern": 4747,
      "Ġwaste": 4748,
      "idian": 4749,
      "Ġgrew": 4750,
      "Ġsunlight": 4751,
      "Ġconc": 4752,
      "Ġconj": 4753,
      "Ġslick": 4754,
      "Ġinvestigate": 4755,
      "Ġgaunt": 4756,
      "shouting": 4757,
      "tow": 4758,
      "orious": 4759,
      "estern": 4760,
      "Ġfocused": 4761,
      "Ġintimidation": 4762,
      "Ġshorthalt": 4763,
      "arter": 4764,
      "Ġdirections": 4765,
      "Ġspirit": 4766,
      "Ġemerges": 4767,
      "Ġestablishment": 4768,
      "Ġevents": 4769,
      "Ġwolf": 4770,
      "Ġinnocent": 4771,
      "nded": 4772,
      "Ġdancing": 4773,
      "Ġgain": 4774,
      "Ġcalling": 4775,
      "Ġbasement": 4776,
      "box": 4777,
      "Ġestate": 4778,
      "Ġ45": 4779,
      "Ġtearing": 4780,
      "Ġrebu": 4781,
      "Ġhungry": 4782,
      "Ġpattern": 4783,
      "Ġforces": 4784,
      "icious": 4785,
      "Ġexciting": 4786,
      "Ġprepar": 4787,
      "Ġcounters": 4788,
      "Ġharvest": 4789,
      "Ġranged": 4790,
      "Ġsaf": 4791,
      "Ġconnection": 4792,
      "Ġmeantime": 4793,
      "Ġbye": 4794,
      "Ġsurvive": 4795,
      "ked": 4796,
      "Ġant": 4797,
      "Ġvenge": 4798,
      "order": 4799,
      "Ġdifference": 4800,
      "Ġdangling": 4801,
      "Ġogden": 4802,
      "Ġreligion": 4803,
      "Ġtur": 4804,
      "Ġtough": 4805,
      "Ġsatch": 4806,
      "Ġsac": 4807,
      "Ġleaning": 4808,
      "angle": 4809,
      "Ġcomfort": 4810,
      "col": 4811,
      "rets": 4812,
      "Ġcel": 4813,
      "ength": 4814,
      "Ġaccess": 4815,
      "Ġnerdy": 4816,
      "Ġvag": 4817,
      "Ġprop": 4818,
      "Ġimpacts": 4819,
      "Ġshortly": 4820,
      "Ġfills": 4821,
      "eater": 4822,
      "Ġhadn": 4823,
      "nes": 4824,
      "plish": 4825,
      "Ġblasts": 4826,
      "Ġrapid": 4827,
      "Ġweather": 4828,
      "Ġmale": 4829,
      "Ġspill": 4830,
      "Ġboats": 4831,
      "Ġcarving": 4832,
      "Ġ80": 4833,
      "Ġcounter": 4834,
      "bows": 4835,
      "Ġhells": 4836,
      "Ġoptions": 4837,
      "Ġvillage": 4838,
      "Ġpirate": 4839,
      "Ġparents": 4840,
      "creek": 4841,
      "han": 4842,
      "acking": 4843,
      "ups": 4844,
      "Ġdying": 4845,
      "Ġsyn": 4846,
      "Ġshock": 4847,
      "Ġflayer": 4848,
      "Ġshouts": 4849,
      "Ġgrasping": 4850,
      "Ġalleyway": 4851,
      "Ġcantrip": 4852,
      "sect": 4853,
      "Ġ34": 4854,
      "Ġgrabbed": 4855,
      "Ġducks": 4856,
      "Ġreleased": 4857,
      "Ġmedic": 4858,
      "Ġperformance": 4859,
      "idence": 4860,
      "ppy": 4861,
      "izz": 4862,
      "Ġcrossed": 4863,
      "Ġshadycreek": 4864,
      "Ġjud": 4865,
      "Ġserpent": 4866,
      "Ġremnants": 4867,
      "Ġtips": 4868,
      "Ġbul": 4869,
      "Ġmechan": 4870,
      "Ġoffice": 4871,
      "Ġdarktow": 4872,
      "Ġtrickfoot": 4873,
      "Ġscreams": 4874,
      "Ġillithid": 4875,
      "ob": 4876,
      "Ġkeeper": 4877,
      "Ġlandscape": 4878,
      "Ġdebt": 4879,
      "ases": 4880,
      "Ġplanning": 4881,
      "Ġsucks": 4882,
      "high": 4883,
      "sized": 4884,
      "estial": 4885,
      "Ġscrying": 4886,
      "resent": 4887,
      "Ġcelestial": 4888,
      "Ġalt": 4889,
      "Ġpix": 4890,
      "Ġswinging": 4891,
      "Ġreleases": 4892,
      "Ġquarters": 4893,
      "Ġpolitical": 4894,
      "Ġdwend": 4895,
      "down": 4896,
      "ritch": 4897,
      "uly": 4898,
      "iday": 4899,
      "Ġcoff": 4900,
      "Ġeldritch": 4901,
      "craft": 4902,
      "gest": 4903,
      "cha": 4904,
      "Ġsecondary": 4905,
      "Ġ36": 4906,
      "Ġgreet": 4907,
      "Ġrelo": 4908,
      "Ġgnom": 4909,
      "Ġsticks": 4910,
      "Ġdreams": 4911,
      "Ġidentify": 4912,
      "Ġdwendal": 4913,
      "ye": 4914,
      "Ġcities": 4915,
      "Ġgrip": 4916,
      "Ġnila": 4917,
      "agerie": 4918,
      "Ġworm": 4919,
      "Ġburied": 4920,
      "Ġmenagerie": 4921,
      "Ġechoing": 4922,
      "Ġgloomstalk": 4923,
      "itation": 4924,
      "Ġcontest": 4925,
      "Ġcharges": 4926,
      "Ġnotices": 4927,
      "Ġpowers": 4928,
      "Ġforehead": 4929,
      "Ġappearance": 4930,
      "Ġpriv": 4931,
      "Ġvengeance": 4932,
      "aft": 4933,
      "father": 4934,
      "Ġsake": 4935,
      "Ġyank": 4936,
      "Ġequip": 4937,
      "Ġlionel": 4938,
      "Ġpodcast": 4939,
      "Ġrakshasa": 4940,
      "unks": 4941,
      "apse": 4942,
      "Ġsignal": 4943,
      "Ġjungle": 4944,
      "Ġstage": 4945,
      "Ġjb": 4946,
      "Ġmanacles": 4947,
      "Ġapproaching": 4948,
      "Ġbead": 4949,
      "aled": 4950,
      "Ġshark": 4951,
      "Ġscoot": 4952,
      "Ġclaim": 4953,
      "hel": 4954,
      "Ġdirty": 4955,
      "Ġpink": 4956,
      "Ġoutf": 4957,
      "icate": 4958,
      "Ġoffers": 4959,
      "Ġrecover": 4960,
      "Ġassass": 4961,
      "Ġrule": 4962,
      "Ġobjects": 4963,
      "Ġvials": 4964,
      "Ġchicken": 4965,
      "mond": 4966,
      "Ġlif": 4967,
      "Ġperpet": 4968,
      "Ġportions": 4969,
      "Ġsticking": 4970,
      "Ġclusters": 4971,
      "Ġexpecting": 4972,
      "Ġhorizon": 4973,
      "Ġequipment": 4974,
      "dark": 4975,
      "anz": 4976,
      "Ġbend": 4977,
      "Ġrev": 4978,
      "iring": 4979,
      "Ġhorris": 4980,
      "su": 4981,
      "Ġinch": 4982,
      "Ġmagma": 4983,
      "Ġrecon": 4984,
      "Ġspeaks": 4985,
      "Ġembedded": 4986,
      "Ġaggressive": 4987,
      "Ġsutan": 4988,
      "Ġexam": 4989,
      "Ġwaters": 4990,
      "Ġgrant": 4991,
      "Ġattempting": 4992,
      "Ġpillow": 4993,
      "Ġyenn": 4994,
      "Ġatmosphere": 4995,
      "egr": 4996,
      "iest": 4997,
      "Ġdome": 4998,
      "Ġdownward": 4999,
      "Ġcomplic": 5000,
      "Ġsigns": 5001,
      "Ġcivil": 5002,
      "section": 5003,
      "Ġspire": 5004,
      "Ġpee": 5005,
      "Ġstructures": 5006,
      "Ġfool": 5007,
      "Ġstudy": 5008,
      "Ġenemy": 5009,
      "Ġtaste": 5010,
      "Ġlack": 5011,
      "Ġasc": 5012,
      "Ġscent": 5013,
      "Ġswimming": 5014,
      "Ġdesper": 5015,
      "Ġthorn": 5016,
      "Ġcarri": 5017,
      "Ġcollapse": 5018,
      "Ġboxes": 5019,
      "Ġnoticing": 5020,
      "Ġpalad": 5021,
      "Ġutil": 5022,
      "Ġsaves": 5023,
      "Ġwaves": 5024,
      "velop": 5025,
      "eeze": 5026,
      "pell": 5027,
      "Ġcer": 5028,
      "Ġsends": 5029,
      "Ġclay": 5030,
      "issa": 5031,
      "Ġmemor": 5032,
      "Ġgnomish": 5033,
      "Ġorgan": 5034,
      "Ġshelf": 5035,
      "Ġactors": 5036,
      "Ġdaylight": 5037,
      "Ġwebsite": 5038,
      "Ġpoop": 5039,
      "Ġprim": 5040,
      "Ġduplic": 5041,
      "Ġflanking": 5042,
      "Ġcro": 5043,
      "Ġfade": 5044,
      "Ġrat": 5045,
      "usting": 5046,
      "Ġvent": 5047,
      "Ġorange": 5048,
      "Ġpoke": 5049,
      "Ġsingular": 5050,
      "Ġknocking": 5051,
      "Ġperfectly": 5052,
      "Ġdispos": 5053,
      "Ġflowers": 5054,
      "Ġsacred": 5055,
      "hea": 5056,
      "lic": 5057,
      "Ġdisint": 5058,
      "Ġtravers": 5059,
      "Ġgoodby": 5060,
      "Ġplayer": 5061,
      "Ġdarling": 5062,
      "Ġshattered": 5063,
      "Ġspi": 5064,
      "Ġcheers": 5065,
      "Ġfiring": 5066,
      "Ġswitch": 5067,
      "Ġrestoration": 5068,
      "explosion": 5069,
      "ĠâĢ": 5070,
      "urally": 5071,
      "Ġframe": 5072,
      "Ġplot": 5073,
      "Ġdecor": 5074,
      "och": 5075,
      "zed": 5076,
      "Ġrefer": 5077,
      "Ġstomach": 5078,
      "mus": 5079,
      "Ġtrained": 5080,
      "Ġwarmth": 5081,
      "Ġrising": 5082,
      "cers": 5083,
      "Ġgor": 5084,
      "ctor": 5085,
      "rick": 5086,
      "Ġblown": 5087,
      "Ġscale": 5088,
      "Ġpepper": 5089,
      "Ġrebell": 5090,
      "eal": 5091,
      "Ġdiseng": 5092,
      "Ġexcell": 5093,
      "Ġfoyer": 5094,
      "Ġworksh": 5095,
      "Ġboost": 5096,
      "Ġjewelry": 5097,
      "Ġcounterspell": 5098,
      "Ġalfield": 5099,
      "Ġtents": 5100,
      "Ġtattoo": 5101,
      "don": 5102,
      "Ġcy": 5103,
      "Ġclock": 5104,
      "Ġtreas": 5105,
      "Ġgoblins": 5106,
      "Ġhous": 5107,
      "Ġrepe": 5108,
      "imeter": 5109,
      "odran": 5110,
      "Ġnicodran": 5111,
      "Ġnicodranas": 5112,
      "ammed": 5113,
      "Ġforemost": 5114,
      "Ġdrawing": 5115,
      "Ġoccasional": 5116,
      "Ġexcellent": 5117,
      "ario": 5118,
      "illy": 5119,
      "Ġdetail": 5120,
      "Ġcurled": 5121,
      "Ġterrif": 5122,
      "Ġcube": 5123,
      "itive": 5124,
      "vering": 5125,
      "Ġbegun": 5126,
      "Ġwarning": 5127,
      "Ġinstant": 5128,
      "Ġcountry": 5129,
      "Ġarcs": 5130,
      "Ġ300": 5131,
      "Ġoriginal": 5132,
      "Ġkerrion": 5133,
      "then": 5134,
      "Ġassuming": 5135,
      "Ġambush": 5136,
      "bol": 5137,
      "gun": 5138,
      "ker": 5139,
      "Ġsuit": 5140,
      "Ġentering": 5141,
      "Ġremove": 5142,
      "Ġattempted": 5143,
      "Ġwednes": 5144,
      "Ġwednesday": 5145,
      "rons": 5146,
      "Ġaver": 5147,
      "Ġwoo": 5148,
      "Ġharp": 5149,
      "Ġcopy": 5150,
      "Ġoutward": 5151,
      "anting": 5152,
      "ipes": 5153,
      "Ġcurve": 5154,
      "Ġplank": 5155,
      "Ġsurge": 5156,
      "Ġchroma": 5157,
      "Ġbamf": 5158,
      "Ġast": 5159,
      "raph": 5160,
      "Ġdisplay": 5161,
      "Ġbloody": 5162,
      "Ġswords": 5163,
      "Ġfields": 5164,
      "Ġpitch": 5165,
      "Ġnea": 5166,
      "Ġcopper": 5167,
      "Ġtemper": 5168,
      "Ġruby": 5169,
      "Ġwheel": 5170,
      "wr": 5171,
      "wor": 5172,
      "Ġtank": 5173,
      "Ġroo": 5174,
      "Ġstepped": 5175,
      "Ġlaughs": 5176,
      "Ġeasier": 5177,
      "Ġfif": 5178,
      "ality": 5179,
      "50": 5180,
      "ule": 5181,
      "essa": 5182,
      "Ġ201": 5183,
      "Ġcraw": 5184,
      "Ġunique": 5185,
      "Ġarrested": 5186,
      "Ġsecrets": 5187,
      "Ġintrodu": 5188,
      "Ġpaladin": 5189,
      "thew": 5190,
      "Ġloss": 5191,
      "Ġcurves": 5192,
      "Ġcontains": 5193,
      "growls": 5194,
      "Ġoct": 5195,
      "Ġgaze": 5196,
      "Ġpun": 5197,
      "oops": 5198,
      "Ġboss": 5199,
      "Ġstrugg": 5200,
      "Ġimmune": 5201,
      "Ġsinks": 5202,
      "Ġscenario": 5203,
      "Ġsip": 5204,
      "Ġsalt": 5205,
      "Ġhills": 5206,
      "Ġegg": 5207,
      "Ġgrate": 5208,
      "Ġexpand": 5209,
      "Ġarrival": 5210,
      "Ġconvince": 5211,
      "Ġcobalt": 5212,
      "aven": 5213,
      "ipped": 5214,
      "Ġbroke": 5215,
      "Ġunderstanding": 5216,
      "Ġbirds": 5217,
      "Ġvampire": 5218,
      "Ġmas": 5219,
      "Ġhail": 5220,
      "Ġwhip": 5221,
      "Ġ120": 5222,
      "Ġdescribe": 5223,
      "Ġproceed": 5224,
      "Ġlosing": 5225,
      "Ġswoop": 5226,
      "Ġjoined": 5227,
      "Ġgifts": 5228,
      "Ġshopping": 5229,
      "Ġlyra": 5230,
      "lings": 5231,
      "vish": 5232,
      "Ġsket": 5233,
      "Ġcompar": 5234,
      "Ġrushed": 5235,
      "Ġtrammel": 5236,
      "Ġfalch": 5237,
      "Ġprogress": 5238,
      "Ġsatchel": 5239,
      "Ġfault": 5240,
      "Ġstalk": 5241,
      "Ġstole": 5242,
      "Ġthoughts": 5243,
      "Ġtouched": 5244,
      "Ġenchanted": 5245,
      "Ġsensation": 5246,
      "Ġmatthew": 5247,
      "Ġinqu": 5248,
      "Ġwomen": 5249,
      "point": 5250,
      "Ġber": 5251,
      "Ġinternet": 5252,
      "zing": 5253,
      "Ġharm": 5254,
      "Ġsquall": 5255,
      "Ġdiver": 5256,
      "Ġsanctuary": 5257,
      "inger": 5258,
      "Ġgoal": 5259,
      "Ġsewer": 5260,
      "Ġgrounds": 5261,
      "Ġdesmond": 5262,
      "Ġbarr": 5263,
      "Ġterribly": 5264,
      "ended": 5265,
      "Ġsplash": 5266,
      "deep": 5267,
      "Ġnegative": 5268,
      "Ġyennen": 5269,
      "erence": 5270,
      "aul": 5271,
      "Ġdepending": 5272,
      "Ġdisintegr": 5273,
      "erve": 5274,
      "asy": 5275,
      "cel": 5276,
      "Ġorly": 5277,
      "Ġark": 5278,
      "Ġcursed": 5279,
      "Ġendea": 5280,
      "Ġarrive": 5281,
      "Ġtemporary": 5282,
      "oss": 5283,
      "Ġmile": 5284,
      "change": 5285,
      "Ġcanopy": 5286,
      "Ġdeity": 5287,
      "Ġsmash": 5288,
      "ugash": 5289,
      "Ġpatient": 5290,
      "Ġutugash": 5291,
      "Ġnearest": 5292,
      "Ġip": 5293,
      "Ġrout": 5294,
      "olen": 5295,
      "Ġconfir": 5296,
      "Ġstronger": 5297,
      "Ġpools": 5298,
      "era": 5299,
      "Ġshiny": 5300,
      "Ġappeared": 5301,
      "Ġruins": 5302,
      "Ġepisodes": 5303,
      "ĠâĻª": 5304,
      "Ġwid": 5305,
      "Ġrounds": 5306,
      "Ġeff": 5307,
      "Ġgems": 5308,
      "reck": 5309,
      "Ġstare": 5310,
      "inks": 5311,
      "izens": 5312,
      "Ġskeleton": 5313,
      "smith": 5314,
      "Ġwizard": 5315,
      "Ġbackground": 5316,
      "Ġdeflect": 5317,
      "Ġpanel": 5318,
      "Ġadventurers": 5319,
      "Ġbranches": 5320,
      "Ġsafety": 5321,
      "acked": 5322,
      "Ġboys": 5323,
      "Ġskill": 5324,
      "Ġresides": 5325,
      "Ġwhispered": 5326,
      "Ġhill": 5327,
      "Ġrissa": 5328,
      "Ġunderdark": 5329,
      "Ġrelation": 5330,
      "Ġthrust": 5331,
      "Ġnods": 5332,
      "Ġversion": 5333,
      "pitched": 5334,
      "tr": 5335,
      "Ġmort": 5336,
      "Ġintention": 5337,
      "Ġexperien": 5338,
      "Ġsprigg": 5339,
      "Ġcabin": 5340,
      "yard": 5341,
      "Ġfount": 5342,
      "iece": 5343,
      "Ġperimeter": 5344,
      "Ġslap": 5345,
      "Ġflip": 5346,
      "Ġaccount": 5347,
      "Ġcreating": 5348,
      "imson": 5349,
      "Ġdwendalian": 5350,
      "Ġfurn": 5351,
      "Ġstation": 5352,
      "Ġkord": 5353,
      "Ġartist": 5354,
      "Ġgir": 5355,
      "Ġbutton": 5356,
      "Ġcharging": 5357,
      "Ġcomplicated": 5358,
      "Ġtrig": 5359,
      "Ġplates": 5360,
      "Ġcontroll": 5361,
      "Ġgreatsword": 5362,
      "Ġtalent": 5363,
      "Ġyelling": 5364,
      "Ġblowing": 5365,
      "pass": 5366,
      "Ġtick": 5367,
      "Ġrib": 5368,
      "Ġeh": 5369,
      "ope": 5370,
      "Ġclosing": 5371,
      "Ġjumping": 5372,
      "Ġbrace": 5373,
      "Ġshadowfell": 5374,
      "Ġjavel": 5375,
      "inter": 5376,
      "aries": 5377,
      "Ġinsect": 5378,
      "ama": 5379,
      "Ġletters": 5380,
      "Ġcraven": 5381,
      "Ġofficial": 5382,
      "Ġpointed": 5383,
      "Ġprovide": 5384,
      "anticore": 5385,
      "west": 5386,
      "Ġbats": 5387,
      "cends": 5388,
      "Ġchas": 5389,
      "Ġsurvived": 5390,
      "Ġtrigger": 5391,
      "Ġnah": 5392,
      "Ġbeaten": 5393,
      "Ġworkshop": 5394,
      "Ġfalchion": 5395,
      "\",": 5396,
      "Ġdies": 5397,
      "Ġlength": 5398,
      "Ġspit": 5399,
      "Ġprodu": 5400,
      "whack": 5401,
      "Ġgroups": 5402,
      "Ġmonk": 5403,
      "Ġbattlefield": 5404,
      "Ġgentlemen": 5405,
      "Ġmanticore": 5406,
      "Ġwash": 5407,
      "Ġuns": 5408,
      "Ġfaintly": 5409,
      "Ġcolumn": 5410,
      "Ġvault": 5411,
      "Ġdrive": 5412,
      "Ġunle": 5413,
      "Ġearring": 5414,
      "Ġblacksmith": 5415,
      "Ġinitial": 5416,
      "Ġmerch": 5417,
      "Ġtypes": 5418,
      "Ġquarter": 5419,
      "Ġrebellion": 5420,
      "Ġcages": 5421,
      "Ġcaused": 5422,
      "Ġsnaps": 5423,
      "Ġsentin": 5424,
      "Ġsoldiers": 5425,
      "Ġpyram": 5426,
      "eds": 5427,
      "Ġstolen": 5428,
      "Ġuncle": 5429,
      "their": 5430,
      "zza": 5431,
      "Ġdax": 5432,
      "Ġlines": 5433,
      "Ġseat": 5434,
      "Ġscatter": 5435,
      "Ġcrimson": 5436,
      "Ġbother": 5437,
      "Ġdissipates": 5438,
      "heavy": 5439,
      "Ġpure": 5440,
      "lets": 5441,
      "bear": 5442,
      "Ġannounced": 5443,
      "Ġskeletal": 5444,
      "Ġcauses": 5445,
      "pan": 5446,
      "Ġkickst": 5447,
      "Ġaffected": 5448,
      "dook": 5449,
      "Ġgear": 5450,
      "onse": 5451,
      "urry": 5452,
      "Ġvanished": 5453,
      "ora": 5454,
      "Ġplays": 5455,
      "Ġpotentially": 5456,
      "Ġpapers": 5457,
      "snar": 5458,
      "Ġspinning": 5459,
      "Ġdisengage": 5460,
      "Ġfier": 5461,
      "eable": 5462,
      "Ġfled": 5463,
      "Ġsorce": 5464,
      "Ġchanges": 5465,
      "vo": 5466,
      "Ġticket": 5467,
      "Ġtooth": 5468,
      "Ġquad": 5469,
      "Ġcurls": 5470,
      "Ġstandard": 5471,
      "Ġcritrole": 5472,
      "Ġoccur": 5473,
      "she": 5474,
      "Ġcorners": 5475,
      "Ġtouches": 5476,
      "Ġeffects": 5477,
      "Ġflashes": 5478,
      "Ġsurprised": 5479,
      "rud": 5480,
      "Ġbis": 5481,
      "Ġmot": 5482,
      "Ġplumm": 5483,
      "Ġconcentrating": 5484,
      "Ġlouder": 5485,
      "Ġdiamonds": 5486,
      "Ġalcove": 5487,
      "Ġfart": 5488,
      "Ġdumb": 5489,
      "utation": 5490,
      "Ġlips": 5491,
      "aun": 5492,
      "Ġconcer": 5493,
      "andri": 5494,
      "Ġexandri": 5495,
      "Ġcarries": 5496,
      "Ġsucceeds": 5497,
      "Ġwarrior": 5498,
      "Ġvac": 5499,
      "Ġplenty": 5500,
      "quiet": 5501,
      "Ġsplint": 5502,
      "zens": 5503,
      "Ġdozens": 5504,
      "Ġtrain": 5505,
      "ello": 5506,
      "olves": 5507,
      "Ġcru": 5508,
      "Ġwrist": 5509,
      "Ġclever": 5510,
      "Ġresponse": 5511,
      "Ġmerchant": 5512,
      "Ġexists": 5513,
      "Ġseeker": 5514,
      "hinx": 5515,
      "Ġanswers": 5516,
      "otoa": 5517,
      "Ġwanting": 5518,
      "Ġwhose": 5519,
      "Ġexplain": 5520,
      "zzle": 5521,
      "Ġdaxio": 5522,
      "style": 5523,
      "Ġfilling": 5524,
      "Ġcompanion": 5525,
      "Ġsociety": 5526,
      "Ġadorable": 5527,
      "Ġmedicine": 5528,
      "hm": 5529,
      "Ġgut": 5530,
      "Ġdranz": 5531,
      "Ġpray": 5532,
      "Ġarrange": 5533,
      "Ġfeatures": 5534,
      "Ġparchment": 5535,
      "Ġdranzel": 5536,
      "Ġbust": 5537,
      "Ġpause": 5538,
      "Ġrepl": 5539,
      "Ġvestig": 5540,
      "ograph": 5541,
      "Ġemerging": 5542,
      "Ġvestiges": 5543,
      "Ġriding": 5544,
      "Ġfocusing": 5545,
      "Ġsouthward": 5546,
      "Ġcelebration": 5547,
      "itate": 5548,
      "umber": 5549,
      "Ġfab": 5550,
      "Ġrare": 5551,
      "weed": 5552,
      "umbled": 5553,
      "Ġrisk": 5554,
      "muff": 5555,
      "nat": 5556,
      "rd": 5557,
      "rating": 5558,
      "Ġquar": 5559,
      "Ġchecked": 5560,
      "Ġhasted": 5561,
      "Ġagrees": 5562,
      "music": 5563,
      "cough": 5564,
      "ront": 5565,
      "Ġconfront": 5566,
      "Ġkashaw": 5567,
      "Ġthumb": 5568,
      "Ġrust": 5569,
      "Ġrecord": 5570,
      "Ġexandria": 5571,
      "uous": 5572,
      "Ġgall": 5573,
      "Ġwhack": 5574,
      "Ġblan": 5575,
      "Ġ38": 5576,
      "Ġhandsome": 5577,
      "Ġseaweed": 5578,
      "Ġpatron": 5579,
      "Ġshrug": 5580,
      "band": 5581,
      "yss": 5582,
      "acing": 5583,
      "Ġfury": 5584,
      "pperdook": 5585,
      "Ġmentions": 5586,
      "ech": 5587,
      "chem": 5588,
      "Ġjug": 5589,
      "Ġalchem": 5590,
      "Ġguardians": 5591,
      "Ġlevels": 5592,
      "Ġpressure": 5593,
      "Ġparaly": 5594,
      "Ġcollection": 5595,
      "Ġtrammels": 5596,
      "Ġcrates": 5597,
      "Ġ500": 5598,
      "Ġfailure": 5599,
      "Ġdepends": 5600,
      "Ġrevealed": 5601,
      "Ġbark": 5602,
      "Ġrumm": 5603,
      "Ġstron": 5604,
      "Ġreco": 5605,
      "Ġdestruction": 5606,
      "Ġsqueeze": 5607,
      "Ġroads": 5608,
      "Ġsealed": 5609,
      "after": 5610,
      "iance": 5611,
      "uine": 5612,
      "Ġabyss": 5613,
      "Ġemotion": 5614,
      "ouched": 5615,
      "Ġbrave": 5616,
      "Ġvanessa": 5617,
      "Ġmercer": 5618,
      "Ġbubble": 5619,
      "jaw": 5620,
      "Ġtuck": 5621,
      "Ġjudge": 5622,
      "ags": 5623,
      "Ġglorious": 5624,
      "Ġphil": 5625,
      "Ġdestroying": 5626,
      "Ġtouching": 5627,
      "Ġacquired": 5628,
      "Ġbald": 5629,
      "Ġenters": 5630,
      "check": 5631,
      "Ġcali": 5632,
      "Ġteleportation": 5633,
      "Ġfootfalls": 5634,
      "oman": 5635,
      "Ġfountain": 5636,
      "Ġknuckles": 5637,
      "Ġgenuine": 5638,
      "Ġhotis": 5639,
      "Ġislands": 5640,
      "Ġjaws": 5641,
      "Ġorders": 5642,
      "Ġtemperature": 5643,
      "Ġpub": 5644,
      "ese": 5645,
      "umes": 5646,
      "Ġgoodness": 5647,
      "Ġprec": 5648,
      "Ġedition": 5649,
      "Ġbullet": 5650,
      "Ġstopping": 5651,
      "Ġbalcon": 5652,
      "Ġnarrow": 5653,
      "Ġarkhan": 5654,
      "Ġain": 5655,
      "Ġdut": 5656,
      "asse": 5657,
      "illa": 5658,
      "Ġsuperior": 5659,
      "wing": 5660,
      "Ġpounds": 5661,
      "ghold": 5662,
      "Ġshatters": 5663,
      "Ġdistur": 5664,
      "Ġclearing": 5665,
      "Ġpyramid": 5666,
      "Ġtug": 5667,
      "story": 5668,
      "Ġintric": 5669,
      "Ġspear": 5670,
      "Ġshel": 5671,
      "Ġfeb": 5672,
      "Ġregion": 5673,
      "Ġmidnight": 5674,
      "Ġpulse": 5675,
      "Ġthieves": 5676,
      "Ġwise": 5677,
      "Ġcit": 5678,
      "Ġsphinx": 5679,
      "Ġmeaning": 5680,
      "Ġmini": 5681,
      "ohol": 5682,
      "Ġpackage": 5683,
      "Ġcandle": 5684,
      "bit": 5685,
      "Ġlimited": 5686,
      "Ġoption": 5687,
      "Ġgaming": 5688,
      "Ġjoke": 5689,
      "Ġcreation": 5690,
      "Ġfrightened": 5691,
      "Ġstronghold": 5692,
      "tube": 5693,
      "Ġbuck": 5694,
      "Ġhears": 5695,
      "Ġsafely": 5696,
      "Ġkicks": 5697,
      "Ġreveals": 5698,
      "Ġconvin": 5699,
      "Ġremoved": 5700,
      "Ġvel": 5701,
      "enw": 5702,
      "orts": 5703,
      "Ġjumps": 5704,
      "Ġhupperdook": 5705,
      "Ġadventures": 5706,
      "Ġalcohol": 5707,
      "Ġdisposal": 5708,
      "pro": 5709,
      "rical": 5710,
      "Ġnaked": 5711,
      "Ġrie": 5712,
      "Ġjet": 5713,
      "venge": 5714,
      "Ġjoy": 5715,
      "Ġowner": 5716,
      "Ġcircular": 5717,
      "Ġriegel": 5718,
      "rieve": 5719,
      "Ġfriendly": 5720,
      "Ġarriving": 5721,
      "Ġconnected": 5722,
      "Ġapologies": 5723,
      "Ġcircumstances": 5724,
      "Ġyoutube": 5725,
      "Ġtoad": 5726,
      "Ġbuff": 5727,
      "Ġ70": 5728,
      "Ġpressed": 5729,
      "Ġsuggests": 5730,
      "Ġcultists": 5731,
      "Ġtrost": 5732,
      "cro": 5733,
      "Ġsen": 5734,
      "Ġplants": 5735,
      "Ġpointing": 5736,
      "Ġworries": 5737,
      "Ġsummon": 5738,
      "Ġlayer": 5739,
      "Ġsewers": 5740,
      "Ġmane": 5741,
      "Ġlets": 5742,
      "Ġtroupe": 5743,
      "Ġpubl": 5744,
      "bir": 5745,
      "Ġyester": 5746,
      "Ġbah": 5747,
      "omp": 5748,
      "Ġplanet": 5749,
      "Ġretrieve": 5750,
      "Ġsunb": 5751,
      "Ġeager": 5752,
      "Ġdecision": 5753,
      "Ġwestern": 5754,
      "Ġbryce": 5755,
      "Ġdelight": 5756,
      "Ġwaterfall": 5757,
      "Ġsleight": 5758,
      "Ġrespond": 5759,
      "Ġcracked": 5760,
      "Ġhint": 5761,
      "Ġtome": 5762,
      "Ġnet": 5763,
      "Ġshards": 5764,
      "uttering": 5765,
      "Ġvand": 5766,
      "Ġember": 5767,
      "Ġincre": 5768,
      "Ġconstructed": 5769,
      "clears": 5770,
      "ann": 5771,
      "esis": 5772,
      "Ġsocket": 5773,
      "Ġgross": 5774,
      "Ġpossibility": 5775,
      "Ġflicker": 5776,
      "gasping": 5777,
      "Ġcannon": 5778,
      "Ġcore": 5779,
      "Ġrats": 5780,
      "ieved": 5781,
      "Ġproxim": 5782,
      "Ġglove": 5783,
      "vereign": 5784,
      "Ġproximity": 5785,
      "Ġowe": 5786,
      "Ġuncan": 5787,
      "Ġlocks": 5788,
      "ney": 5789,
      "Ġtruly": 5790,
      "Ġoffering": 5791,
      "Ġunse": 5792,
      "Ġearned": 5793,
      "Ġmurd": 5794,
      "Ġsorcerer": 5795,
      "Ġswallow": 5796,
      "Ġreached": 5797,
      "Ġsilent": 5798,
      "aneously": 5799,
      "Ġbush": 5800,
      "Ġmild": 5801,
      "Ġsovereign": 5802,
      "Ġorcus": 5803,
      "Ġended": 5804,
      "Ġhurts": 5805,
      "Ġexpected": 5806,
      "Ġquarry": 5807,
      "Ġvord": 5808,
      "Ġbackwards": 5809,
      "Ġflask": 5810,
      "Ġswir": 5811,
      "Ġbetr": 5812,
      "Ġminor": 5813,
      "Ġgrown": 5814,
      "Ġtabletop": 5815,
      "Ġyesterday": 5816,
      "Ġdread": 5817,
      "ability": 5818,
      "Ġscra": 5819,
      "Ġcreative": 5820,
      "Ġnaturally": 5821,
      "Ġharder": 5822,
      "Ġmurder": 5823,
      "Ġsyng": 5824,
      "Ġstink": 5825,
      "Ġredd": 5826,
      "Ġju": 5827,
      "Ġbacking": 5828,
      "Ġshell": 5829,
      "Ġdrown": 5830,
      "Ġbedroom": 5831,
      "Ġproblems": 5832,
      "Ġrich": 5833,
      "Ġclearly": 5834,
      "Ġissues": 5835,
      "Ġtrolls": 5836,
      "Ġbillowing": 5837,
      "Ġpreparation": 5838,
      "Ġcarriage": 5839,
      "Ġkickstarter": 5840,
      "anror": 5841,
      "Ġrises": 5842,
      "Ġelbow": 5843,
      "Ġrelief": 5844,
      "Ġtapest": 5845,
      "Ġthorbir": 5846,
      "Ġvague": 5847,
      "bea": 5848,
      "Ġwaist": 5849,
      "spl": 5850,
      "Ġimpressed": 5851,
      "Ġmarble": 5852,
      "Ġexposed": 5853,
      "Ġcells": 5854,
      "Ġinstinctually": 5855,
      "Ġboulder": 5856,
      "Ġrelationship": 5857,
      "Ġcred": 5858,
      "Ġoffered": 5859,
      "Ġmarvel": 5860,
      "Ġsyngorn": 5861,
      "Ġhalt": 5862,
      "Ġbru": 5863,
      "igging": 5864,
      "Ġsocial": 5865,
      "Ġrever": 5866,
      "Ġchunks": 5867,
      "who": 5868,
      "Ġguardian": 5869,
      "Ġzanror": 5870,
      "Ġmarket": 5871,
      "Ġdisappoint": 5872,
      "Ġdoubled": 5873,
      "Ġblanket": 5874,
      "Ġdecides": 5875,
      "Ġuncanny": 5876,
      "fare": 5877,
      "Ġgle": 5878,
      "Ġkern": 5879,
      "ift": 5880,
      "Ġcritter": 5881,
      "Ġtravels": 5882,
      "Ġcrying": 5883,
      "Ġclustered": 5884,
      "Ġchromatic": 5885,
      "Ġram": 5886,
      "Ġcourty": 5887,
      "Ġknocks": 5888,
      "bor": 5889,
      "hy": 5890,
      "Ġfeather": 5891,
      "Ġrealizing": 5892,
      "Ġslept": 5893,
      "Ġmysterious": 5894,
      "Ġnav": 5895,
      "Ġlip": 5896,
      "Ġprove": 5897,
      "Ġbund": 5898,
      "Ġretrie": 5899,
      "Ġfreedom": 5900,
      "Ġlu": 5901,
      "Ġjammed": 5902,
      "race": 5903,
      "Ġspoken": 5904,
      "ding": 5905,
      "sund": 5906,
      "tw": 5907,
      "Ġba": 5908,
      "attle": 5909,
      "Ġeaten": 5910,
      "Ġaffixed": 5911,
      "Ġconcerned": 5912,
      "ril": 5913,
      "rep": 5914,
      "atory": 5915,
      "Ġmouse": 5916,
      "itted": 5917,
      "Ġours": 5918,
      "Ġstayed": 5919,
      "Ġmustache": 5920,
      "Ġsigning": 5921,
      "Ġreload": 5922,
      "aton": 5923,
      "Ġtrigg": 5924,
      "Ġloll": 5925,
      "Ġload": 5926,
      "Ġdiscount": 5927,
      "Ġkicked": 5928,
      "Ġlawmaster": 5929,
      "Ġsurvivors": 5930,
      "Ġfrenz": 5931,
      "Ġwoke": 5932,
      "Ġstyle": 5933,
      "ived": 5934,
      "Ġfighter": 5935,
      "Ġpatrons": 5936,
      "Ġthorough": 5937,
      "Ġsusp": 5938,
      "aive": 5939,
      "Ġir": 5940,
      "Ġyork": 5941,
      "Ġdozen": 5942,
      "Ġroyal": 5943,
      "Ġbecoming": 5944,
      "Ġbron": 5945,
      "Ġdropping": 5946,
      "Ġdefeat": 5947,
      "Ġintroduce": 5948,
      "Ġumber": 5949,
      "Ġcourtyard": 5950,
      "Ġwrest": 5951,
      "Ġfreak": 5952,
      "amut": 5953,
      "Ġmyth": 5954,
      "Ġbramble": 5955,
      "azing": 5956,
      "Ġenjoyed": 5957,
      "Ġbahamut": 5958,
      "Ġtumble": 5959,
      "Ġsack": 5960,
      "Ġshade": 5961,
      "Ġperman": 5962,
      "Ġshowed": 5963,
      "vity": 5964,
      "Ġsteam": 5965,
      "Ġmistress": 5966,
      "Ġobsidian": 5967,
      "gant": 5968,
      "squ": 5969,
      "Ġtow": 5970,
      "asons": 5971,
      "Ġstained": 5972,
      "tern": 5973,
      "Ġswear": 5974,
      "Ġspeech": 5975,
      "Ġdiscussing": 5976,
      "Ġvibrant": 5977,
      "Ġmilit": 5978,
      "Ġchampion": 5979,
      "Ġhack": 5980,
      "Ġprotto": 5981,
      "Ġvicious": 5982,
      "Ġenemies": 5983,
      "Ġvolcano": 5984,
      "Ġaltar": 5985,
      "eas": 5986,
      "stood": 5987,
      "Ġshame": 5988,
      "beard": 5989,
      "Ġfamil": 5990,
      "armed": 5991,
      "door": 5992,
      "Ġgoodbye": 5993,
      "Ġumb": 5994,
      "Ġflat": 5995,
      "Ġsnar": 5996,
      "Ġbasil": 5997,
      "Ġemplo": 5998,
      "Ġblocking": 5999
    },
    "merges": [
      "Ġ t",
      "Ġ a",
      "Ġt h",
      "Ġ i",
      "o u",
      "Ġ s",
      "Ġth e",
      "i n",
      "Ġ w",
      "r e",
      "Ġ o",
      "Ġ y",
      "Ġ h",
      "Ġ b",
      "a t",
      "Ġy ou",
      "n d",
      "e r",
      "in g",
      "Ġ c",
      "Ġ f",
      "Ġ d",
      "Ġ g",
      "Ġt o",
      "l l",
      "Ġ m",
      "Ġa nd",
      "Ġ p",
      "a n",
      "o n",
      "Ġ l",
      "Ġo f",
      "e s",
      "Ġi t",
      "i t",
      "e n",
      "o r",
      "Ġ n",
      "i s",
      "a r",
      "' s",
      "Ġth at",
      "Ġi n",
      "e d",
      "s t",
      "o w",
      "v e",
      "g h",
      "Ġw e",
      "o m",
      "Ġb e",
      "Ġg o",
      "l e",
      "a y",
      "Ġ r",
      "Ġw h",
      "k e",
      "Ġo n",
      "Ġh a",
      "Ġh e",
      "c k",
      "Ġ u",
      "o t",
      "Ġ e",
      "e t",
      "gh t",
      "Ġi s",
      "a l",
      "a s",
      "Ġs t",
      "i ght",
      "Ġs h",
      "Ġd o",
      "s e",
      "e a",
      "l d",
      "c h",
      "i d",
      "Ġa s",
      "v er",
      "ou t",
      "Ġ re",
      "Ġs e",
      "Ġth is",
      "l y",
      "c e",
      "Ġf or",
      "u t",
      "a ll",
      "Ġs o",
      "o o",
      "i on",
      "en t",
      "a m",
      "Ġa n",
      "Ġ j",
      "i m",
      "it h",
      "Ġc an",
      "t h",
      "Ġ k",
      "Ġa t",
      "u r",
      "Ġyou r",
      "a g",
      "Ġa ll",
      "Ġw ith",
      "Ġthe re",
      "c t",
      "' t",
      "i r",
      "Ġa re",
      "r o",
      "Ġha ve",
      "a ck",
      "a d",
      "' re",
      "Ġn ot",
      "Ġwh at",
      "- -",
      "Ġu p",
      "Ġl i",
      "Ġr ight",
      "u st",
      "Ġse e",
      "r ou",
      "om e",
      "Ġ out",
      "Ġf r",
      "' m",
      "ou ld",
      "Ġgo ing",
      "an t",
      "a ke",
      "Ġon e",
      "Ġthe y",
      "Ġ (",
      "i ll",
      "Ġ \"",
      "Ġj ust",
      "Ġb ut",
      "Ġc h",
      "Ġn o",
      "ea h",
      "Ġt r",
      "Ġy eah",
      "oo k",
      "Ġm e",
      "Ġw as",
      "u s",
      "i c",
      "e re",
      "Ġli ke",
      "a u",
      "k ay",
      "u n",
      "Ġo kay",
      "ar d",
      "Ġg et",
      "Ġin t",
      "o d",
      "Ġk n",
      "Ġn e",
      "all y",
      "Ġr o",
      "a in",
      "Ġm o",
      "Ġg u",
      "Ġm y",
      "Ġ v",
      "Ġl ook",
      "p p",
      "in d",
      "i l",
      "a st",
      "Ġd on",
      "Ġfr om",
      "es t",
      "Ġkn ow",
      "Ġ 1",
      "Ġo r",
      "Ġs p",
      "Ġb ack",
      "Ġa b",
      "Ġsh e",
      "Ġo h",
      "ag e",
      "ver y",
      "Ġi f",
      "Ġf e",
      "Ġp o",
      "r a",
      "id e",
      "ou r",
      "Ġh er",
      "Ġh is",
      "ar t",
      "a k",
      "Ġp l",
      "Ġs ome",
      ". \"",
      "Ġh im",
      "Ġint o",
      "Ġan y",
      "u re",
      "e p",
      "on e",
      "Ġa l",
      "Ġn ow",
      "er s",
      "i e",
      "' ll",
      "rou nd",
      "ow n",
      "Ġthe m",
      "Ġgu y",
      "Ġd e",
      "g e",
      "Ġc l",
      "Ġ 2",
      "Ġt w",
      "Ġhe re",
      "t er",
      "Ġc on",
      "i g",
      "i ve",
      "u m",
      "q u",
      "e ll",
      "Ġab out",
      "Ġm ake",
      "es s",
      "ur n",
      "Ġu s",
      "Ġd own",
      "o re",
      "e l",
      "it t",
      "r i",
      "in k",
      "Ġwh ere",
      "in t",
      "Ġwe ll",
      "a nd",
      "Ġguy s",
      "Ġw ant",
      "o p",
      "n t",
      "Ġw ay",
      "i re",
      "a b",
      "Ġ ke",
      "Ġw ould",
      "' ve",
      "Ġo ver",
      "Ġd id",
      "h er",
      "Ġb l",
      "Ġa r",
      "Ġtw o",
      "Ġwh o",
      "Ġc om",
      "at e",
      "Ġof f",
      "Ġs c",
      "Ġthe n",
      "Ġs a",
      "Ġpo int",
      "ea d",
      "Ġt ake",
      "v en",
      "a p",
      "h ing",
      "w ay",
      "u ll",
      "it y",
      "Ġgo od",
      "at ion",
      "Ġwh i",
      "Ġs ay",
      "i ck",
      "Ġd am",
      "rou gh",
      "Ġat t",
      "s s",
      "Ġth rough",
      "u ck",
      "on g",
      "w ard",
      "Ġd is",
      "Ġh ow",
      "Ġm an",
      "Ġa round",
      "Ġt im",
      "Ġe x",
      "Ġdo es",
      "l f",
      "Ġ very",
      "i f",
      "in e",
      "al k",
      "Ġl e",
      "itt le",
      "r y",
      "or t",
      "Ġl ittle",
      "Ġh it",
      "u l",
      "Ġw or",
      "Ġa ct",
      "Ġth ing",
      "Ġp er",
      "Ġa g",
      "th er",
      "Ġha s",
      "re at",
      "re e",
      "Ġbe en",
      "a ce",
      "a ch",
      "ou s",
      "Ġbe c",
      "Ġro ll",
      "au se",
      "Ġw ill",
      "Ġth ink",
      "r ow",
      "Ġb y",
      "Ġch e",
      "nd s",
      "Ġth an",
      "Ġs u",
      "Ġdam age",
      "Ġgo t",
      "Ġt urn",
      "am e",
      "Ġtim e",
      "Ġst ill",
      "Ġ qu",
      "Ġs l",
      "Ġp re",
      "Ġw at",
      "Ġp ro",
      "Ġbec ause",
      "Ġl et",
      "i ce",
      "Ġwe re",
      "m p",
      "v ing",
      "o nd",
      "Ġy es",
      "o l",
      "Ġo ther",
      "Ġche ck",
      "Ġf l",
      "a re",
      "Ġb r",
      "Ġha d",
      "Ġthe ir",
      "Ġmo re",
      "Ġc ould",
      "Ġag ain",
      "Ġsh ould",
      "i es",
      "Ġl o",
      "Ġe very",
      "Ġtr y",
      "b er",
      "Ġ our",
      "Ġd r",
      "Ġ en",
      "o ld",
      "Ġs m",
      "Ġit s",
      "Ġg ro",
      "e ct",
      "Ġb it",
      "Ġp e",
      "Ġre ally",
      "as s",
      "Ġc ome",
      "o se",
      "Ġs ide",
      "i p",
      "th ing",
      "Ġbe g",
      "b le",
      "l an",
      "Ġatt ack",
      "is h",
      "ou gh",
      "Ġgro g",
      "or d",
      "oo d",
      "u ally",
      "Ġf ir",
      "it e",
      "f ore",
      "Ġa c",
      "v es",
      "Ġbe fore",
      "Ġu n",
      "is t",
      "ar k",
      "b e",
      "Ġthe se",
      "f t",
      "m ent",
      "Ġne ed",
      "Ġp art",
      "l au",
      "Ġa m",
      "Ġfir st",
      "Ġm ay",
      "Ġwhi ch",
      "at h",
      "o s",
      "ou nd",
      "Ġbeg in",
      "Ġa d",
      "Ġl ea",
      "Ġf uck",
      "f f",
      "od y",
      "Ġlook s",
      "Ġf ind",
      "Ġc r",
      "Ġu nd",
      "Ġp ull",
      "Ġs w",
      "op le",
      "om et",
      "Ġb ot",
      "Ġpoint s",
      "Ġke ep",
      "Ġpe ople",
      "Ġhe ad",
      "i ous",
      "Ġs omet",
      "e ar",
      "a ct",
      "Ġw a",
      "u e",
      "Ġto o",
      "Ġa pp",
      "Ġre st",
      "se lf",
      "Ġwh en",
      "Ġm u",
      "as e",
      "ad e",
      "Ġc o",
      "Ġthan k",
      "s o",
      "Ġsee m",
      "Ġp i",
      "s ide",
      "Ġc ur",
      "Ġt ak",
      "Ġse c",
      "Ġa h",
      "n ing",
      "Ġfe el",
      "Ġfe et",
      "Ġha nd",
      "Ġsomet hing",
      "x t",
      "Ġto ward",
      "Ġgo es",
      "Ġ ent",
      "ot her",
      "Ġmo ve",
      "Ġme an",
      "Ġc a",
      "Ġg i",
      "Ġo p",
      "t y",
      "as h",
      "Ġst art",
      "c y",
      "Ġmu ch",
      "Ġh old",
      "s h",
      "Ġany thing",
      "t ing",
      "Ġf o",
      "Ġp ut",
      "Ġdo or",
      "Ġr un",
      "Ġc ast",
      "an ce",
      "Ġa way",
      "Ġe y",
      "Ġwa it",
      "Ġw alk",
      "Ġcon t",
      "Ġund er",
      "Ġth ree",
      "Ġne xt",
      "w h",
      "Ġl ong",
      "Ġ2 0",
      "Ġha pp",
      "Ġwat ch",
      "an g",
      "Ġtoward s",
      "Ġu se",
      "a x",
      "ve l",
      "Ġsc an",
      "ad y",
      "Ġar m",
      "Ġlook ing",
      "p t",
      "Ġah ead",
      "ab le",
      "Ġro om",
      "ro ss",
      "Ġhe l",
      "Ġscan lan",
      "a c",
      "Ġmay be",
      "Ġt e",
      "w n",
      "Ġke y",
      "on s",
      "Ġbot h",
      "ght er",
      "v ant",
      "i v",
      "Ġal so",
      "Ġs ure",
      "Ġe ven",
      "a v",
      "Ġsec ond",
      "Ġ ve",
      "Ġact ually",
      ". .",
      "Ġthing s",
      "i z",
      "Ġop en",
      "Ġt alk",
      "at t",
      "Ġg l",
      "Ġt en",
      "Ġbe h",
      "a ir",
      "or m",
      "Ġb o",
      "Ġp r",
      "p le",
      "i ld",
      "ke t",
      "Ġhel p",
      "ic al",
      "Ġdr ag",
      "Ġsp ell",
      "us h",
      "Ġwor k",
      "e m",
      "Ġl ight",
      "Ġc ity",
      "p er",
      "Ġa f",
      "ing s",
      "Ġsh it",
      "Ġdo ing",
      "ab ly",
      "Ġl ot",
      "Ġs or",
      "le th",
      "Ġg reat",
      "lau ghter",
      "Ġpl us",
      "Ġb u",
      "Ġth ose",
      "Ġth row",
      "Ġkey leth",
      "Ġ 3",
      "Ġbe t",
      "Ġg ive",
      "Ġper cy",
      "ct ion",
      "l es",
      "Ġf ire",
      "ou nt",
      "Ġbeh ind",
      "Ġgo d",
      "Ġhe ar",
      "e ver",
      "Ġle ft",
      "Ġbe ing",
      "b ably",
      "Ġsor ry",
      "Ġt ell",
      "Ġd ark",
      "ere d",
      "Ġg ra",
      "Ġst r",
      "re d",
      "Ġpro bably",
      "Ġd ay",
      "Ġon ly",
      "Ġw all",
      "Ġm om",
      "Ġaf ter",
      "u al",
      "? \"",
      "Ġhit s",
      "Ġv ax",
      "s p",
      "Ġhapp en",
      "Ġpi ke",
      "Ġan other",
      "ar y",
      "nt ly",
      "Ġg round",
      "' d",
      "oo l",
      "le b",
      "Ġwhi le",
      "u d",
      "Ġf ar",
      "re ak",
      "Ġb ig",
      "n a",
      "e k",
      "l ing",
      "Ġe nd",
      "Ġac ross",
      "Ġact ion",
      "Ġl ast",
      "Ġmom ent",
      "Ġsm all",
      "Ġwat er",
      "Ġv o",
      "vant age",
      "Ġfe w",
      "Ġa w",
      "a il",
      "Ġpre t",
      "Ġc or",
      "Ġk ind",
      "Ġre m",
      "b ody",
      "Ġm ag",
      "f ul",
      "m m",
      "l i",
      "en ce",
      "Ġdid n",
      "is s",
      "on t",
      "an ge",
      "Ġc ar",
      "Ġc reat",
      "at her",
      "f e",
      "Ġas k",
      "Ġto p",
      "p e",
      "Ġi mp",
      "Ġm in",
      "Ġn at",
      "Ġpret ty",
      "i gh",
      "Ġg r",
      "Ġe l",
      "Ġf ive",
      "Ġcur re",
      "Ġm ight",
      "Ġk ill",
      "Ġm ak",
      "o st",
      "i al",
      "Ġagain st",
      "Ġwh y",
      "Ġfr ie",
      "Ġca leb",
      "Ġve x",
      "Ġl ar",
      "v ent",
      "is e",
      "i x",
      "Ġst ep",
      "Ġ1 5",
      "Ġdis t",
      "Ġmo st",
      "re n",
      "Ġon ce",
      "Ġf ine",
      "v ed",
      "Ġsp e",
      "Ġf ace",
      "Ġdoes n",
      "Ġfr ont",
      "Ġha lf",
      "Ġre c",
      "um p",
      "Ġe ar",
      "o ot",
      "Ġf our",
      "t s",
      "Ġfor m",
      "Ġst ay",
      "Ġgu ard",
      "Ġf in",
      "ate ly",
      "Ġs n",
      "Ġst and",
      "Ġs k",
      "Ġpl an",
      "ir d",
      "ce pt",
      "Ġfuck ing",
      "er ing",
      "ion s",
      "Ġm ade",
      "Ġs ur",
      "Ġwith in",
      "Ġe ach",
      "Ġs et",
      "Ġc ent",
      "Ġpl ace",
      "Ġman y",
      "Ġseem s",
      "at ch",
      "Ġtry ing",
      "est er",
      "Ġcom ing",
      "if f",
      "Ġne w",
      "Ġst e",
      "o ve",
      "i ly",
      "Ġcreat ure",
      "ear s",
      "er g",
      "Ġgo ld",
      "Ġbe l",
      "Ġin side",
      "Ġre al",
      "Ġcurre ntly",
      "Ġe m",
      "g et",
      "c es",
      "o h",
      "at ed",
      "p s",
      "l ed",
      "Ġey es",
      "w e",
      "Ġth ough",
      "Ġch ar",
      "Ġd ire",
      "ur al",
      "ea k",
      "Ġfor ward",
      "o ck",
      "p l",
      "g er",
      "f orm",
      "Ġb ad",
      "Ġlar ge",
      "Ġre t",
      "ig n",
      "Ġp ass",
      "Ġnot t",
      "Ġhe al",
      "in ket",
      "Ġevery one",
      "Ġin v",
      "Ġtr inket",
      "Ġst one",
      "Ġdrag on",
      "Ġb reak",
      "Ġtak es",
      "j ord",
      "Ġn ight",
      "Ġf jord",
      "ou ght",
      "Ġb ody",
      "Ġsh ow",
      "Ġen ough",
      "le ase",
      "Ġf all",
      "Ġp ers",
      "Ġwe ek",
      "Ġc ool",
      "Ġ z",
      "Ġcom es",
      "Ġh or",
      "Ġj ester",
      "Ġs ort",
      "Ġsa id",
      "u ff",
      "ll ow",
      "Ġc all",
      "u g",
      "Ġp ast",
      "0 0",
      "Ġtr a",
      "a w",
      "Ġpl ay",
      "at er",
      "Ġ ed",
      "Ġbegin s",
      "Ġbe au",
      "Ġel se",
      "m ost",
      "i ble",
      "t o",
      "lau gh",
      "Ġs ix",
      "Ġnat ural",
      "am p",
      "n er",
      "Ġb on",
      "Ġne ver",
      "se l",
      "or y",
      "e y",
      "Ġf am",
      "Ġcl ose",
      "Ġgi ant",
      "Ġj o",
      "Ġsl ow",
      "re ady",
      "Ġm iss",
      "Ġc re",
      "b s",
      "Ġn ice",
      "Ġal ready",
      "an s",
      "t ain",
      "Ġcont in",
      "Ġpart y",
      "Ġs ame",
      "! \"",
      "at ing",
      "d d",
      "Ġsa ving",
      "d ay",
      "ed i",
      "re ss",
      "Ġm et",
      "en s",
      "Ġw r",
      "Ġc ou",
      "Ġd es",
      "Ġb ook",
      "Ġf un",
      "Ġlo ve",
      "Ġlea ve",
      "Ġs er",
      "en se",
      "Ġre ach",
      "Ġp ick",
      "Ġbr ing",
      "Ġh igh",
      "Ġqu ick",
      "Ġb ar",
      "Ġal most",
      "a z",
      "Ġmin ut",
      "Ġget s",
      "ap s",
      "ic ally",
      "Ġg rou",
      "Ġi mm",
      "Ġn ame",
      "Ġl ead",
      "Ġt ree",
      "Ġcl os",
      "Ġey e",
      "Ġdon e",
      "Ġarm or",
      "Ġa ir",
      "Ġout side",
      "Ġv is",
      "Ġt er",
      "Ġad vantage",
      ".. .",
      "Ġbet ter",
      "Ġcr it",
      "Ġnot hing",
      "Ġsay s",
      "â Ģ",
      "n ess",
      "i ed",
      "Ġd iff",
      "Ġi d",
      "Ġch am",
      "ver s",
      "Ġw ar",
      "Ġget ting",
      "Ġcent er",
      "i b",
      "Ġbon us",
      "Ġh ard",
      "Ġe ight",
      "Ġp ie",
      "ow er",
      "Ġse en",
      "Ġste al",
      "Ġgrou p",
      "Ġp lease",
      "Ġdire ction",
      "Ġdis c",
      "Ġhold ing",
      "Ġm ind",
      "Ġh op",
      "laugh s",
      "c ess",
      "Ġto n",
      "Ġth ought",
      "ou nds",
      "Ġha nds",
      "Ġ1 9",
      "Ġf ight",
      "l ess",
      "Ġg lan",
      "Ġo wn",
      "Ġs ound",
      "cept ion",
      "Ġas s",
      "o g",
      "Ġl au",
      "Ġf ig",
      "Ġe le",
      "Ġe vent",
      "m b",
      "Ġi nd",
      "Ġfo llow",
      "Ġ1 8",
      "Ġde c",
      "a h",
      "Ġm ar",
      "Ġg re",
      "Ġsh ip",
      "Ġne ar",
      ") .",
      "Ġde f",
      "Ġret urn",
      "in ce",
      "Ġevery thing",
      "Ġh o",
      "Ġmag ic",
      "Ġbl ood",
      "Ġ1 2",
      "in a",
      "iz e",
      "Ġf ly",
      "Ġm ach",
      "it ch",
      "ar ing",
      "Ġfig ure",
      "pp ing",
      "Ġw ind",
      "Ġp ush",
      "Ġcham ber",
      "Ġ1 7",
      "Ġto wn",
      "Ġb urn",
      "Ġf ound",
      "Ġmak ing",
      "ver n",
      "Ġwhat ever",
      "Ġqu ite",
      "Ġu nt",
      "Ġpers on",
      "id d",
      "Ġqu est",
      "n el",
      "Ġad d",
      "r u",
      "e ath",
      "Ġs le",
      "Ġon to",
      "Ġimm edi",
      "Ġf ull",
      "Ġare a",
      "Ġst ri",
      "Ġe ver",
      "un ch",
      "ou d",
      "Ġd ead",
      "n o",
      "Ġ1 6",
      "Ġfrie nds",
      "f ort",
      "Ġw ent",
      "i us",
      "od e",
      "Ġte mp",
      "Ġsh ot",
      "Ġmach ina",
      "Ġb est",
      "Ġh our",
      "Ġ3 0",
      "Ġc le",
      "Ġint er",
      "Ġbl ack",
      "Ġo ld",
      "it ion",
      "Ġed ge",
      "Ġgra b",
      "on na",
      "c ent",
      "ash a",
      "Ġfl o",
      "Ġre s",
      "Ġst uff",
      "get her",
      "ou se",
      "Ġtra vel",
      "Ġli fe",
      "i ally",
      "ou n",
      "Ġdiff ere",
      "Ġse ven",
      "Ġus ed",
      "Ġs ince",
      "Ġs y",
      "c ing",
      "Ġy asha",
      "Ġwho le",
      "Ġto gether",
      "Ġt able",
      "Ġent ire",
      "Ġ 4",
      "Ġit self",
      "Ġbu ild",
      "Ġcou ple",
      "Ġg onna",
      "Ġy et",
      "Ġl and",
      "le t",
      "Ġt un",
      "Ġst op",
      "Ġsa w",
      "an k",
      "re am",
      "Ġn um",
      "air s",
      "at es",
      "Ġb ro",
      "way s",
      "Ġ [",
      "t e",
      "in s",
      "Ġc our",
      "Ġlau gh",
      "Ġs it",
      "Ġtalk ing",
      "w ood",
      "Ġevent ually",
      "Ġc ra",
      "âĢ Ļ",
      "Ġroll ed",
      "Ġc ame",
      "Ġp ur",
      "c l",
      "u nd",
      "Ġg one",
      "Ġwor d",
      "Ġre d",
      "Ġsteal th",
      "h e",
      "est one",
      "Ġslow ly",
      "ain s",
      "Ġal ong",
      "Ġunt il",
      "Ġh um",
      "Ġ1 4",
      "Ġhe y",
      "Ġlea st",
      "Ġn ine",
      "Ġpo ss",
      "i er",
      "Ġc atch",
      "Ġvo ice",
      "c ome",
      "g th",
      "Ġper ception",
      "Ġc are",
      "Ġele ment",
      "Ġe nds",
      "c an",
      "id es",
      "Ġtak ing",
      "Ġhe av",
      "Ġin st",
      "ow s",
      "Ġwe ap",
      "k en",
      "Ġwh it",
      "Ġyour self",
      "Ġrem em",
      "pp ed",
      "Ġmove ment",
      "Ġid ea",
      "Ġman ag",
      "wh ere",
      "am m",
      "y ond",
      "ere st",
      "itt ing",
      "b y",
      "Ġimmedi ately",
      "Ġar row",
      "is on",
      "Ġd ro",
      "Ġton ight",
      "Ġf ur",
      "ent ion",
      "Ġaw es",
      "Ġro ck",
      "u p",
      "dd en",
      "out h",
      "Ġd ra",
      "Ġb att",
      "Ġs un",
      "Ġawes ome",
      "Ġle vel",
      "Ġsu dden",
      "Ġtoo k",
      "sel ves",
      "at ter",
      "v il",
      "Ġguard s",
      "Ġm on",
      "Ġex p",
      "Ġup on",
      "Ġdiffere nt",
      "Ġwe l",
      "Ġha ven",
      "e mp",
      "Ġso on",
      "Ġf ore",
      "Ġcrit ical",
      "Ġr a",
      "ou ch",
      "Ġbe yond",
      "Ġwhit estone",
      "Ġtr ue",
      "Ġ1 3",
      "Ġab le",
      "Ġ2 5",
      "Ġint erest",
      "Ġha ving",
      "Ġp ot",
      "Ġto r",
      "ll y",
      "ri ble",
      "Ġapp ro",
      "Ġg en",
      "Ġvo x",
      "Ġg ame",
      "Ġo pp",
      "w er",
      "Ġsu pp",
      "Ġfo ot",
      "Ġr u",
      "Ġfin ish",
      "Ġd est",
      "ur a",
      "Ġturn s",
      "we en",
      "Ġe p",
      "ra ct",
      "Ġdr ink",
      "n ed",
      "Ġremem ber",
      "a ve",
      "Ġbet ween",
      "Ġha ir",
      "Ġre l",
      "ast er",
      "Ġ1 1",
      "Ġb as",
      "Ġhe ll",
      "Ġnum ber",
      "Ġhow ever",
      "Ġha ll",
      "Ġm ark",
      "Ġfrie nd",
      "ren gth",
      "Ġcon st",
      "k in",
      "Ġwalk ing",
      "Ġwith out",
      "Ġst rength",
      "ir c",
      "Ġcom ple",
      "Ġtun nel",
      "Ġb ri",
      "y s",
      "Ġdist ance",
      "Ġh un",
      "ul t",
      "Ġre ad",
      "Ġwel come",
      "Ġw ood",
      "Ġminut es",
      "Ġto t",
      "Ġsw ord",
      "Ġp ower",
      "ie ld",
      "or s",
      "l t",
      "k s",
      "i et",
      "Ġcon s",
      "c om",
      "at ive",
      "Ġdis ad",
      "Ġen erg",
      "ul ar",
      "Ġdisad vantage",
      "Ġsh if",
      "Ġb us",
      "Ġcom m",
      "Ġcon f",
      "Ġas h",
      "Ġsome one",
      "Ġt re",
      "Ġin form",
      "ic s",
      "Ġatt emp",
      "Ġpull s",
      "iv al",
      "Ġc irc",
      "Ġs im",
      "Ġp ort",
      "v ious",
      "in ite",
      "Ġsle ep",
      "Ġro le",
      "one y",
      "Ġh ouse",
      "Ġmak es",
      "Ġhop e",
      "m an",
      "Ġshould er",
      "or th",
      "Ġse nd",
      "Ġep is",
      "Ġsp eak",
      "Ġs ense",
      "Ġ2 1",
      "Ġcom p",
      "w ar",
      "Ġt i",
      "Ġe mp",
      "Ġcour se",
      "Ġv ar",
      "Ġfam ily",
      "Ġam az",
      "ff ect",
      "Ġevery body",
      "Ġimp act",
      "Ġhe ard",
      "Ġenerg y",
      "Ġt ary",
      "Ġm att",
      "Ġd ag",
      "g u",
      "y ing",
      "Ġo oh",
      "ie ve",
      "at s",
      "Ġy ep",
      "Ġb ur",
      "Ġ 5",
      "Ġf ree",
      "Ġsa ve",
      "Ġm us",
      "Ġm or",
      "c ious",
      "Ġr ound",
      "Ġde ep",
      "Ġsay ing",
      "Ġcor ner",
      "s ing",
      "Ġbl ade",
      "iv id",
      "r on",
      "g r",
      "p h",
      "i or",
      "Ġd ice",
      "i an",
      "ith er",
      "il ity",
      "Ġdef inite",
      "ap e",
      "b l",
      "Ġde al",
      "a le",
      "Ġin sp",
      "Ġany one",
      "us hing",
      "Ġspe c",
      "Ġwe ird",
      "Ġh ome",
      "ull y",
      "Ġdefinite ly",
      "Ġ es",
      "Ġpre s",
      "Ġw ond",
      "Ġp h",
      "Ġstep s",
      "Ġwant ed",
      "Ġab ove",
      "Ġmo lly",
      "Ġbatt le",
      "Ġ --",
      "Ġeven ing",
      "Ġs il",
      "Ġgi ves",
      "Ġd ang",
      "Ġrun ning",
      "Ġd war",
      "c r",
      "Ġlo ck",
      "est ig",
      "Ġex t",
      "Ġc ut",
      "Ġtak en",
      "Ġb reat",
      "Ġhum an",
      "i le",
      "Ġbot t",
      "Ġmo ving",
      "ber ius",
      "Ġc ol",
      "Ġc ap",
      "Ġkeep ing",
      "Ġb en",
      "Ġc amp",
      "Ġtemp le",
      "Ġd ie",
      "Ġr ush",
      "Ġre g",
      "Ġinform ation",
      "Ġattack s",
      "Ġind ivid",
      "Ġsh ort",
      "ation s",
      "Ġs ing",
      "Ġappro ach",
      "e w",
      "Ġre ady",
      "Ġflo or",
      "ain t",
      "Ġj ump",
      "f ully",
      "m ore",
      "Ġme et",
      "Ġvar ious",
      "Ġm oney",
      "ar s",
      "Ġti berius",
      "in ess",
      "d er",
      "Ġright y",
      "o ke",
      "it ed",
      "Ġp ath",
      "Ġr ange",
      "Ġst ra",
      "Ġamaz ing",
      "u ce",
      "Ġepis ode",
      "Ġmor ning",
      "ie f",
      "Ġy ears",
      "Ġal ways",
      "Ġex c",
      "Ġsh oot",
      "er tain",
      "st and",
      "Ġf air",
      "Ġt al",
      "Ġsl am",
      "li ke",
      "s ion",
      "Ġe ither",
      "Ġquest ion",
      "Ġglan ce",
      "Ġg ather",
      "Ġman age",
      "ch e",
      "Ġheav y",
      "Ġg n",
      "Ġpre p",
      "Ġindivid ual",
      "Ġm ain",
      "Ġpr ot",
      "ar ch",
      "Ġ2 4",
      "Ġhappen ed",
      "ro ll",
      "u es",
      "Ġstand ing",
      "as p",
      "ac es",
      "re ct",
      "Ġst re",
      "Ġ 6",
      "it s",
      "Ġgen er",
      "Ġmean s",
      "ain ed",
      "Ġa v",
      "Ġc old",
      "Ġcontin ue",
      "Ġun c",
      "Ġs qu",
      "e nd",
      "am es",
      "Ġb ol",
      "ig g",
      "Ġc art",
      "Ġw ow",
      "Ġl ist",
      "Ġle ar",
      "Ġbel ieve",
      "Ġde ath",
      "it ies",
      "Ġinv estig",
      "Ġsh ad",
      "Ġgu ess",
      "Ġfur ther",
      "Ġheal ing",
      "Ġday s",
      "d om",
      "Ġstr ange",
      "Ġb ag",
      "Ġsp ace",
      "Ġstr ong",
      "ar wood",
      "Ġg ent",
      "Ġs ign",
      "Ġbri arwood",
      "l s",
      "Ġre sp",
      "Ġh ang",
      "Ġcor rect",
      "i a",
      "Ġdest ro",
      "t ed",
      "c i",
      "im e",
      "fort un",
      "Ġco ll",
      "Ġter rible",
      "Ġm ount",
      "Ġde x",
      "idd le",
      "Ġt ea",
      "Ġar can",
      "Ġpie ces",
      "Ġnot ice",
      "Ġstri ke",
      "c us",
      "ct ure",
      "Ġmy self",
      "Ġbus iness",
      "Ġs ounds",
      "Ġunder stand",
      "Ġ2 2",
      "y ou",
      "Ġpl at",
      "Ġun fortun",
      "id ing",
      "? !",
      "Ġt ouch",
      "Ġd u",
      "Ġapp ear",
      "rou ght",
      "or n",
      "e e",
      "ump kin",
      "m or",
      "Ġsa fe",
      "Ġapp ears",
      "Ġth ird",
      "Ġo b",
      "Ġex pl",
      "ur ing",
      "Ġd ou",
      "Ġd ri",
      "Ġtim es",
      "Ġ '",
      "Ġs am",
      "Ġb rought",
      "Ġmet al",
      "Ġsu per",
      "um b",
      "Ġf ast",
      "Ġm iddle",
      "Ġbe ar",
      "Ġwh ite",
      "il i",
      "Ġfr umpkin",
      "Ġgl ow",
      "a ut",
      "Ġa p",
      "Ġus ing",
      "k es",
      "Ġis n",
      "Ġw is",
      "Ġsu ch",
      "ire d",
      "Ġc ross",
      "Ġmag ical",
      "Ġan n",
      "Ġcl oud",
      "Ġw on",
      "Ġn orth",
      "th e",
      "Ġqu iet",
      "Ġw ish",
      "Ġlo c",
      "ot s",
      "Ġt ent",
      "Ġli ve",
      "Ġsl ight",
      "Ġmanag ed",
      "Ġs ent",
      "Ġcall ed",
      "c on",
      "Ġch est",
      "Ġany way",
      "Ġbr ings",
      "Ġgl ass",
      "Ġf ail",
      "al s",
      "Ġf ill",
      "Ġh ur",
      "Ġcomple te",
      "f oot",
      "Ġpre vious",
      "Ġhapp y",
      "are d",
      "Ġ2 3",
      "Ġle g",
      "Ġwond er",
      "Ġben eath",
      "p et",
      "Ġg row",
      "Ġkill ed",
      "Ġc e",
      "ot h",
      "Ġp ay",
      "Ġstra ight",
      "Ġan g",
      "Ġsn eak",
      "c ed",
      "cent r",
      "Ġsudden ly",
      "Ġh ide",
      "Ġb ra",
      "Ġwas n",
      "ch es",
      "g ed",
      "Ġen c",
      "Ġunfortun ately",
      "Ġsp l",
      "Ġw om",
      "as ion",
      "r ing",
      "Ġbl ast",
      "a pp",
      "oo f",
      "Ġsee ing",
      "Ġcon centr",
      "Ġquick ly",
      "Ġweap on",
      "Ġm ist",
      "Ġkn ock",
      "Ġar t",
      "Ġl ow",
      "Ġd et",
      "Ġdag ger",
      "os ed",
      "Ġin c",
      "che ering",
      "Ġthank s",
      "Ġf ant",
      "o id",
      "et s",
      "Ġm other",
      "Ġon es",
      "Ġro ad",
      "Ġwor ld",
      "Ġb unch",
      "h ere",
      "-- \"",
      "Ġbott om",
      "Ġv an",
      "Ġjo in",
      "Ġto wer",
      "Ġl a",
      "Ġ ess",
      "is per",
      "wh at",
      "Ġe as",
      "Ġbe aut",
      "Ġdestro y",
      "Ġwis dom",
      "Ġatt ention",
      "Ġbel ow",
      "Ġapp are",
      "w ell",
      "Ġh on",
      "Ġcon vers",
      "il ing",
      "Ġdro p",
      "Ġact ual",
      "Ġwatch ing",
      "Ġsu c",
      "Ġf ing",
      "Ġc ertain",
      "j ect",
      "ili ar",
      "ir t",
      "g ing",
      "in y",
      "Ġc ad",
      "Ġann oun",
      "Ġm outh",
      "Ġsk y",
      "Ġgent le",
      "Ġno pe",
      "l and",
      "Ġcr ack",
      "Ġin s",
      "Ġf ol",
      "im a",
      "Ġdang er",
      "Ġst ick",
      "Ġclos er",
      "Ġappare ntly",
      "Ġc ase",
      "Ġb ow",
      "Ġhim self",
      "Ġcreature s",
      "Ġpie ce",
      "l ight",
      "Ġb ase",
      "i k",
      "Ġgre en",
      "c ri",
      "Ġte ch",
      "Ġsu b",
      "il t",
      "is es",
      "un ity",
      "Ġ 8",
      "ast ic",
      "Ġt a",
      "r al",
      "Ġl ater",
      "Ġhour s",
      "Ġk ima",
      "um m",
      "g es",
      "Ġto ld",
      "Ġin it",
      "Ġfo cus",
      "Ġdam n",
      "Ġbeaut if",
      "ore d",
      "Ġbuild ing",
      "t en",
      "Ġspe ed",
      "Ġchar act",
      "Ġprot ect",
      "Ġw in",
      "Ġfam iliar",
      "st er",
      "Ġi m",
      "Ġpro cess",
      "Ġlight ning",
      "Ġstart ing",
      "Ġl ady",
      "ard s",
      "Ġhappen ing",
      "Ġe ffect",
      "Ġelement al",
      "Ġcl o",
      "Ġm er",
      "Ġdrag ons",
      "m e",
      "n ot",
      "Ġtech n",
      "b ed",
      "Ġinvestig ation",
      "Ġattemp t",
      "Ġb ed",
      "Ġch ild",
      "Ġve c",
      "Ġarm s",
      "Ġm od",
      "z y",
      "Ġwait ing",
      "Ġl uck",
      "Ġbl ue",
      "Ġi ll",
      "Ġsm ell",
      "is p",
      "Ġvec na",
      "Ġs ea",
      "Ġtot al",
      "ar m",
      "Ġne ck",
      "ove red",
      "uce us",
      "Ġs itting",
      "Ġb are",
      "le as",
      "Ġbro ken",
      "Ġplan e",
      "Ġcad uceus",
      "Ġb all",
      "Ġhappen s",
      "Ġl ess",
      "Ġbeautif ul",
      "is ter",
      "ag es",
      "ir l",
      "Ġany body",
      "Ġag o",
      "Ġpull ed",
      "Ġbo at",
      "ent ly",
      "Ġwork ing",
      "Ġpi er",
      "Ġwom an",
      "Ġstart s",
      "re ad",
      "Ġc ount",
      "Ġfant astic",
      "Ġk ick",
      "b ing",
      "er n",
      "Ġf aint",
      "Ġp at",
      "Ġg un",
      "s es",
      "Ġm ess",
      "Ġsome body",
      "u b",
      "ons cious",
      "Ġconvers ation",
      "Ġfly ing",
      "Ġt y",
      "k ing",
      "Ġfall s",
      "Ġbo x",
      "Ġes c",
      "Ġto day",
      "Ġwould n",
      "Ġcar pet",
      "c c",
      "le y",
      "l o",
      "ut ion",
      "Ġs ides",
      "Ġ Ġ",
      "as on",
      "Ġhead ing",
      "as k",
      "Ġbol t",
      "Ġsw ing",
      "Ġhall way",
      "Ġd i",
      "if ic",
      "Ġco ver",
      "Ġunc onscious",
      "ir ts",
      "Ġw and",
      "Ġear th",
      "ay er",
      "p r",
      "c ket",
      "ud ge",
      "Ġr ad",
      "Ġg il",
      "Ġser ies",
      "our n",
      "Ġminut e",
      "Ġst airs",
      "ment s",
      "Ġca vern",
      "Ġbare ly",
      "Ġta vern",
      "Ġcar ry",
      "Ġent er",
      "Ġwor th",
      "Ġv as",
      "as hing",
      "Ġde vil",
      "Ġlea ving",
      "h aps",
      "Ġdra w",
      "Ġh u",
      "Ġli ft",
      "Ġdoor s",
      "Ġcl im",
      "um e",
      "id ed",
      "Ġdou ble",
      "Ġwant s",
      "Ġr ough",
      "ch ant",
      "Ġlist en",
      "ater ial",
      "Ġbook s",
      "Ġre qu",
      "Ġde l",
      "Ġent r",
      "Ġp ain",
      "au ght",
      "Ġd iv",
      "b at",
      "or k",
      "Ġund ead",
      "Ġfore st",
      "Ġinter ior",
      "Ġth ick",
      "Ġgener al",
      "iz ed",
      "Ġnat ure",
      "Ġth r",
      "Ġcl ar",
      "Ġstr u",
      "Ġgi ven",
      "Ġp ri",
      "Ġy ell",
      "Ġposs ible",
      "it ing",
      "Ġvis ion",
      "Ġmon th",
      "Ġdex ter",
      "Ġm aterial",
      "us ed",
      "Ġdark ness",
      "Ġwall s",
      "oo se",
      "Ġno ise",
      "Ġex act",
      "it ual",
      "Ġtre es",
      "Ġclo ak",
      "Ġbo y",
      "Ġwr ong",
      "Ġw ide",
      "Ġin f",
      "Ġspell s",
      "c ival",
      "Ġf av",
      "Ġdisc us",
      "Ġinv is",
      "ch ing",
      "Ġthem selves",
      "Ġsw e",
      "Ġho ly",
      "Ġo cc",
      "Ġsp ir",
      "li er",
      "ib ly",
      "Ġdexter ity",
      "Ġhe art",
      "Ġsome where",
      "Ġn orm",
      "n eath",
      "Ġunder neath",
      "Ġinterest ing",
      "Ġse es",
      "Ġput s",
      "Ġd ot",
      "Ġc ry",
      "Ġtechn ically",
      "Ġstru cture",
      "Ġla ura",
      "i ence",
      "s c",
      "ent ially",
      "Ġem on",
      "Ġbit s",
      "Ġgra pp",
      "Ġshif t",
      "Ġf re",
      "Ġpo ison",
      "Ġarcan e",
      "Ġso l",
      "Ġsur v",
      "Ġnear by",
      "Ġre f",
      "Ġi ron",
      "ble m",
      "Ġwalk s",
      "Ġannoun ce",
      "ack s",
      "Ġgi ving",
      "Ġper cival",
      "Ġi ce",
      "Ġne in",
      "b all",
      "Ġpr om",
      "g g",
      "Ġask s",
      "Ġlo st",
      "Ġj ourn",
      "Ġbegin ning",
      "Ġg ave",
      "Ġcl aw",
      "r ie",
      "Ġper haps",
      "Ġnot ic",
      "Ġmus ic",
      "Ġm ine",
      "Ġshad ow",
      "Ġk ing",
      "Ġexc ited",
      "im p",
      "Ġseem ing",
      "Ġm ass",
      "Ġspe nd",
      "Ġbr ief",
      "Ġsy mb",
      "Ġknow s",
      "Ġl ord",
      "Ġmount ain",
      "Ġhell o",
      "Ġsymb ol",
      "it ution",
      "he im",
      "Ġam ong",
      "Ġres ist",
      "Ġm ust",
      "ain ing",
      "Ġbreat h",
      "sel heim",
      "Ġtr ust",
      "Ġcast le",
      "Ġme mb",
      "Ġs ister",
      "Ġyou n",
      "Ġgn ome",
      "Ġd uring",
      "Ġwonder ful",
      "in es",
      "Ġsur round",
      "Ġf an",
      "en ed",
      "Ġst ory",
      "Ġvas selheim",
      "Ġconst itution",
      "Ġb od",
      "Ġwar m",
      "sing ing",
      "un k",
      "Ġmemb ers",
      "Ġbur st",
      "ut e",
      "Ġex per",
      "Ġro pe",
      "Ġtw itch",
      "Ġreach es",
      "Ġre p",
      "Ġmod if",
      "il ar",
      "Ġman sion",
      "Ġfin al",
      "Ġ 7",
      "Ġal ive",
      "Ġpro blem",
      "Ġcra zy",
      "Ġst orm",
      "Ġvan ish",
      "le vel",
      "Ġopen s",
      "Ġr i",
      "Ġcre w",
      "Ġinit i",
      "ant s",
      "Ġwe aring",
      "Ġtr ans",
      "Ġfor ce",
      "Ġt all",
      "Ġv ic",
      "Ġsp here",
      "n y",
      "Ġbe ast",
      "f ace",
      "Ġthink ing",
      "sh ip",
      "al d",
      "Ġsh out",
      "Ġbod ies",
      "Ġn er",
      "Ġr ing",
      "Ġh ot",
      "le e",
      "Ġpull ing",
      "Ġto mor",
      "st airs",
      "Ġtomor row",
      "id s",
      "Ġk ra",
      "Ġdu erg",
      "og n",
      "Ġp our",
      "h and",
      "Ġdis app",
      "Ġfl ash",
      "ik a",
      "Ġduerg ar",
      "Ġinst ead",
      "et h",
      "oo p",
      "Ġ6 0",
      "g ro",
      "b ow",
      "Ġfeel ing",
      "Ġcent ral",
      "Ġslam s",
      "Ġ2 6",
      "Ġs our",
      "Ġl oud",
      "Ġhe ld",
      "Ġp it",
      "Ġar ch",
      "ot a",
      "Ġexact ly",
      "Ġrec ogn",
      "Ġhur t",
      "Ġh i",
      "Ġre act",
      "Ġbeg an",
      "Ġjo b",
      "e en",
      "Ġsh ak",
      "Ġjourn ey",
      "Ġopp ort",
      "Ġpier cing",
      "Ġentr ance",
      "Ġr age",
      "Ġp ap",
      "Ġp ill",
      "und red",
      "Ġmight y",
      "Ġp ushing",
      "Ġ4 0",
      "o ver",
      "Ġcol or",
      "Ġdot y",
      "Ġcle ar",
      "Ġis land",
      "b o",
      "Ġlong er",
      "Ġthrow s",
      "Ġfollow ing",
      "ce ed",
      "Ġv i",
      "Ġc al",
      "Ġc row",
      "Ġfol ks",
      "Ġ er",
      "in ity",
      "Ġwor ry",
      "Ġh undred",
      "Ġce iling",
      "j o",
      "Ġgentle man",
      "is m",
      "f ect",
      "Ġindividual s",
      "il es",
      "Ġsm oke",
      "att ered",
      "Ġweek s",
      "th at",
      "Ġare n",
      "Ġtr ick",
      "Ġf ood",
      "Ġt it",
      "Ġwind ow",
      "Ġcharact er",
      "ro l",
      "Ġmodif ier",
      "im m",
      "Ġear lier",
      "Ġp al",
      "Ġd art",
      "el s",
      "Ġav ail",
      "Ġcl ust",
      "is ed",
      "Ġask ing",
      "Ġiniti ative",
      "Ġ5 0",
      "Ġlead s",
      "s w",
      "Ġex ist",
      "av is",
      "Ġa vant",
      "ar p",
      "Ġpl aces",
      "Ġknow n",
      "Ġho le",
      "Ġavant ika",
      "Ġg irl",
      "ent s",
      "Ġw ounds",
      "Ġm id",
      "Ġtr avis",
      "Ġgil more",
      "Ġcons id",
      "Ġsp r",
      "Ġhead s",
      "z e",
      "Ġsc ream",
      "Ġmiss es",
      "Ġweap ons",
      "Ġsim ilar",
      "Ġdanger ous",
      "an e",
      "Ġsh ape",
      "Ġph ys",
      "Ġw est",
      "Ġclar ota",
      "re t",
      "oo sh",
      "o le",
      "as ps",
      "Ġad vent",
      "Ġrun s",
      "Ġfav or",
      "Ġw y",
      "Ġha mm",
      "ath ered",
      "Ġopport unity",
      "Ġd c",
      "Ġstand s",
      "Ġseem ed",
      "Ġpot ion",
      "Ġs outh",
      "Ġch ange",
      "Ġavail able",
      "Ġs ight",
      "Ġdisc overed",
      "igh s",
      "ra p",
      "Ġper fect",
      "Ġo th",
      "Ġconcentr ation",
      "t on",
      "Ġl ine",
      "ure s",
      "Ġd un",
      "om es",
      "ad es",
      "Ġor der",
      "Ġab ility",
      "ol og",
      "Ġwork s",
      "Ġf ather",
      "Ġs ke",
      "Ġe at",
      "Ġra ven",
      "Ġword s",
      "und er",
      "Ġar ri",
      "Ġw ings",
      "Ġf act",
      "Ġess entially",
      "Ġent ity",
      "ac ed",
      "Ġdo d",
      "ie w",
      "Ġhon est",
      "Ġint ell",
      "Ġfl ame",
      "Ġd ust",
      "g ue",
      "Ġre ason",
      "Ġplay ing",
      "Ġth ro",
      "es h",
      "ea st",
      "Ġkn ew",
      "Ġbr ight",
      "Ġpo s",
      "s k",
      "Ġy ear",
      "Ġamong st",
      "Ġsk in",
      "Ġac id",
      "Ġext ra",
      "Ġse arch",
      "Ġle ather",
      "Ġbriarwood s",
      "Ġcap tain",
      "Ġtell s",
      "on ing",
      "Ġch ain",
      "Ġbl ow",
      "Ġcan not",
      "Ġcomplete ly",
      "Ġl it",
      "Ġadd ition",
      "Ġfing ers",
      "a ff",
      "Ġab s",
      "Ġtary on",
      "Ġoth ers",
      "Ġ2 8",
      "Ġroll s",
      "Ġch o",
      "Ġcontin ues",
      "Ġdoor way",
      "Ġdo ck",
      "Ġlea p",
      "Ġc at",
      "Ġg ate",
      "w ork",
      "i o",
      "Ġplat form",
      "Ġp unch",
      "Ġprevious ly",
      "Ġposs ibly",
      "Ġcr own",
      "Ġ2 7",
      "Ġstay ing",
      "Ġsur face",
      "Ġa x",
      "Ġsur pr",
      "Ġexp ect",
      "Ġpower ful",
      "on es",
      "Ġgra bs",
      "Ġt iny",
      "Ġme m",
      "l ook",
      "isp ers",
      "Ġdis p",
      "Ġslight ly",
      "Ġcont ract",
      "Ġs ize",
      "Ġbl ess",
      "Ġfeel s",
      "gu ard",
      ", \"",
      "Ġway s",
      "ress ed",
      "c ount",
      "Ġfor g",
      "Ġbu ilt",
      "Ġch at",
      "Ġdire ct",
      "Ġa th",
      "isper ing",
      "Ġsil ver",
      "Ġb ab",
      "Ġpr ison",
      "Ġimp ort",
      "Ġpres ence",
      "Ġthro at",
      "Ġath let",
      "z z",
      "Ġburn ing",
      "Ġst air",
      "Ġr id",
      "al t",
      "Ġch ance",
      "an ing",
      "Ġdes ign",
      "Ġit em",
      "c er",
      "Ġf ro",
      "1 0",
      "Ġgr asp",
      "Ġpur p",
      "Ġport ion",
      "Ġli am",
      "a ign",
      "Ġmost ly",
      "Ġen chant",
      "Ġin cl",
      "Ġathlet ics",
      "Ġg if",
      "amm er",
      "Ġvic inity",
      "Ġen jo",
      "Ġcont rol",
      "Ġcamp aign",
      "Ġj aw",
      "Ġhis t",
      "Ġs ou",
      "Ġske let",
      "Ġun less",
      "Ġr ather",
      "Ġw ild",
      "Ġhun ter",
      "Ġdwar f",
      "Ġw ound",
      "Ġim ag",
      "Ġm atter",
      "f uck",
      "o nds",
      "Ġr oof",
      "as ed",
      "Ġconst ru",
      "Ġob ject",
      "Ġneed s",
      "Ġemp ire",
      "Ġopp os",
      "Ġtot ally",
      "ic es",
      "Ġ est",
      "Ġc ell",
      "Ġtr ies",
      "al es",
      "Ġsing le",
      "b ers",
      "Ġroll ing",
      "Ġtr aps",
      "pp er",
      "Ġfinish es",
      "Ġpres ent",
      "re st",
      ") ,",
      "Ġintell ig",
      "Ġins ight",
      "Ġd uck",
      "ast e",
      "Ġtw ice",
      "Ġtr i",
      "Ġpo p",
      "Ġpre ss",
      "ip s",
      "Ġmus c",
      "Ġm en",
      "Ġspec ial",
      "b r",
      "Ġd ep",
      "Ġdestroy ed",
      "Ġte eth",
      "Ġch r",
      "Ġke pt",
      "Ġsupp osed",
      "Ġeas y",
      "and ra",
      "Ġbr ain",
      "Ġcurre nt",
      "Ġch ains",
      "Ġapp re",
      "led ge",
      "Ġsour ce",
      "Ġfl esh",
      "Ġyoun g",
      "at ic",
      "Ġc ass",
      "Ġemp ty",
      "im es",
      "Ġdun ge",
      "Ġs ch",
      "Ġr itual",
      "Ġlock ed",
      "Ġb le",
      "Ġsh ield",
      "Ġseeming ly",
      "n ect",
      "Ġs ong",
      "Ġd ar",
      "ce an",
      "Ġout sk",
      "Ġv iew",
      "Ġgr ay",
      "Ġp ool",
      "Ġinsp ir",
      "ish a",
      "g asps",
      "n s",
      "Ġt ar",
      "Ġany more",
      "Ġinvis ible",
      "f all",
      "Ġcheck s",
      "Ġhor se",
      "Ġan im",
      "Ġask ed",
      "Ġr is",
      "Ġhamm er",
      "Ġis s",
      "Ġappre ci",
      "Ġoutsk irts",
      "Ġpo cket",
      "Ġco ast",
      "Ġax e",
      "o es",
      "ur s",
      "Ġdiv ine",
      "Ġall ura",
      "Ġe vil",
      "Ġbl udge",
      "Ġfl ames",
      "Ġoppos ite",
      "Ġpart ially",
      "in ed",
      "Ġde ck",
      "Ġaddition al",
      "Ġocc asion",
      "ies in",
      "no ll",
      "Ġp ar",
      "Ġpro per",
      "Ġbu y",
      "Ġstri kes",
      "Ġre ve",
      "ure d",
      "Ġm aster",
      "am ed",
      "ud e",
      "Ġcass andra",
      "s ighs",
      "Ġpr one",
      "Ġh itting",
      "Ġcl ass",
      "Ġg noll",
      "ra e",
      "Ġne cess",
      "ri es",
      "Ġelement s",
      "Ġstre et",
      "Ġl ate",
      "Ġsa ren",
      "Ġtor so",
      "gr un",
      "Ġtal iesin",
      "Ġc aught",
      "Ġl ed",
      "e x",
      "Ġsaren rae",
      "Ġhor ses",
      "Ġtea m",
      "Ġd ick",
      "Ġo cean",
      "er y",
      "ve red",
      "Ġpro f",
      "Ġentire ly",
      "in um",
      "Ġst ore",
      "Ġtr ap",
      "Ġor ig",
      "Ġimport ant",
      "Ġmar isha",
      "us ion",
      "y es",
      "Ġs and",
      "fort able",
      "Ġfind ing",
      "Ġro b",
      "Ġgl ad",
      "Ġall ow",
      "Ġlook ed",
      "Ġsk ull",
      "g round",
      "Ġdist ant",
      "Ġfight ing",
      "Ġquest ions",
      "Ġplat inum",
      "Ġre lease",
      "Ġput ting",
      "ail s",
      "Ġsh all",
      "Ġbas ed",
      "Ġhuman oid",
      "Ġglow ing",
      "Ġdr u",
      "Ġsu nd",
      "Ġcou n",
      "om b",
      "Ġbludge oning",
      "Ġcre ep",
      "Ġsomet imes",
      "un e",
      "m on",
      "Ġrem ind",
      "p ect",
      "Ġg athered",
      "Ġtr ied",
      "Ġg h",
      "ang ed",
      "Ġclos ed",
      "i ent",
      "Ġhope fully",
      "2 0",
      "un g",
      "Ġqu een",
      "Ġcrow d",
      "Ġfe ll",
      "Ġst aff",
      "Ġnot e",
      "est s",
      "Ġfor t",
      "am ing",
      "Ġlear ned",
      "Ġh ar",
      "Ġb ird",
      "es us",
      "th ey",
      "Ġwho a",
      "Ġco in",
      "ag ed",
      "Ġstart ed",
      "Ġcle an",
      "00 0",
      "Ġforg ot",
      "Ġbring ing",
      "idd en",
      "ire s",
      "Ġo g",
      "au lt",
      "Ġser ious",
      "Ġintellig ence",
      "il s",
      "Ġlar ger",
      "Ġrec ently",
      "Ġsh ut",
      "Ġsuc ceed",
      "i ant",
      "Ġcon nect",
      "Ġpap er",
      "Ġdis gu",
      "Ġl ower",
      "Ġcoll ect",
      "Ġno body",
      "Ġj esus",
      "Ġter r",
      "Ġte le",
      "Ġse lf",
      "Ġturn ed",
      "Ġbo ots",
      "Ġex cept",
      "Ġcirc le",
      "Ġj am",
      "is hing",
      "ce nd",
      "Ġbl ind",
      "ist s",
      "Ġor b",
      "v ous",
      "Ġmanag es",
      "Ġst up",
      "Ġopen ing",
      "Ġs uck",
      "Ġlead er",
      "Ġb one",
      "Ġcast s",
      "Ġtravel ing",
      "Ġknow ledge",
      "Ġphys ical",
      "Ġhist ory",
      "Ġcast ing",
      "Ġm ention",
      "Ġme ant",
      "m aster",
      "Ġdec ided",
      "Ġmo ves",
      "ri ed",
      "v is",
      "Ġroom s",
      "Ġag ree",
      "Ġyour selves",
      "wh ispering",
      "r ic",
      "ib ility",
      "Ġrecogn ize",
      "Ġr ushing",
      "l ine",
      "ut h",
      "ag ing",
      "Ġf ie",
      "Ġlo ot",
      "Ġreturn ed",
      "ar ily",
      "Ġbab y",
      "ill s",
      "Ġpos ition",
      "Ġap olog",
      "i en",
      "Ġt ear",
      "Ġher self",
      "Ġr ain",
      "u se",
      "Ġfigure s",
      "Ġfe lt",
      "o k",
      "Ġb and",
      "Ġp ack",
      "Ġbro om",
      "Ġstup id",
      "Ġst ab",
      "Ġbl ock",
      "Ġhelp ing",
      "Ġt ight",
      "Ġl ay",
      "Ġconf used",
      "Ġt rou",
      "Ġg e",
      "Ġcl ut",
      "s y",
      "Ġleg s",
      "Ġd ream",
      "Ġb ull",
      "Ġbas ically",
      "Ġreact ion",
      "h ow",
      "Ġse al",
      "Ġj a",
      "Ġbe at",
      "Ġre se",
      "Ġme at",
      "Ġam ount",
      "Ġ2 9",
      "l a",
      "w l",
      "Ġf ield",
      "Ġke g",
      "Ġhigh er",
      "Ġm ap",
      "Ġass ume",
      "Ġst ud",
      "Ġthrough out",
      "Ġlear n",
      "Ġyour s",
      "Ġh idden",
      "Ġtr ace",
      "Ġbec ome",
      "Ġinspir ation",
      "Ġgo li",
      "Ġsol id",
      "Ġgoli ath",
      "re me",
      "Ġang ry",
      "Ġmiss ing",
      "g ers",
      "Ġgo bl",
      "ot ic",
      "Ġglan cing",
      "Ġdra con",
      "Ġquiet ly",
      "Ġp an",
      "Ġh y",
      "Ġr ip",
      "Ġshould ers",
      "Ġsn ow",
      "Ġreg ular",
      "Ġtell ing",
      "look ing",
      "Ġear ly",
      "Ġdwar ven",
      "Ġall ey",
      "Ġsu bs",
      "Ġkeep s",
      "Ġrock s",
      "ot ion",
      "Ġv or",
      "Ġcl oth",
      "Ġal one",
      "Ġd ash",
      "Ġpart ic",
      "Ġnorm al",
      "Ġp leas",
      "Ġcrown s",
      "Ġash ley",
      "Ġcl er",
      "Ġany where",
      "Ġm m",
      "Ġbuild ings",
      "Ġstre ets",
      "Ġadvent ure",
      "Ġext reme",
      "Ġar c",
      "Ġco vered",
      "Ġn amed",
      "Ġtalk s",
      "Ġarrow s",
      "Ġsee k",
      "Ġclim b",
      "Ġnew s",
      "Ġcould n",
      "p ar",
      "Ġus es",
      "Ġpot ions",
      "Ġbit e",
      "Ġcomp an",
      "Ġfor th",
      "Ġty pe",
      "Ġru b",
      "Ġme lee",
      "Ġsit s",
      "Ġf ac",
      "Ġsh arp",
      "Ġfor get",
      "are s",
      "Ġs ink",
      "in ation",
      "Ġm ult",
      "Ġnot es",
      "Ġsh op",
      "Ġmain tain",
      "b ar",
      "Ġha l",
      "e ed",
      "Ġt ap",
      "Ġde fe",
      "er t",
      "if y",
      "c ause",
      "Ġca us",
      "o f",
      "Ġcons cious",
      "Ġset s",
      "th is",
      "Ġlea ves",
      "Ġpers u",
      "Ġo bs",
      "Ġgl o",
      "Ġcre ate",
      "en ge",
      "ug al",
      "Ġne cr",
      "Ġlo se",
      "Ġpush ed",
      "Ġsuc cess",
      "Ġenjo y",
      "ore i",
      "wh oosh",
      "Ġenc ount",
      "Ġmother fuck",
      "Ġsou l",
      "-- ?",
      "Ġcrowns guard",
      "Ġa id",
      "Ġbr other",
      "Ġs ir",
      "Ġre b",
      "Ġem erg",
      "Ġlit er",
      "Ġhang ing",
      "l ish",
      "Ġe ld",
      "re w",
      "Ġh ood",
      "Ġsim ple",
      "ci ent",
      "Ġcertain ly",
      "Ġre leas",
      "Ġvor ugal",
      "Ġn one",
      "ac les",
      "Ġaw are",
      "Ġincl ud",
      "ar n",
      "Ġm a",
      "Ġfl ank",
      "k y",
      "Ġorig in",
      "Ġs umm",
      "Ġse par",
      "Ġgive a",
      "Ġno ises",
      "e f",
      "Ġd im",
      "Ġcar ved",
      "ro le",
      "Ġsupp ort",
      "Ġ &",
      "Ġcur ious",
      "Ġm ed",
      "Ġan cient",
      "Ġ1 0",
      "Ġpe ek",
      "Ġli qu",
      "ot e",
      "Ġannounce ments",
      "Ġpartic ular",
      "Ġha st",
      "ter ing",
      "os ion",
      "Ġgod s",
      "Ġresp ect",
      "h ead",
      "uck les",
      "ress ive",
      "Ġl av",
      "Ġinsp ect",
      "count ing",
      "Ġle ge",
      "Ġdiscus s",
      "Ġcirc um",
      "Ġw ake",
      "Ġl ang",
      "Ġde v",
      "Ġsmall er",
      "Ġp ow",
      "Ġno d",
      "Ġfe ar",
      "on ed",
      "Ġli ves",
      "s n",
      "Ġlang u",
      "r or",
      "Ġ1 00",
      "Ġreal ize",
      "Ġappreci ate",
      "Ġmonth s",
      "Ġsp ark",
      "m s",
      "Ġfre sh",
      "Ġsu ff",
      "Ġsc ry",
      "atter ing",
      "an ces",
      "it ical",
      "Ġc ure",
      "Ġa ffect",
      "ro om",
      "Ġvis ual",
      "li a",
      "z en",
      "Ġneed ed",
      "Ġchild ren",
      "Ġhold s",
      "Ġdri ft",
      "u c",
      "v al",
      "Ġfie nd",
      "Ġdo g",
      "Ġt ab",
      "Ġth under",
      "Ġcre st",
      "Ġg em",
      "Ġu t",
      "Ġgot ten",
      "ah lia",
      "Ġimag ine",
      "Ġread ing",
      "Ġh ug",
      "Ġu gh",
      "il ities",
      "Ġp u",
      "ru un",
      "Ġwest ruun",
      "Ġdru id",
      "Ġwork ed",
      "Ġsw amp",
      "Ġfin ally",
      "Ġe qu",
      "Ġcom bat",
      "Ġfl ick",
      "Ġold er",
      "Ġinterest ed",
      "Ġcontin u",
      "ak es",
      "Ġsm ile",
      "Ġtr an",
      "Ġsm art",
      "urs day",
      "th ere",
      "Ġa le",
      "Ġglan ces",
      "c il",
      "Ġhor rible",
      "Ġth ursday",
      "Ġke v",
      "Ġbar re",
      "Ġreturn ing",
      "d u",
      "Ġspec if",
      "m ing",
      "Ġst or",
      "Ġsp ons",
      "Ġpersu asion",
      "ens ive",
      "Ġpur ple",
      "Ġcatch es",
      "Ġst at",
      "Ġvis ible",
      "c ase",
      "Ġli ving",
      "b orn",
      "Ġl oose",
      "Ġper form",
      "Ġv ol",
      "Ġwr ite",
      "Ġm ur",
      "Ġwh isper",
      "Ġsp ot",
      "Ġburn ed",
      "Ġlege nd",
      "Ġrec all",
      "Ġesc ape",
      "Ġfe y",
      "Ġk ids",
      "Ġwood en",
      "Ġtran sp",
      "Ġl aw",
      "Ġf it",
      "Ġe ag",
      "Ġsl amm",
      "wh ispers",
      "Ġexper ience",
      "Ġcircum st",
      "ad ash",
      "Ġpl aced",
      "Ġz adash",
      "r ation",
      "Ġcross bow",
      "an na",
      "Ġex it",
      "Ġse ction",
      "Ġcry st",
      "Ġd a",
      "Ġsp ent",
      "Ġpo st",
      "re g",
      "Ġint ro",
      "Ġpr ime",
      "Ġswe et",
      "Ġa im",
      "Ġst ones",
      "ch o",
      "Ġdis s",
      "Ġknow ing",
      "Ġsh ake",
      "Ġde ar",
      "w ater",
      "p ort",
      "Ġco st",
      "Ġsome what",
      "Ġsp in",
      "Ġner vous",
      "ri ct",
      "Ġthrow ing",
      "Ġsn ake",
      "il ah",
      "Ġfun ny",
      "Ġtar get",
      "re s",
      "Ġa ud",
      "Ġan k",
      "Ġ vers",
      "Ġup ward",
      "Ġmo ved",
      "Ġth reat",
      "Ġl im",
      "Ġpass ed",
      "Ġdel ilah",
      "id ent",
      "Ġfe m",
      "Ġar r",
      "Ġdisgu ise",
      "Ġencount ered",
      "Ġ x",
      "Ġu h",
      "Ġdiff ic",
      "Ġsc r",
      "Ġsl ashing",
      "c ially",
      "Ġreve al",
      "Ġbe ard",
      "Ġdec ide",
      "Ġd irt",
      "Ġear s",
      "Ġfe at",
      "Ġf ut",
      "d y",
      "Ġtr ade",
      "Ġcare ful",
      "Ġp a",
      "Ġliter ally",
      "Ġhas n",
      "Ġp sy",
      "m en",
      "if e",
      "Ġdist ract",
      "Ġlav a",
      "Ġsh r",
      "Ġtr ack",
      "Ġattack ing",
      "Ġpart s",
      "Ġkill ing",
      "Ġsit u",
      "Ġdi am",
      "Ġst ream",
      "Ġy en",
      "Ġch a",
      "Ġdod ge",
      "Ġs ad",
      "Ġhe at",
      "ir th",
      "Ġor d",
      "Ġcont act",
      "Ġabs ol",
      "ar i",
      "Ġac ro",
      "Ġt roll",
      "ru pt",
      "f or",
      "d ak",
      "Ġgather ing",
      "Ġav oid",
      "Ġacro bat",
      "v arn",
      "Ġsu gg",
      "Ġus ually",
      "Ġex ter",
      "Ġloc ation",
      "in ct",
      "Ġh at",
      "Ġdes cri",
      "Ġf east",
      "Ġwere n",
      "Ġse ll",
      "Ġclust er",
      "Ġste pping",
      "ens ion",
      "Ġw ra",
      "Ġwe ar",
      "Ġfl ow",
      "ative ly",
      "Ġc ard",
      "ir i",
      "m a",
      "Ġextreme ly",
      "Ġpur ch",
      "Ġr ot",
      "Ġsh irt",
      "Ġland s",
      "Ġw ine",
      "Ġprep ared",
      "imp act",
      "Ġf ix",
      "Ġkev dak",
      "Ġl ad",
      "Ġno se",
      "Ġed ges",
      "Ġill usion",
      "Ġgu ild",
      "Ġind eed",
      "Ġfall ing",
      "ee z",
      "Ġge ek",
      "Ġacrobat ics",
      "Ġm age",
      "Ġr an",
      "Ġt ail",
      "Ġen g",
      "pe cially",
      "Ġnotic ed",
      "d e",
      "et her",
      "Ġas ide",
      "Ġc ult",
      "Ġso ld",
      "Ġwor st",
      "iz ing",
      "Ġfut ure",
      "ri b",
      "sw ord",
      "Ġall ies",
      "Ġpsy ch",
      "om a",
      "im id",
      "f ast",
      "Ġmo on",
      "Ġlet ter",
      "Ġsec ret",
      "Ġshot s",
      "Ġtit an",
      "st em",
      "Ġes pecially",
      "Ġdirect ly",
      "Ġto ss",
      "gh ammer",
      "Ġdown stairs",
      "Ġher d",
      "Ġcom ic",
      "Ġz omb",
      "Ġpi le",
      "Ġth in",
      "Ġsh o",
      "Ġre ck",
      "Ġsurpr ise",
      "Ġfall en",
      "2 6",
      "Ġwind ows",
      "Ġkra ghammer",
      "Ġsy l",
      "Ġst o",
      "ol es",
      "Ġy ay",
      "Ġfind s",
      "grun ts",
      "Ġh ate",
      "Ġd om",
      "qu e",
      "Ġch all",
      "itt y",
      "Ġstop s",
      "n ce",
      "Ġmaterial s",
      "Ġm is",
      "pl ic",
      "Ġitem s",
      "Ġup per",
      "g o",
      "y l",
      "Ġess ence",
      "Ġpass es",
      "Ġprep are",
      "Ġarm ored",
      "en ing",
      "Ġsy stem",
      "Ġgivea way",
      "Ġspecif ically",
      "w ise",
      "al a",
      "Ġmeet ing",
      "Ġc and",
      "Ġb an",
      "Ġsw ings",
      "l u",
      "Ġb oo",
      "Ġoff er",
      "Ġsec onds",
      "Ġbreak ing",
      "Ġcarry ing",
      "laugh ing",
      "Ġdag gers",
      "Ġob vious",
      "n ers",
      "ea red",
      "Ġso ft",
      "Ġch oose",
      "Ġv ial",
      "d o",
      "id er",
      "Ġclaw s",
      "Ġw anna",
      "Ġst un",
      "Ġheav ily",
      "Ġsc attered",
      "reg ard",
      "ed ing",
      "ous and",
      "Ġbreat hing",
      "Ġ8 26",
      "Ġbit ch",
      "Ġsqu are",
      "Ġiss ue",
      "Ġrese arch",
      "Ġle ans",
      "Ġmiss ed",
      "Ġpush es",
      "ip le",
      "Ġcho ice",
      "ch ed",
      "Ġmess age",
      "Ġrad iant",
      "Ġin n",
      "ri p",
      "Ġbreak s",
      "Ġag re",
      "Ġgh ost",
      "Ġst reak",
      "Ġhun t",
      "Ġdr unk",
      "Ġfire ball",
      "Ġinv ol",
      "Ġbreak fast",
      "Ġreck less",
      "Ġli br",
      "Ġsp read",
      "Ġr ul",
      "Ġdist rict",
      "Ġdes k",
      "Ġd m",
      "Ġp en",
      "r m",
      "Ġup stairs",
      "Ġgreat er",
      "f er",
      "Ġcoll aps",
      "t le",
      "Ġe ating",
      "Ġdet ails",
      "or ing",
      "ug g",
      "Ġour selves",
      "Ġde ception",
      "Ġexter ior",
      "Ġpsych ic",
      "Ġac c",
      "Ġvi ct",
      "az e",
      "Ġj ew",
      "Ġfill ed",
      "g ar",
      "Ġf ist",
      "Ġbu dd",
      "Ġfing er",
      "Ġpurp ose",
      "Ġconstru ct",
      "Ġth ousand",
      "Ġspeak ing",
      "Ġac cept",
      "Ġwy rm",
      "Ġm ask",
      "Ġop t",
      "ac on",
      "Ġh iding",
      "Ġk iri",
      "Ġhor n",
      "Ġlight s",
      "Ġdock s",
      "Ġgrapp le",
      "Ġshif ting",
      "y eah",
      "Ġb al",
      "Ġsl ayer",
      "Ġb irth",
      "Ġfem ale",
      "Ġnecr otic",
      "Ġint imid",
      "Ġfan cy",
      "Ġap art",
      "Ġd an",
      "Ġqu art",
      "Ġchar ge",
      "Ġunder ground",
      "Ġyell ow",
      "Ġa ge",
      "Ġsc ar",
      "s wer",
      "Ġsyl as",
      "Ġbut t",
      "u be",
      "Ġd ue",
      "Ġfair ly",
      "Ġce leb",
      "Ġser vant",
      "Ġwyrm wood",
      "Ġd in",
      "Ġan swer",
      "Ġshould n",
      "y le",
      "am ent",
      "Ġwor se",
      "Ġmem ber",
      "c ast",
      "Ġchar ism",
      "Ġsa ved",
      "Ġc as",
      "rou d",
      "Ġcoun cil",
      "Ġwh ether",
      "Ġhu ge",
      "Ġhe x",
      "Ġst aring",
      "y n",
      "Ġ $",
      "Ġr ow",
      "Ġb ath",
      "iz es",
      "Ġsc roll",
      "er o",
      "Ġfuck ed",
      "Ġdrink s",
      "Ġknock ed",
      "Ġm ad",
      "Ġbeau regard",
      "Ġcomm on",
      "Ġpour ing",
      "Ġd ive",
      "ust ed",
      "Ġball s",
      "Ġem er",
      "o int",
      "Ġwho ever",
      "Ġhear ing",
      "Ġgre y",
      "Ġflo ating",
      "Ġrad ius",
      "Ġliqu id",
      "Ġch in",
      "Ġgrapp led",
      "Ġlegend ary",
      "Ġor c",
      "Ġturn ing",
      "Ġresist ance",
      "Ġd ig",
      "st ep",
      "h a",
      "Ġash ari",
      "Ġtele port",
      "gro ans",
      "Ġwand ering",
      "Ġdiffic ult",
      "Ġs on",
      "Ġhel m",
      "Ġnear ly",
      "r s",
      "th ank",
      "um ble",
      "Ġperson al",
      "Ġint ense",
      "Ġmoment s",
      "Ġtunnel s",
      "Ġkn e",
      "Ġte nd",
      "Ġ 9",
      "Ġdragon born",
      "rie l",
      "Ġpo l",
      "att ers",
      "Ġvanish es",
      "âĢ Ķ",
      "Ġcloud s",
      "itt en",
      "Ġhop ing",
      "d ra",
      "Ġp in",
      "Ġch an",
      "Ġfun ction",
      "f ield",
      "y ell",
      "Ġhe ight",
      "r ight",
      "s et",
      "umb ling",
      "Ġsw im",
      "Ġbe ach",
      "Ġpro v",
      "Ġdeep er",
      "Ġneck l",
      "Ġoccasion ally",
      "Ġs ens",
      "Ġc ards",
      "Ġca ve",
      "Ġspec ific",
      "Ġh ook",
      "Ġco ck",
      "ac le",
      "oot h",
      "Ġsund ry",
      "b les",
      "Ġas sh",
      "Ġclos es",
      "Ġabsol ute",
      "Ġkra ken",
      "h or",
      "Ġc age",
      "ch ter",
      "Ġv ill",
      "ad ed",
      "Ġmount ains",
      "Ġb ast",
      "Ġcon v",
      "Ġshad ows",
      "Ġconsid ered",
      "Ġd ied",
      "Ġu riel",
      "Ġe ast",
      "Ġhu h",
      "Ġcl iff",
      "Ġlead ing",
      "Ġu l",
      "op y",
      "k ward",
      "Ġp ir",
      "it es",
      "Ġmass ive",
      "Ġun able",
      "v y",
      "Ġper i",
      "Ġdunge ons",
      "Ġgu ide",
      "sh ot",
      "s l",
      "it al",
      "Ġterr ain",
      "Ġtr uth",
      "sh oot",
      "Ġrel atively",
      "Ġunder water",
      "Ġass um",
      "Ġrip ley",
      "Ġm ut",
      "Ġof ten",
      "Ġbr own",
      "r as",
      "Ġc ab",
      "om ing",
      "Ġsh ap",
      "Ġ3 2",
      "Ġchan nel",
      "Ġlibr ary",
      "Ġsh are",
      "Ġfr ust",
      "Ġinclud ing",
      "Ġdiss ip",
      "Ġbudd y",
      "Ġcon cl",
      "Ġresp ons",
      "Ġinc red",
      "Ġsurround ing",
      "Ġinst inct",
      "Ġdrink ing",
      "Ġsubs cri",
      "at or",
      "Ġr ap",
      "Ġwatch ed",
      "Ġt ro",
      "Ġhelp ed",
      "Ġgod d",
      "Ġcor p",
      "Ġlangu age",
      "Ġfavor ite",
      "m in",
      "Ġac qu",
      "Ġtor ch",
      "Ġstair case",
      "Ġbar s",
      "Ġatt ach",
      "Ġda wn",
      "Ġsc en",
      "Ġf ought",
      "Ġf aces",
      "Ġsc ared",
      "t i",
      "Ġh ost",
      "ul ous",
      "Ġg ar",
      "Ġse ver",
      "Ġare as",
      "Ġpo or",
      "Ġel ven",
      "Ġcom fortable",
      "h mm",
      "l ock",
      "ur at",
      "ord ak",
      "Ġcr ate",
      "Ġs ick",
      "at ure",
      "ab lish",
      "Ġbig ger",
      "r am",
      "Ġk it",
      "Ġslamm ing",
      "Ġpi cture",
      "Ġgobl in",
      "ke ep",
      "id ge",
      "Ġhal ved",
      "Ġfe llow",
      "s ings",
      "Ġattack ed",
      "Ġhand le",
      "Ġhalf ling",
      "mp h",
      "Ġcaus ing",
      "ra id",
      "ess ion",
      "Ġaf raid",
      "au nt",
      "Ġconscious ness",
      "Ġw il",
      "Ġv ide",
      "Ġaw kward",
      "us k",
      "ish ed",
      "Ġprof ic",
      "v ice",
      "Ġb re",
      "Ġm atch",
      "Ġac cent",
      "Ġpass age",
      "Ġwin ner",
      "Ġmin us",
      "Ġnorm ally",
      "Ġtrou ble",
      "Ġmotherfuck er",
      "m y",
      "ver se",
      "ore n",
      "Ġsleep ing",
      "igg y",
      "Ġthr own",
      "Ġton gue",
      "Ġgr ass",
      "Ġcharism a",
      "b ook",
      "Ġt ues",
      "ad ing",
      "od es",
      "if act",
      "Ġspl it",
      "Ġtues day",
      "Ġwe ak",
      "Ġde b",
      "Ġpass ing",
      "Ġz ero",
      "Ġperi od",
      "r is",
      "Ġa ut",
      "Ġg ames",
      "Ġkind a",
      "Ġenchant ment",
      "Ġcler ic",
      "Ġsitu ation",
      "Ġso c",
      "Ġart ifact",
      "b reak",
      "Ġp aint",
      "ant ly",
      "Ġcur se",
      "Ġn ames",
      "Ġf a",
      "Ġp roud",
      "Ġal c",
      "Ġst ar",
      "Ġri ver",
      "Ġw ed",
      "Ġf ish",
      "Ġcha os",
      "p ing",
      "z o",
      "Ġk id",
      "Ġb ound",
      "Ġrec ent",
      "Ġtr amm",
      "Ġpay ing",
      "Ġe v",
      "Ġv amp",
      "Ġth ordak",
      "Ġl y",
      "Ġwe e",
      "Ġrob es",
      "Ġr aging",
      "ra ction",
      "ak ing",
      "Ġwr iting",
      "Ġhundred s",
      "Ġv ib",
      "Ġth read",
      "Ġp ul",
      "Ġcon gr",
      "Ġz igg",
      "Ġcra ft",
      "w ild",
      "Ġsp o",
      "Ġimmedi ate",
      "Ġsurv iv",
      "Ġn est",
      "Ġen em",
      "Ġr ise",
      "Ġint ent",
      "ash es",
      "all ey",
      "Ġlot s",
      "Ġi oun",
      "Ġgra nd",
      "th ough",
      "Ġid ent",
      "Ġst ock",
      "Ġbr idge",
      "Ġfore ver",
      "i ans",
      "t op",
      "Ġfull y",
      "Ġenc oun",
      "Ġs at",
      "Ġf al",
      "Ġm ir",
      "st r",
      "g n",
      "Ġst uck",
      "ast y",
      "Ġcl ick",
      "Ġdar ring",
      "Ġplan s",
      "Ġa ff",
      "it ter",
      "Ġe cho",
      "ag ged",
      "Ġest ablish",
      "ak ed",
      "pl ay",
      "re r",
      "Ġrequ est",
      "Ġbec omes",
      "Ġpick ing",
      "Ġpa id",
      "Ġtr aining",
      "Ġgr in",
      "p m",
      "Ġgif t",
      "Ġfey wild",
      "m it",
      "t ers",
      "Ġs ig",
      "Ġcheck ing",
      "ress ion",
      "Ġlove ly",
      "Ġport al",
      "Ġd ressed",
      "ad s",
      "Ġw o",
      "Ġwh e",
      "Ġcl a",
      "Ġbel t",
      "Ġsever al",
      "o kay",
      "Ġp el",
      "Ġk iss",
      "ri f",
      "Ġspons or",
      "Ġwalk ed",
      "Ġfr u",
      "Ġwe ight",
      "Ġad j",
      "Ġreal m",
      "Ġdracon ia",
      "Ġmult iple",
      "Ġaction s",
      "Ġskelet ons",
      "Ġrem ains",
      "Ġdevil s",
      "Ġnecess arily",
      "Ġsc rap",
      "Ġsa il",
      "Ġshout ing",
      "Ġsharp shoot",
      "Ġth or",
      "Ġto ol",
      "Ġv al",
      "Ġpleas ure",
      "Ġemer ge",
      "Ġal though",
      "are t",
      "Ġwood s",
      "Ġdet ect",
      "Ġpre vent",
      "Ġloc al",
      "o c",
      "ke y",
      "Ġent ry",
      "ud d",
      "Ġfail s",
      "Ġtalk ed",
      "Ġzomb ie",
      "p es",
      "u h",
      "Ġ3 5",
      "Ġchar ity",
      "Ġma j",
      "Ġzigg urat",
      "Ġsh ady",
      "Ġ3 1",
      "Ġst ate",
      "Ġsend ing",
      "Ġd ull",
      "Ġbl ink",
      "s m",
      "Ġli ved",
      "Ġcorp se",
      "Ġf old",
      "Ġcomm unity",
      "Ġp ac",
      "oo s",
      "Ġpal ace",
      "Ġmem ory",
      "step s",
      "Ġsharpshoot er",
      "Ġs al",
      "Ġu r",
      "Ġsc ales",
      "Ġ -",
      "Ġb ould",
      "Ġdri ed",
      "Ġfol k",
      "Ġtab les",
      "Ġc am",
      "on y",
      "Ġgrow ing",
      "Ġr av",
      "Ġclos est",
      "b ack",
      "g row",
      "end ing",
      "Ġobvious ly",
      "Ġm ent",
      "im s",
      "Ġprom ise",
      "Ġclut ching",
      "er ie",
      "vis ion",
      "Ġun i",
      "Ġhun g",
      "Ġcl ub",
      "el ess",
      "Ġsch ool",
      "b ased",
      "le ct",
      "Ġvo ices",
      "ul ations",
      "Ġim age",
      "Ġred u",
      "Ġluck y",
      "Ġg ust",
      "Ġinter n",
      "Ġbarre l",
      "Ġbig by",
      "Ġbrief ly",
      "Ġbless ing",
      "\" .",
      "Ġp ract",
      "ea m",
      "Ġfor ge",
      "Ġli e",
      "Ġsepar ate",
      "umb les",
      "om m",
      "Ġcare fully",
      "Ġarri ved",
      "Ġt att",
      "Ġcircumst ance",
      "Ġdarring ton",
      "Ġun com",
      "et er",
      "Ġdim ension",
      "Ġfo g",
      "Ġhon or",
      "Ġn or",
      "Ġne g",
      "t a",
      "l ie",
      "Ġshif ts",
      "Ġab ilities",
      "ri ly",
      "Ġdisc over",
      "Ġp y",
      "ke nd",
      "int s",
      "Ġco b",
      "Ġte xt",
      "Ġneckl ace",
      "Ġtr acks",
      "Ġsm ooth",
      "Ġk itch",
      "Ġp ouch",
      "Ġsh ore",
      "Ġv alley",
      "Ġwill ing",
      "sh it",
      "Ġcharact ers",
      "Ġdisapp ear",
      "Ġc ook",
      "all ic",
      "ward s",
      "Ġlau ghter",
      "Ġinsp ire",
      "Ġnorth ward",
      "Ġeas ily",
      "Ġrough ly",
      "en g",
      "Ġgo sh",
      "Ġk ash",
      "Ġun f",
      "Ġpl ant",
      "Ġent ered",
      "ant ic",
      "Ġform s",
      "le ep",
      "Ġex te",
      "h as",
      "Ġc ode",
      "Ġp ace",
      "Ġtw iggy",
      "li ct",
      "Ġmiss ion",
      "Ġhast e",
      "Ġeag le",
      "Ġinvol ved",
      "Ġkitch en",
      "Ġevery where",
      "Ġp ea",
      "Ġtr ial",
      "Ġtw ins",
      "Ġfro st",
      "Ġc ond",
      "Ġm iles",
      "Ġl ying",
      "ri chter",
      "Ġrush es",
      "Ġsub ter",
      "Ġpel or",
      "Ġt ief",
      "st one",
      "Ġsh itty",
      "Ġsp ect",
      "Ġsome how",
      "Ġwy vern",
      "Ġro lo",
      "n ow",
      "Ġs an",
      "Ġro be",
      "Ġfin ishing",
      "Ġdou b",
      "Ġpill ars",
      "if ied",
      "Ġheal ed",
      "Ġheal th",
      "Ġ ver",
      "Ġt est",
      "Ġarcan a",
      "Ġdist raction",
      "Ġcryst al",
      "Ġbr an",
      "Ġrest ing",
      "Ġanim al",
      "Ġcongr at",
      "Ġeld er",
      "i pping",
      "Ġm il",
      "Ġwor ship",
      "Ġbo ard",
      "Ġgiant s",
      "Ġo il",
      "ive ly",
      "Ġencoun ter",
      "Ġkn ee",
      "Ġspir itual",
      "Ġscream ing",
      "l ies",
      "Ġbus y",
      "Ġcap t",
      "Ġt ask",
      "im ent",
      "Ġfe ed",
      "Ġprep aring",
      "Ġabsolute ly",
      "Ġf ades",
      "Ġf lee",
      "Ġvis it",
      "Ġstor ies",
      "Ġd en",
      "Ġwor ried",
      "Ġtr ip",
      "ra h",
      "Ġpers pect",
      "Ġdro ps",
      "Ġvi ol",
      "Ġwee kend",
      "Ġp um",
      "Ġu m",
      "Ġal ter",
      "Ġfail ed",
      "n ight",
      "Ġi gn",
      "Ġcomple ted",
      "b ut",
      "Ġsp ider",
      "d s",
      "itt ers",
      "Ġfro zen",
      "Ġf est",
      "Ġaw ful",
      "Ġo w",
      "Ġsw arm",
      "r ant",
      "Ġv ine",
      "Ġmon ster",
      "d ed",
      "no on",
      "Ġac com",
      "Ġrel ig",
      "Ġchall enge",
      "w ind",
      "Ġfire s",
      "cr itical",
      "Ġexpl osion",
      "Ġesc ap",
      "Ġspir al",
      "Ġsugg est",
      "Ġul og",
      "Ġc ause",
      "iz ation",
      "h ood",
      "Ġto y",
      "Ġwhere ver",
      "ath ers",
      "Ġsil ence",
      "Ġincred ible",
      "Ġm ax",
      "Ġem b",
      "Ġgnoll s",
      "oren zo",
      "i ers",
      "Ġme al",
      "Ġab and",
      "Ġthink s",
      "ild an",
      "Ġlast s",
      "Ġbon es",
      "Ġcomm and",
      "Ġang le",
      "Ġang rily",
      "r ane",
      "v a",
      "Ġw ard",
      "Ġn on",
      "Ġr ide",
      "ip e",
      "Ġdark ened",
      "Ġchar m",
      "Ġl orenzo",
      "Ġburst s",
      "p her",
      "t ime",
      "Ġcan t",
      "Ġcut ting",
      "Ġjam edi",
      "Ġst om",
      "Ġtra pped",
      "Ġwar ri",
      "Ġsh ove",
      "Ġd ry",
      "Ġpick s",
      "Ġpick ed",
      "Ġdro pped",
      "Ġconsid er",
      "Ġpl ate",
      "Ġmet allic",
      "Ġdwar ves",
      "Ġa mph",
      "Ġmark s",
      "Ġtea ch",
      "Ġinf lu",
      "Ġperspect ive",
      "o on",
      "out ing",
      "Ġup d",
      "g ood",
      "ch uckles",
      "Ġent ities",
      "Ġshow s",
      "Ġal gar",
      "ish an",
      "Ġgener ally",
      "Ġrul es",
      "Ġde m",
      "Ġset ting",
      "Ġshow ing",
      "Ġserious ly",
      "Ġch ang",
      "Ġbl ows",
      "Ġhonest ly",
      "g an",
      "Ġher oes",
      "Ġjew el",
      "ant ern",
      "Ġra ishan",
      "Ġr ay",
      "Ġmy ster",
      "Ġsh imm",
      "os es",
      "Ġx hor",
      "Ġshap es",
      "Ġcongrat ulations",
      "Ġplay ed",
      "or c",
      "Ġv ines",
      "Ġhelp s",
      "Ġclim bing",
      "Ġad or",
      "g y",
      "Ġsp oke",
      "Ġreturn s",
      "Ġspr ay",
      "d en",
      "Ġl antern",
      "Ġas leep",
      "Ġbr ass",
      "r um",
      "Ġbol ts",
      "ash ed",
      "Ġass ist",
      "gro aning",
      "Ġxhor has",
      "z ard",
      "Ġj oh",
      "Ġj eez",
      "Ġdes cend",
      "Ġsubter rane",
      "Ġsubterrane an",
      "Ġb ill",
      "Ġother wise",
      "Ġlisten ing",
      "Ġcal m",
      "ind er",
      "Ġdra wn",
      "Ġtr ail",
      "Ġbar bar",
      "Ġpac ific",
      "r an",
      "Ġbe am",
      "Ġhand ful",
      "Ġkne es",
      "Ġam b",
      "Ġra ised",
      "Ġh ired",
      "Ġk er",
      "ge l",
      "Ġrest r",
      "Ġbri an",
      "Ġconstru ction",
      "Ġbirth day",
      "Ġp atch",
      "in ing",
      "Ġb ard",
      "am n",
      "Ġwr itten",
      "Ġtemp or",
      "Ġtor n",
      "Ġgn omes",
      "Ġconcl ave",
      "f ire",
      "Ġb at",
      "Ġredu ced",
      "w ers",
      "Ġbe acon",
      "Ġd ude",
      "Ġoff ic",
      "Ġfoot steps",
      "Ġm at",
      "Ġde li",
      "Ġgra ve",
      "a it",
      "Ġfort ress",
      "Ġorigin ally",
      "Ġl ake",
      "Ġwe t",
      "Ġsl ide",
      "Ġp age",
      "is ing",
      "Ġkn ight",
      "Ġcr ush",
      "Ġfinish ed",
      "h old",
      "Ġlea ps",
      "Ġshoot ing",
      "Ġn ic",
      "Ġr if",
      "Ġsupp ose",
      "Ġsl a",
      "Ġstone work",
      "Ġwil hand",
      "v est",
      "Ġl imp",
      "Ġro gue",
      "Ġv ia",
      "Ġc ow",
      "Ġle an",
      "Ġshak es",
      "Ġstat ue",
      "Ġd ad",
      "au ghter",
      "Ġcart s",
      "Ġg ates",
      "Ġgold en",
      "Ġcham bers",
      "n e",
      "Ġv es",
      "Ġem an",
      "o ff",
      "an y",
      "ous ly",
      "Ġattemp ts",
      "Ġd ance",
      "Ġm r",
      "Ġbl ades",
      "Ġr ings",
      "ill ed",
      "Ġche ek",
      "Ġallow ed",
      "Ġrav ine",
      "Ġloc ate",
      "m o",
      "Ġc iv",
      "Ġdiscus sion",
      "Ġw rap",
      "nd ing",
      "Ġn ar",
      "Ġr and",
      "Ġrem o",
      "Ġmar qu",
      "h ouse",
      "Ġsuff er",
      "Ġinvis ibility",
      "Ġcreep y",
      "Ġcloth es",
      "Ġcl asp",
      "ut s",
      "Ġlet ting",
      "idd ing",
      "Ġcock ed",
      "Ġch air",
      "el f",
      "p ent",
      "Ġl ion",
      "Ġpro ject",
      "Ġreach ing",
      "Ġbeast s",
      "Ġvide o",
      "r ated",
      "ow ing",
      "Ġdunge on",
      "Ġth ar",
      "Ġp atter",
      "Ġtravel ed",
      "Ġb es",
      "ro p",
      "pt ion",
      "Ġsupp lies",
      "Ġmusc le",
      "Ġfar m",
      "reak ing",
      "Ġwin ter",
      "Ġfl ies",
      "Ġpill ar",
      "Ġmusc les",
      "Ġt ip",
      "Ġt ied",
      "Ġs us",
      "Ġsign ed",
      "g s",
      "Ġp et",
      "ve re",
      "Ġsee king",
      "are l",
      "Ġwa ve",
      "Ġmention ed",
      "Ġdark vision",
      "itch ed",
      "Ġland ing",
      "Ġnecess ary",
      "Ġfru it",
      "aret t",
      "Ġthank fully",
      "critical role",
      "Ġgu iding",
      "Ġde mon",
      "Ġtransp ort",
      "h arel",
      "i ves",
      "Ġr ug",
      "ty pe",
      "Ġco ins",
      "Ġbow l",
      "Ġthr one",
      "Ġdom in",
      "Ġli kes",
      "ri er",
      "Ġbott le",
      "Ġsmell s",
      "Ġfre ed",
      "h ammer",
      "Ġshe pher",
      "Ġbeh old",
      "Ġdrag ged",
      "Ġpum at",
      "Ġt ie",
      "Ġo dd",
      "Ġj arett",
      "Ġbel ong",
      "Ġmaj or",
      "a f",
      "Ġpro g",
      "Ġapolog ize",
      "h ip",
      "i ving",
      "Ġch uck",
      "Ġrub ble",
      "Ġassh ole",
      "al i",
      "Ġpurch ase",
      "Ġin ches",
      "Ġdam aged",
      "Ġtrans form",
      "Ġf il",
      "ot hing",
      "Ġreg ard",
      "Ġbra nd",
      "Ġpow der",
      "Ġp iss",
      "Ġdo lan",
      "Ġafter noon",
      "Ġrec omm",
      "Ġ q",
      "Ġwe b",
      "Ġt ink",
      "Ġo wl",
      "Ġal ph",
      "Ġke en",
      "Ġrem ain",
      "Ġem bed",
      "Ġglo om",
      "un t",
      "Ġdon ated",
      "Ġuncom fortable",
      "g l",
      "Ġf u",
      "Ġgu est",
      "Ġend less",
      "Ġshoot s",
      "are nt",
      "Ġstay s",
      "ps es",
      "Ġcomm un",
      "Ġwond ering",
      "Ġapproach es",
      "Ġfac ing",
      "Ġrecomm end",
      "Ġc ough",
      "Ġre ef",
      "Ġgu ests",
      "Ġrem aining",
      "Ġele ct",
      "Ġamph ala",
      "ru ction",
      "Ġtool s",
      "Ġas um",
      "Ġdrag ging",
      "Ġcar n",
      "Ġcut e",
      "Ġconcentr ate",
      "Ġ â",
      "em ount",
      "cl ick",
      "Ġill ith",
      "Ġdart s",
      "Ġwild emount",
      "Ġuse ful",
      "Ġch anged",
      "Ġex ha",
      "Ġarm y",
      "Ġannounce ment",
      "rib ly",
      "Ġor n",
      "Ġmin es",
      "Ġexc use",
[...]
